{
  "version": "1.0",
  "truncation": null,
  "padding": null,
  "added_tokens": [
    {
      "id": 0,
      "content": "<PAD>",
      "single_word": false,
      "lstrip": false,
      "rstrip": false,
      "normalized": false,
      "special": true
    },
    {
      "id": 1,
      "content": "<UNK>",
      "single_word": false,
      "lstrip": false,
      "rstrip": false,
      "normalized": false,
      "special": true
    }
  ],
  "normalizer": {
    "type": "NFKC"
  },
  "pre_tokenizer": {
    "type": "Sequence",
    "pretokenizers": [
      {
        "type": "Digits",
        "individual_digits": true
      },
      {
        "type": "UnicodeScripts"
      }
    ]
  },
  "post_processor": null,
  "decoder": null,
  "model": {
    "type": "BPE",
    "dropout": null,
    "unk_token": "<UNK>",
    "continuing_subword_prefix": null,
    "end_of_word_suffix": null,
    "fuse_unk": false,
    "byte_fallback": false,
    "ignore_merges": false,
    "vocab": {
      "<PAD>": 0,
      "<UNK>": 1,
      " ": 2,
      "\"": 3,
      "%": 4,
      "(": 5,
      ")": 6,
      "*": 7,
      "+": 8,
      ",": 9,
      "-": 10,
      ".": 11,
      "/": 12,
      "0": 13,
      "1": 14,
      "2": 15,
      "3": 16,
      "4": 17,
      "5": 18,
      "6": 19,
      "7": 20,
      "8": 21,
      "9": 22,
      ":": 23,
      ";": 24,
      "<": 25,
      ">": 26,
      "?": 27,
      "A": 28,
      "B": 29,
      "C": 30,
      "G": 31,
      "I": 32,
      "K": 33,
      "L": 34,
      "N": 35,
      "R": 36,
      "T": 37,
      "U": 38,
      "V": 39,
      "a": 40,
      "b": 41,
      "c": 42,
      "d": 43,
      "e": 44,
      "f": 45,
      "g": 46,
      "h": 47,
      "i": 48,
      "j": 49,
      "k": 50,
      "l": 51,
      "m": 52,
      "n": 53,
      "o": 54,
      "p": 55,
      "r": 56,
      "s": 57,
      "t": 58,
      "u": 59,
      "v": 60,
      "w": 61,
      "x": 62,
      "y": 63,
      "×": 64,
      "—": 65,
      "“": 66,
      "”": 67,
      "、": 68,
      "。": 69,
      "一": 70,
      "七": 71,
      "三": 72,
      "上": 73,
      "下": 74,
      "不": 75,
      "与": 76,
      "专": 77,
      "且": 78,
      "业": 79,
      "东": 80,
      "两": 81,
      "严": 82,
      "个": 83,
      "中": 84,
      "丰": 85,
      "串": 86,
      "临": 87,
      "为": 88,
      "主": 89,
      "久": 90,
      "义": 91,
      "之": 92,
      "也": 93,
      "习": 94,
      "书": 95,
      "了": 96,
      "事": 97,
      "二": 98,
      "于": 99,
      "互": 100,
      "五": 101,
      "井": 102,
      "亚": 103,
      "些": 104,
      "交": 105,
      "亦": 106,
      "产": 107,
      "享": 108,
      "亮": 109,
      "人": 110,
      "仅": 111,
      "介": 112,
      "仍": 113,
      "从": 114,
      "他": 115,
      "代": 116,
      "令": 117,
      "以": 118,
      "们": 119,
      "件": 120,
      "价": 121,
      "任": 122,
      "休": 123,
      "众": 124,
      "优": 125,
      "会": 126,
      "传": 127,
      "估": 128,
      "伸": 129,
      "似": 130,
      "但": 131,
      "位": 132,
      "低": 133,
      "住": 134,
      "体": 135,
      "何": 136,
      "余": 137,
      "作": 138,
      "佳": 139,
      "使": 140,
      "例": 141,
      "供": 142,
      "依": 143,
      "侧": 144,
      "便": 145,
      "促": 146,
      "保": 147,
      "信": 148,
      "修": 149,
      "俯": 150,
      "倍": 151,
      "倒": 152,
      "借": 153,
      "值": 154,
      "倾": 155,
      "假": 156,
      "偏": 157,
      "做": 158,
      "健": 159,
      "储": 160,
      "像": 161,
      "儿": 162,
      "元": 163,
      "充": 164,
      "先": 165,
      "光": 166,
      "免": 167,
      "入": 168,
      "全": 169,
      "八": 170,
      "公": 171,
      "六": 172,
      "共": 173,
      "关": 174,
      "其": 175,
      "具": 176,
      "典": 177,
      "兼": 178,
      "内": 179,
      "再": 180,
      "冗": 181,
      "冲": 182,
      "决": 183,
      "况": 184,
      "净": 185,
      "准": 186,
      "凉": 187,
      "减": 188,
      "凑": 189,
      "几": 190,
      "凸": 191,
      "凹": 192,
      "出": 193,
      "分": 194,
      "划": 195,
      "列": 196,
      "则": 197,
      "创": 198,
      "初": 199,
      "判": 200,
      "利": 201,
      "别": 202,
      "到": 203,
      "制": 204,
      "前": 205,
      "剩": 206,
      "剪": 207,
      "割": 208,
      "力": 209,
      "功": 210,
      "加": 211,
      "务": 212,
      "劣": 213,
      "动": 214,
      "助": 215,
      "势": 216,
      "匀": 217,
      "包": 218,
      "化": 219,
      "北": 220,
      "匹": 221,
      "区": 222,
      "十": 223,
      "升": 224,
      "半": 225,
      "华": 226,
      "协": 227,
      "单": 228,
      "南": 229,
      "占": 230,
      "卧": 231,
      "卫": 232,
      "即": 233,
      "厅": 234,
      "压": 235,
      "厕": 236,
      "厚": 237,
      "原": 238,
      "厨": 239,
      "去": 240,
      "参": 241,
      "又": 242,
      "叉": 243,
      "及": 244,
      "友": 245,
      "双": 246,
      "反": 247,
      "发": 248,
      "取": 249,
      "受": 250,
      "变": 251,
      "叠": 252,
      "口": 253,
      "句": 254,
      "另": 255,
      "只": 256,
      "可": 257,
      "台": 258,
      "右": 259,
      "叶": 260,
      "号": 261,
      "各": 262,
      "合": 263,
      "同": 264,
      "名": 265,
      "后": 266,
      "向": 267,
      "否": 268,
      "吧": 269,
      "含": 270,
      "启": 271,
      "呆": 272,
      "呈": 273,
      "告": 274,
      "员": 275,
      "周": 276,
      "味": 277,
      "呼": 278,
      "命": 279,
      "和": 280,
      "咬": 281,
      "品": 282,
      "响": 283,
      "售": 284,
      "唯": 285,
      "善": 286,
      "器": 287,
      "噪": 288,
      "四": 289,
      "回": 290,
      "因": 291,
      "园": 292,
      "困": 293,
      "围": 294,
      "固": 295,
      "国": 296,
      "图": 297,
      "圆": 298,
      "土": 299,
      "在": 300,
      "地": 301,
      "场": 302,
      "均": 303,
      "坏": 304,
      "坐": 305,
      "块": 306,
      "垂": 307,
      "型": 308,
      "城": 309,
      "域": 310,
      "基": 311,
      "堂": 312,
      "堆": 313,
      "堵": 314,
      "填": 315,
      "境": 316,
      "墙": 317,
      "增": 318,
      "壁": 319,
      "壤": 320,
      "士": 321,
      "声": 322,
      "处": 323,
      "备": 324,
      "复": 325,
      "外": 326,
      "多": 327,
      "夜": 328,
      "够": 329,
      "大": 330,
      "天": 331,
      "夫": 332,
      "央": 333,
      "失": 334,
      "头": 335,
      "夹": 336,
      "奏": 337,
      "套": 338,
      "奢": 339,
      "好": 340,
      "如": 341,
      "妇": 342,
      "妻": 343,
      "始": 344,
      "子": 345,
      "字": 346,
      "存": 347,
      "孤": 348,
      "学": 349,
      "宁": 350,
      "它": 351,
      "宅": 352,
      "安": 353,
      "完": 354,
      "定": 355,
      "宜": 356,
      "实": 357,
      "客": 358,
      "室": 359,
      "家": 360,
      "容": 361,
      "宽": 362,
      "密": 363,
      "富": 364,
      "寓": 365,
      "寸": 366,
      "对": 367,
      "导": 368,
      "封": 369,
      "射": 370,
      "将": 371,
      "小": 372,
      "少": 373,
      "尚": 374,
      "就": 375,
      "尺": 376,
      "尽": 377,
      "局": 378,
      "层": 379,
      "居": 380,
      "屋": 381,
      "展": 382,
      "属": 383,
      "岔": 384,
      "嵌": 385,
      "工": 386,
      "左": 387,
      "差": 388,
      "己": 389,
      "已": 390,
      "市": 391,
      "布": 392,
      "带": 393,
      "常": 394,
      "帽": 395,
      "幅": 396,
      "干": 397,
      "平": 398,
      "年": 399,
      "并": 400,
      "广": 401,
      "床": 402,
      "序": 403,
      "库": 404,
      "应": 405,
      "底": 406,
      "店": 407,
      "度": 408,
      "座": 409,
      "庭": 410,
      "廊": 411,
      "廓": 412,
      "延": 413,
      "建": 414,
      "开": 415,
      "异": 416,
      "式": 417,
      "引": 418,
      "张": 419,
      "弧": 420,
      "弯": 421,
      "弱": 422,
      "强": 423,
      "归": 424,
      "当": 425,
      "形": 426,
      "彩": 427,
      "影": 428,
      "彼": 429,
      "往": 430,
      "征": 431,
      "径": 432,
      "待": 433,
      "得": 434,
      "循": 435,
      "微": 436,
      "心": 437,
      "必": 438,
      "快": 439,
      "念": 440,
      "忽": 441,
      "态": 442,
      "思": 443,
      "急": 444,
      "性": 445,
      "总": 446,
      "息": 447,
      "悬": 448,
      "情": 449,
      "惑": 450,
      "惯": 451,
      "想": 452,
      "意": 453,
      "感": 454,
      "成": 455,
      "或": 456,
      "户": 457,
      "房": 458,
      "所": 459,
      "扁": 460,
      "扇": 461,
      "手": 462,
      "才": 463,
      "扑": 464,
      "打": 465,
      "托": 466,
      "扣": 467,
      "扩": 468,
      "扫": 469,
      "扰": 470,
      "承": 471,
      "技": 472,
      "把": 473,
      "抑": 474,
      "投": 475,
      "折": 476,
      "护": 477,
      "抱": 478,
      "抵": 479,
      "抽": 480,
      "担": 481,
      "拆": 482,
      "拉": 483,
      "拐": 484,
      "拓": 485,
      "拥": 486,
      "择": 487,
      "括": 488,
      "拱": 489,
      "拼": 490,
      "持": 491,
      "挂": 492,
      "指": 493,
      "按": 494,
      "挑": 495,
      "挡": 496,
      "挤": 497,
      "挨": 498,
      "损": 499,
      "换": 500,
      "据": 501,
      "捷": 502,
      "排": 503,
      "接": 504,
      "控": 505,
      "推": 506,
      "措": 507,
      "描": 508,
      "提": 509,
      "插": 510,
      "摆": 511,
      "摊": 512,
      "撑": 513,
      "操": 514,
      "支": 515,
      "收": 516,
      "改": 517,
      "放": 518,
      "故": 519,
      "效": 520,
      "教": 521,
      "敞": 522,
      "散": 523,
      "数": 524,
      "整": 525,
      "文": 526,
      "料": 527,
      "斜": 528,
      "断": 529,
      "新": 530,
      "方": 531,
      "施": 532,
      "旁": 533,
      "旋": 534,
      "无": 535,
      "日": 536,
      "早": 537,
      "时": 538,
      "昂": 539,
      "明": 540,
      "易": 541,
      "星": 542,
      "映": 543,
      "是": 544,
      "显": 545,
      "晨": 546,
      "普": 547,
      "景": 548,
      "晰": 549,
      "智": 550,
      "暖": 551,
      "暗": 552,
      "暴": 553,
      "曲": 554,
      "更": 555,
      "替": 556,
      "最": 557,
      "有": 558,
      "服": 559,
      "望": 560,
      "朝": 561,
      "期": 562,
      "木": 563,
      "未": 564,
      "末": 565,
      "本": 566,
      "术": 567,
      "机": 568,
      "杂": 569,
      "权": 570,
      "材": 571,
      "束": 572,
      "条": 573,
      "来": 574,
      "板": 575,
      "极": 576,
      "构": 577,
      "析": 578,
      "果": 579,
      "枝": 580,
      "枢": 581,
      "架": 582,
      "某": 583,
      "染": 584,
      "柔": 585,
      "柜": 586,
      "查": 587,
      "柱": 588,
      "标": 589,
      "栋": 590,
      "树": 591,
      "样": 592,
      "核": 593,
      "根": 594,
      "格": 595,
      "框": 596,
      "案": 597,
      "桌": 598,
      "桥": 599,
      "梯": 600,
      "械": 601,
      "梳": 602,
      "检": 603,
      "棒": 604,
      "楼": 605,
      "概": 606,
      "槽": 607,
      "模": 608,
      "横": 609,
      "橙": 610,
      "橱": 611,
      "次": 612,
      "止": 613,
      "正": 614,
      "此": 615,
      "步": 616,
      "歧": 617,
      "死": 618,
      "殊": 619,
      "段": 620,
      "每": 621,
      "比": 622,
      "毕": 623,
      "毗": 624,
      "毯": 625,
      "气": 626,
      "氛": 627,
      "水": 628,
      "求": 629,
      "汇": 630,
      "污": 631,
      "汰": 632,
      "沙": 633,
      "沟": 634,
      "没": 635,
      "油": 636,
      "沿": 637,
      "法": 638,
      "泛": 639,
      "注": 640,
      "洁": 641,
      "洗": 642,
      "洞": 643,
      "洲": 644,
      "活": 645,
      "流": 646,
      "浅": 647,
      "测": 648,
      "济": 649,
      "浪": 650,
      "浴": 651,
      "涂": 652,
      "消": 653,
      "涉": 654,
      "涵": 655,
      "淆": 656,
      "淋": 657,
      "淘": 658,
      "深": 659,
      "混": 660,
      "添": 661,
      "清": 662,
      "渐": 663,
      "渡": 664,
      "温": 665,
      "渲": 666,
      "游": 667,
      "湿": 668,
      "源": 669,
      "滑": 670,
      "满": 671,
      "漏": 672,
      "演": 673,
      "潜": 674,
      "潮": 675,
      "灵": 676,
      "点": 677,
      "烟": 678,
      "热": 679,
      "烹": 680,
      "焦": 681,
      "然": 682,
      "照": 683,
      "熟": 684,
      "燃": 685,
      "爽": 686,
      "片": 687,
      "版": 688,
      "物": 689,
      "牲": 690,
      "特": 691,
      "牺": 692,
      "状": 693,
      "独": 694,
      "狭": 695,
      "玄": 696,
      "率": 697,
      "环": 698,
      "现": 699,
      "玻": 700,
      "球": 701,
      "理": 702,
      "璃": 703,
      "瓷": 704,
      "生": 705,
      "用": 706,
      "田": 707,
      "由": 708,
      "电": 709,
      "画": 710,
      "畅": 711,
      "界": 712,
      "留": 713,
      "略": 714,
      "疏": 715,
      "白": 716,
      "的": 717,
      "皆": 718,
      "益": 719,
      "盖": 720,
      "目": 721,
      "盲": 722,
      "直": 723,
      "相": 724,
      "省": 725,
      "看": 726,
      "真": 727,
      "眠": 728,
      "眼": 729,
      "着": 730,
      "睡": 731,
      "矢": 732,
      "知": 733,
      "矩": 734,
      "短": 735,
      "矮": 736,
      "码": 737,
      "砌": 738,
      "研": 739,
      "砖": 740,
      "破": 741,
      "础": 742,
      "确": 743,
      "碍": 744,
      "磨": 745,
      "示": 746,
      "社": 747,
      "禁": 748,
      "离": 749,
      "私": 750,
      "种": 751,
      "租": 752,
      "积": 753,
      "称": 754,
      "移": 755,
      "稀": 756,
      "程": 757,
      "稍": 758,
      "稳": 759,
      "究": 760,
      "穷": 761,
      "空": 762,
      "穿": 763,
      "突": 764,
      "窄": 765,
      "窗": 766,
      "立": 767,
      "竖": 768,
      "童": 769,
      "端": 770,
      "笔": 771,
      "符": 772,
      "第": 773,
      "等": 774,
      "筑": 775,
      "答": 776,
      "策": 777,
      "签": 778,
      "简": 779,
      "算": 780,
      "管": 781,
      "米": 782,
      "类": 783,
      "粗": 784,
      "粹": 785,
      "精": 786,
      "糊": 787,
      "系": 788,
      "素": 789,
      "紧": 790,
      "紫": 791,
      "繁": 792,
      "红": 793,
      "约": 794,
      "级": 795,
      "纯": 796,
      "纳": 797,
      "纵": 798,
      "纸": 799,
      "纹": 800,
      "纽": 801,
      "线": 802,
      "组": 803,
      "细": 804,
      "织": 805,
      "终": 806,
      "经": 807,
      "结": 808,
      "绕": 809,
      "绘": 810,
      "给": 811,
      "络": 812,
      "绝": 813,
      "统": 814,
      "继": 815,
      "续": 816,
      "维": 817,
      "综": 818,
      "绿": 819,
      "缓": 820,
      "编": 821,
      "缘": 822,
      "缝": 823,
      "缩": 824,
      "缸": 825,
      "缺": 826,
      "网": 827,
      "置": 828,
      "美": 829,
      "群": 830,
      "翼": 831,
      "老": 832,
      "考": 833,
      "者": 834,
      "而": 835,
      "耐": 836,
      "联": 837,
      "聚": 838,
      "背": 839,
      "能": 840,
      "自": 841,
      "至": 842,
      "致": 843,
      "舒": 844,
      "航": 845,
      "般": 846,
      "良": 847,
      "色": 848,
      "节": 849,
      "花": 850,
      "若": 851,
      "英": 852,
      "范": 853,
      "草": 854,
      "荷": 855,
      "获": 856,
      "菜": 857,
      "落": 858,
      "蓝": 859,
      "蔽": 860,
      "藏": 861,
      "虑": 862,
      "虚": 863,
      "虽": 864,
      "融": 865,
      "行": 866,
      "衔": 867,
      "衡": 868,
      "衣": 869,
      "补": 870,
      "表": 871,
      "衬": 872,
      "被": 873,
      "裂": 874,
      "装": 875,
      "裕": 876,
      "裹": 877,
      "西": 878,
      "要": 879,
      "覆": 880,
      "见": 881,
      "观": 882,
      "规": 883,
      "视": 884,
      "觉": 885,
      "角": 886,
      "解": 887,
      "触": 888,
      "言": 889,
      "计": 890,
      "认": 891,
      "讨": 892,
      "议": 893,
      "记": 894,
      "论": 895,
      "设": 896,
      "证": 897,
      "评": 898,
      "识": 899,
      "词": 900,
      "话": 901,
      "该": 902,
      "详": 903,
      "语": 904,
      "误": 905,
      "说": 906,
      "读": 907,
      "谁": 908,
      "调": 909,
      "谨": 910,
      "象": 911,
      "负": 912,
      "质": 913,
      "贯": 914,
      "贴": 915,
      "贵": 916,
      "费": 917,
      "赁": 918,
      "资": 919,
      "赖": 920,
      "走": 921,
      "起": 922,
      "超": 923,
      "越": 924,
      "趋": 925,
      "足": 926,
      "距": 927,
      "跨": 928,
      "路": 929,
      "践": 930,
      "身": 931,
      "车": 932,
      "转": 933,
      "轮": 934,
      "软": 935,
      "轴": 936,
      "轻": 937,
      "载": 938,
      "较": 939,
      "辅": 940,
      "辈": 941,
      "辐": 942,
      "辑": 943,
      "输": 944,
      "辨": 945,
      "边": 946,
      "达": 947,
      "过": 948,
      "迎": 949,
      "近": 950,
      "返": 951,
      "还": 952,
      "这": 953,
      "进": 954,
      "远": 955,
      "违": 956,
      "连": 957,
      "述": 958,
      "迷": 959,
      "迹": 960,
      "追": 961,
      "送": 962,
      "适": 963,
      "逃": 964,
      "选": 965,
      "透": 966,
      "逐": 967,
      "递": 968,
      "途": 969,
      "通": 970,
      "速": 971,
      "造": 972,
      "逻": 973,
      "道": 974,
      "遗": 975,
      "遥": 976,
      "遮": 977,
      "遵": 978,
      "避": 979,
      "那": 980,
      "邻": 981,
      "部": 982,
      "都": 983,
      "配": 984,
      "酒": 985,
      "采": 986,
      "里": 987,
      "重": 988,
      "野": 989,
      "量": 990,
      "针": 991,
      "铺": 992,
      "链": 993,
      "销": 994,
      "错": 995,
      "键": 996,
      "锯": 997,
      "镜": 998,
      "长": 999,
      "门": 1000,
      "闭": 1001,
      "问": 1002,
      "闲": 1003,
      "间": 1004,
      "阁": 1005,
      "阅": 1006,
      "阔": 1007,
      "防": 1008,
      "阳": 1009,
      "阴": 1010,
      "阵": 1011,
      "阶": 1012,
      "附": 1013,
      "际": 1014,
      "陈": 1015,
      "降": 1016,
      "限": 1017,
      "院": 1018,
      "除": 1019,
      "险": 1020,
      "陷": 1021,
      "隅": 1022,
      "隐": 1023,
      "隔": 1024,
      "隙": 1025,
      "障": 1026,
      "难": 1027,
      "集": 1028,
      "零": 1029,
      "需": 1030,
      "露": 1031,
      "静": 1032,
      "非": 1033,
      "靠": 1034,
      "面": 1035,
      "鞋": 1036,
      "音": 1037,
      "顶": 1038,
      "项": 1039,
      "顺": 1040,
      "须": 1041,
      "顾": 1042,
      "预": 1043,
      "频": 1044,
      "题": 1045,
      "颜": 1046,
      "额": 1047,
      "颠": 1048,
      "风": 1049,
      "飘": 1050,
      "餐": 1051,
      "饪": 1052,
      "饮": 1053,
      "饰": 1054,
      "首": 1055,
      "馨": 1056,
      "驳": 1057,
      "驶": 1058,
      "驾": 1059,
      "验": 1060,
      "骨": 1061,
      "高": 1062,
      "鲁": 1063,
      "黄": 1064,
      "黑": 1065,
      "默": 1066,
      "齐": 1067,
      "齿": 1068,
      "卧室": 1069,
      "客厅": 1070,
      "厨房": 1071,
      "连接": 1072,
      "位于": 1073,
      "走廊": 1074,
      "浴室": 1075,
      "下方": 1076,
      "侧连接": 1077,
      "相邻": 1078,
      "卫生": 1079,
      "卫生间": 1080,
      "右侧": 1081,
      "上方": 1082,
      "餐厅": 1083,
      "主卧": 1084,
      "左侧": 1085,
      "个卧室": 1086,
      "次卧": 1087,
      "相连": 1088,
      "客厅位于": 1089,
      "阳台": 1090,
      "一间": 1091,
      "厨房位于": 1092,
      "中央": 1093,
      "东侧连接": 1094,
      "西侧": 1095,
      "通向": 1096,
      "南侧": 1097,
      "个浴室": 1098,
      "北侧": 1099,
      "书房": 1100,
      "一间卧室": 1101,
      "通过": 1102,
      "分别": 1103,
      "与客厅": 1104,
      "一个卧室": 1105,
      "分别位于": 1106,
      "紧邻": 1107,
      "客厅东侧连接": 1108,
      "东侧": 1109,
      "与厨房": 1110,
      "北侧连接": 1111,
      "与走廊": 1112,
      "通过走廊": 1113,
      "下角": 1114,
      "两个卧室": 1115,
      "上角": 1116,
      "间卧室": 1117,
      "右侧连接": 1118,
      "其中": 1119,
      "一个浴室": 1120,
      "一间浴室": 1121,
      "设有": 1122,
      "两个浴室": 1123,
      "的卧室": 1124,
      "客厅位于中央": 1125,
      "下方连接": 1126,
      "北侧连接厨房": 1127,
      "下方是": 1128,
      "通往": 1129,
      "靠近": 1130,
      "南侧连接": 1131,
      "与卫生间": 1132,
      "客厅西侧": 1133,
      "一个": 1134,
      "主卫": 1135,
      "主卧室": 1136,
      "在走廊": 1137,
      "与厨房相邻": 1138,
      "南侧为": 1139,
      "次卧室": 1140,
      "西侧连接": 1141,
      "另一间卧室": 1142,
      "中间": 1143,
      "之间": 1144,
      "厨房和": 1145,
      "三个卧室": 1146,
      "右侧是": 1147,
      "与餐厅": 1148,
      "中部": 1149,
      "上方是": 1150,
      "浴室相邻": 1151,
      "左下角": 1152,
      "左上角": 1153,
      "连通": 1154,
      "通向阳台": 1155,
      "玄关": 1156,
      "区域": 1157,
      "房间": 1158,
      "左侧连接": 1159,
      "与客厅相邻": 1160,
      "中心": 1161,
      "起居": 1162,
      "浴室和": 1163,
      "连接着": 1164,
      "次卫": 1165,
      "与卫生间相邻": 1166,
      "依次": 1167,
      "和右": 1168,
      "餐厅北侧": 1169,
      "另一个卧室": 1170,
      "通向厨房": 1171,
      "起居室": 1172,
      "卧室和": 1173,
      "北接": 1174,
      "房屋": 1175,
      "卧室通过走廊": 1176,
      "一侧": 1177,
      "房屋中央": 1178,
      "厨房在": 1179,
      "餐厅北侧通向厨房": 1180,
      "卧室位于": 1181,
      "客厅位于房屋中央": 1182,
      "在厨房": 1183,
      "客厅东侧连接餐厅": 1184,
      "客厅连接": 1185,
      "分别位于走廊": 1186,
      "通向卧室": 1187,
      "并与": 1188,
      "客厅位于中心": 1189,
      "卫生间靠近": 1190,
      "卧室相邻": 1191,
      "右下角": 1192,
      "客厅与餐厅": 1193,
      "上方连接": 1194,
      "贯穿": 1195,
      "左上": 1196,
      "空间": 1197,
      "左下": 1198,
      "厨房位于餐厅": 1199,
      "北面": 1200,
      "厨房位于餐厅一侧": 1201,
      "南侧是": 1202,
      "右上角": 1203,
      "直接": 1204,
      "为书房": 1205,
      "客厅西侧连接": 1206,
      "东侧与": 1207,
      "浴室位于": 1208,
      "两间卧室": 1209,
      "ed": 1210,
      "Bed": 1211,
      "三间卧室": 1212,
      "上下": 1213,
      "客厅西侧为书房": 1214,
      "卧室与": 1215,
      "和下方": 1216,
      "正下方": 1217,
      "两侧": 1218,
      "or": 1219,
      "左下方": 1220,
      "东邻": 1221,
      "厨房位于左侧": 1222,
      "右上": 1223,
      "连客厅": 1224,
      "位置": 1225,
      "进入": 1226,
      "与走廊相连": 1227,
      "南侧连接卫生间": 1228,
      "连接客厅": 1229,
      "底部": 1230,
      "外接": 1231,
      "开放": 1232,
      "开放式": 1233,
      "两间": 1234,
      "右下方": 1235,
      "卫生间西": 1236,
      "门通向阳台": 1237,
      "和厨房": 1238,
      "北侧为": 1239,
      "客厅南侧是": 1240,
      "客厅东侧连接厨房": 1241,
      "空间相连": 1242,
      "主卧并": 1243,
      "西侧通向卧室": 1244,
      "通过开放式": 1245,
      "北接卫生间": 1246,
      "从走廊": 1247,
      "与次卧": 1248,
      "东侧连接卧室": 1249,
      "从走廊进入": 1250,
      "客厅与餐厅通过开放式": 1251,
      "可从走廊进入": 1252,
      "并设有": 1253,
      "卧室通过走廊与客厅相邻": 1254,
      "卫生间靠近主卧并": 1255,
      "厨房位于餐厅一侧并设有": 1256,
      "客厅与餐厅通过开放式空间相连": 1257,
      "卫生间靠近主卧并可从走廊进入": 1258,
      "厨房位于餐厅一侧并设有门通向阳台": 1259,
      "客厅南侧是主卧室": 1260,
      "卧室邻": 1261,
      "客厅在": 1262,
      "通过走廊连接": 1263,
      "其右侧": 1264,
      "北面与卫生间相邻": 1265,
      "另一间浴室": 1266,
      "右侧卧室": 1267,
      "主卧室东邻": 1268,
      "主卧室东邻次卧室": 1269,
      "次卧室北接卫生间": 1270,
      "客厅东侧连接主卧": 1271,
      "卫生间西连客厅": 1272,
      "南卧室": 1273,
      "与走廊相邻": 1274,
      "通往阳台": 1275,
      "th": 1276,
      "ath": 1277,
      "连通餐厅": 1278,
      "Bath": 1279,
      "延伸": 1280,
      "左侧是": 1281,
      "卧室邻近": 1282,
      "厨房连通餐厅": 1283,
      "客厅外接": 1284,
      "北卧室邻近": 1285,
      "北卧室邻近主卫": 1286,
      "客厅外接阳台": 1287,
      "靠近次卫": 1288,
      "南卧室靠近次卫": 1289,
      "客厅右侧": 1290,
      "主卧南侧为": 1291,
      "左侧卧室": 1292,
      "右上方": 1293,
      "开门": 1294,
      "两个": 1295,
      "南侧为厨房": 1296,
      "右下": 1297,
      "生活": 1298,
      "两间浴室": 1299,
      "连接厨房": 1300,
      "主卧相连": 1301,
      "与上方": 1302,
      "北侧餐厅": 1303,
      "in": 1304,
      "客厅连接北侧餐厅": 1305,
      "vin": 1306,
      "ving": 1307,
      "iving": 1308,
      "Living": 1309,
      "另一个浴室": 1310,
      "东侧与主卧相连": 1311,
      "右侧的": 1312,
      "的门": 1313,
      "相通": 1314,
      "南面": 1315,
      "是厨房": 1316,
      "该卧室": 1317,
      "左右": 1318,
      "通往客厅": 1319,
      "并与之": 1320,
      "餐厅通往客厅": 1321,
      "贯穿中部": 1322,
      "餐厅南侧为厨房": 1323,
      "南侧连接主卧": 1324,
      "次卧北侧连接": 1325,
      "设有通往阳台": 1326,
      "设有通往阳台的门": 1327,
      "南面设有通往阳台的门": 1328,
      "en": 1329,
      "it": 1330,
      "下方卧室": 1331,
      "ch": 1332,
      "itch": 1333,
      "itchen": 1334,
      "Kitchen": 1335,
      "主卧东侧连接": 1336,
      "南侧通向阳台": 1337,
      "次卧与": 1338,
      "上方卧室": 1339,
      "与客厅隔": 1340,
      "以玄关": 1341,
      "与客厅隔以玄关": 1342,
      "西侧紧邻": 1343,
      "主卧东侧连接主卫": 1344,
      "客厅西侧连接阳台": 1345,
      "走廊横": 1346,
      "客厅东侧连接次卧": 1347,
      "有一间卧室": 1348,
      "独立": 1349,
      "依次连接": 1350,
      "其上方是": 1351,
      "两个浴室分别位于": 1352,
      "位于走廊": 1353,
      "客厅下方": 1354,
      "一个卫生间": 1355,
      "走廊连接着": 1356,
      "卫生间在厨房": 1357,
      "偏上": 1358,
      "客卫": 1359,
      "其下方是": 1360,
      "分布": 1361,
      "主卧位于": 1362,
      "厨房位于走廊": 1363,
      "两个卧室和": 1364,
      "主卧东侧": 1365,
      "客厅左侧": 1366,
      "浴室在": 1367,
      "走廊位于": 1368,
      "与客厅相连": 1369,
      "与卧室": 1370,
      "紧邻厨房": 1371,
      "的浴室": 1372,
      "正对": 1373,
      "到客厅": 1374,
      "有一个卧室": 1375,
      "卧室的": 1376,
      "书房在": 1377,
      "次卧与书房": 1378,
      "左上方": 1379,
      "客厅位于左侧": 1380,
      "客厅上方": 1381,
      "排列": 1382,
      "和右侧": 1383,
      "厨房位于左上角": 1384,
      "偏左": 1385,
      "绿色": 1386,
      "东侧连接主卧": 1387,
      "dor": 1388,
      "idor": 1389,
      "ridor": 1390,
      "orridor": 1391,
      "生活阳台": 1392,
      "Corridor": 1393,
      "和右下": 1394,
      "旁边": 1395,
      "居中": 1396,
      "北墙": 1397,
      "另一": 1398,
      "其右侧是": 1399,
      "右侧为": 1400,
      "偏右": 1401,
      "正上方": 1402,
      "并排": 1403,
      "与厨房相连": 1404,
      "所有": 1405,
      "与下方": 1406,
      "西侧连接次卧": 1407,
      "分别位于左上": 1408,
      "主卧内": 1409,
      "设有卫生间": 1410,
      "和一间浴室": 1411,
      "连阳台": 1412,
      "其中一个卧室": 1413,
      "的上方": 1414,
      "左右两侧": 1415,
      "部分": 1416,
      "其右侧连接": 1417,
      "中间卧室": 1418,
      "厨房位于左下角": 1419,
      "走廊连接": 1420,
      "该浴室": 1421,
      "和浴室": 1422,
      "主卧东侧设有卫生间": 1423,
      "两个卫生间": 1424,
      "在走廊右侧": 1425,
      "走廊向": 1426,
      "尽头": 1427,
      "入户": 1428,
      "直接相连": 1429,
      "占据": 1430,
      "客厅西侧连接次卧": 1431,
      "入户门": 1432,
      "邻接": 1433,
      "厨房与餐厅": 1434,
      "次卧与书房相邻": 1435,
      "卧室和浴室": 1436,
      "主卧南侧为卫生间": 1437,
      "走廊右侧": 1438,
      "另一个": 1439,
      "与右侧": 1440,
      "位于客厅": 1441,
      "的卧室相邻": 1442,
      "主卧南侧为次卧": 1443,
      "次卧西侧": 1444,
      "并与之相邻": 1445,
      "其右侧紧邻": 1446,
      "走廊下方": 1447,
      "向贯穿中部": 1448,
      "客厅位于厨房": 1449,
      "其下方": 1450,
      "卧室在": 1451,
      "与浴室相邻": 1452,
      "所有房间": 1453,
      "同时": 1454,
      "的右侧": 1455,
      "与左侧": 1456,
      "蓝色": 1457,
      "两个卧室分别位于": 1458,
      "其左侧": 1459,
      "厨房北侧为": 1460,
      "儿童": 1461,
      "儿童房": 1462,
      "与次卧之间": 1463,
      "走廊左侧": 1464,
      "南接": 1465,
      "相接": 1466,
      "和卫生间": 1467,
      "卫生间位于": 1468,
      "四个卧室": 1469,
      "两个浴室分别位于走廊": 1470,
      "顶部": 1471,
      "浴室和卧室": 1472,
      "与卫生间相连": 1473,
      "第三间卧室": 1474,
      "正对客厅": 1475,
      "北接厨房": 1476,
      "以及": 1477,
      "次卧北侧连接客卫": 1478,
      "左中": 1479,
      "最下方": 1480,
      "上方为": 1481,
      "与次卧相邻": 1482,
      "左侧连接一间卧室": 1483,
      "走廊尽头": 1484,
      "的左侧": 1485,
      "客厅位于左上角": 1486,
      "三个卧室和": 1487,
      "次卧北侧连接次卫": 1488,
      "南侧通向卧室": 1489,
      "客厅位于中央偏上": 1490,
      "和卧室": 1491,
      "和走廊": 1492,
      "中下": 1493,
      "客厅居中": 1494,
      "客厅占据": 1495,
      "独立卫生间": 1496,
      "在走廊下方": 1497,
      "通过走廊与": 1498,
      "端连接": 1499,
      "卧室紧邻厨房": 1500,
      "另有": 1501,
      "绿色卧室": 1502,
      "厨房与": 1503,
      "卫生间靠近卧室": 1504,
      "厨房位于中央": 1505,
      "客厅与餐厅相邻": 1506,
      "偏下": 1507,
      "书房通过走廊连接": 1508,
      "南连阳台": 1509,
      "客厅相邻": 1510,
      "走廊纵": 1511,
      "楼梯": 1512,
      "走廊横贯": 1513,
      "为厨房": 1514,
      "右侧连接厨房": 1515,
      "西侧通向": 1516,
      "走廊上方": 1517,
      "上部": 1518,
      "书房通过走廊连接到客厅": 1519,
      "客厅位于上方": 1520,
      "客厅西侧是厨房": 1521,
      "且与": 1522,
      "底部中央": 1523,
      "北侧为厨房": 1524,
      "为卧室": 1525,
      "主卧和": 1526,
      "厨房和餐厅": 1527,
      "三个卧室分别位于": 1528,
      "卫生间在厨房与次卧之间": 1529,
      "下方的": 1530,
      "次卧北侧为厨房": 1531,
      "主卧南侧": 1532,
      "走廊位于中央": 1533,
      "共享": 1534,
      "次卧在": 1535,
      "东墙": 1536,
      "储物": 1537,
      "主卧与卫生间相连": 1538,
      "西侧与次卧相邻": 1539,
      "其左侧连接": 1540,
      "北侧是厨房": 1541,
      "储物间": 1542,
      "卫生间紧邻": 1543,
      "与走廊和": 1544,
      "上方的卧室": 1545,
      "生活区": 1546,
      "走廊横贯中部": 1547,
      "后方": 1548,
      "次卧连接": 1549,
      "并列": 1550,
      "主卧连接": 1551,
      "重叠": 1552,
      "为客厅": 1553,
      "第二": 1554,
      "走廊贯穿": 1555,
      "卧室右侧": 1556,
      "南侧连接阳台": 1557,
      "连接左侧": 1558,
      "右方": 1559,
      "厨房北侧": 1560,
      "并与之相连": 1561,
      "下方连接厨房": 1562,
      "主卧内设": 1563,
      "下方连接着": 1564,
      "客厅正下方": 1565,
      "其上方": 1566,
      "共用": 1567,
      "浴室和厨房": 1568,
      "垂直": 1569,
      "右侧浴室": 1570,
      "阳台相连": 1571,
      "蓝色浴室": 1572,
      "两个浴室和": 1573,
      "卧室通过走廊连接": 1574,
      "主卧位于客厅西侧": 1575,
      "两个卧室分别位于走廊": 1576,
      "其他": 1577,
      "的下方": 1578,
      "西侧紧邻次卧": 1579,
      "通往餐厅": 1580,
      "储藏": 1581,
      "客厅南侧": 1582,
      "卧室旁边": 1583,
      "上下排列": 1584,
      "个房间": 1585,
      "厨房右侧": 1586,
      "厨房和阳台": 1587,
      "下方是客厅": 1588,
      "次卧在主卧南侧": 1589,
      "厨房下方": 1590,
      "和一个浴室": 1591,
      "下方连接走廊": 1592,
      "卧室通过走廊连接到客厅": 1593,
      "卧室下方": 1594,
      "厨房北侧为卫生间": 1595,
      "下方浴室": 1596,
      "玄关正对客厅": 1597,
      "和右下角": 1598,
      "西邻": 1599,
      "和左下": 1600,
      "通阳台": 1601,
      "第三个卧室": 1602,
      "书房南侧": 1603,
      "两个卧室和一个浴室": 1604,
      "西侧紧邻卫生间": 1605,
      "厨房位于上方": 1606,
      "南侧为阳台": 1607,
      "西墙": 1608,
      "主卧连接主卫": 1609,
      "走廊贯穿中部": 1610,
      "书房位于": 1611,
      "为浴室": 1612,
      "卫生间位于卧室旁边": 1613,
      "是卫生间": 1614,
      "餐厅与厨房相邻": 1615,
      "通向客厅": 1616,
      "最右侧": 1617,
      "右侧是客厅": 1618,
      "紧邻走廊": 1619,
      "延伸至": 1620,
      "和下方各": 1621,
      "次卧连接次卫": 1622,
      "下方是浴室": 1623,
      "东侧与卫生间相邻": 1624,
      "有一个浴室": 1625,
      "三个卧室和两个浴室": 1626,
      "客厅位于厨房的": 1627,
      "东侧与阳台相连": 1628,
      "边界": 1629,
      "客厅与厨房相连": 1630,
      "上方的": 1631,
      "和右下方": 1632,
      "入口": 1633,
      "厨房上方": 1634,
      "客厅西侧通往": 1635,
      "书房在次卧西侧": 1636,
      "向下": 1637,
      "客厅与厨房相邻": 1638,
      "卧室通过走廊相连": 1639,
      "北侧是": 1640,
      "客厅位于厨房的北侧": 1641,
      "西接": 1642,
      "书房位于楼梯": 1643,
      "客厅和": 1644,
      "浴室相连": 1645,
      "次卧与卫生间相邻": 1646,
      "右下卧室": 1647,
      "依次是": 1648,
      "设有书房": 1649,
      "厨房在走廊": 1650,
      "黄色": 1651,
      "走廊连接客厅": 1652,
      "其中一间卧室": 1653,
      "上方是浴室": 1654,
      "书房位于楼梯旁": 1655,
      "储藏室": 1656,
      "并连接": 1657,
      "客厅正": 1658,
      "另一个卫生间": 1659,
      "左侧浴室": 1660,
      "过道": 1661,
      "与卧室通过走廊相连": 1662,
      "走廊左侧连接": 1663,
      "方向": 1664,
      "两间浴室分别位于": 1665,
      "走廊横向贯穿中部": 1666,
      "主卧和次卧": 1667,
      "厨房和卫生间": 1668,
      "其上方连接": 1669,
      "三个卧室分别位于左上": 1670,
      "客厅与": 1671,
      "卧室的东侧": 1672,
      "西侧通向次卧": 1673,
      "对齐": 1674,
      "均通过走廊": 1675,
      "书房在卧室的东侧": 1676,
      "分布在": 1677,
      "厨房位于右上角": 1678,
      "其中左上": 1679,
      "在厨房右侧": 1680,
      "连餐厅": 1681,
      "走廊相连": 1682,
      "主卧内设卫生间": 1683,
      "红色": 1684,
      "均与走廊": 1685,
      "间接": 1686,
      "最上方": 1687,
      "和右上": 1688,
      "客厅南侧连接阳台": 1689,
      "连接一间卧室": 1690,
      "另有一间卧室": 1691,
      "右侧连接着": 1692,
      "右侧连接另一间卧室": 1693,
      "接厨房": 1694,
      "上方浴室": 1695,
      "相对": 1696,
      "起居室位于": 1697,
      "厨房相邻": 1698,
      "紧邻客厅": 1699,
      "一门": 1700,
      "其中一个浴室": 1701,
      "主卧带": 1702,
      "形成": 1703,
      "的浴室相邻": 1704,
      "各自": 1705,
      "还有一个卧室": 1706,
      "与右侧的": 1707,
      "下方的卧室": 1708,
      "走廊纵向贯穿中部": 1709,
      "与厨房和": 1710,
      "走廊位于中心": 1711,
      "走廊相邻": 1712,
      "为走廊": 1713,
      "右侧连接客厅": 1714,
      "与中间": 1715,
      "客厅连接餐厅": 1716,
      "向右": 1717,
      "与卧室相连": 1718,
      "另一间": 1719,
      "客厅位于走廊": 1720,
      "向贯穿": 1721,
      "右侧与": 1722,
      "北角": 1723,
      "上方是卧室": 1724,
      "下方是厨房": 1725,
      "左侧是卧室": 1726,
      "下方是走廊": 1727,
      "左下卧室": 1728,
      "位于东侧": 1729,
      "及下方": 1730,
      "卧室的西侧": 1731,
      "右侧是卧室": 1732,
      "厨房左侧": 1733,
      "右侧的卧室": 1734,
      "连卧室": 1735,
      "卫生间紧邻卧室的西侧": 1736,
      "中间偏右": 1737,
      "位于西侧": 1738,
      "客厅东侧": 1739,
      "左侧是浴室": 1740,
      "门洞": 1741,
      "从左": 1742,
      "下方是卧室": 1743,
      "客厅位于右侧": 1744,
      "与主卧": 1745,
      "下方是另一间卧室": 1746,
      "北墙开门": 1747,
      "一间卧室和一间浴室": 1748,
      "厨房北侧通往餐厅": 1749,
      "主卧内含": 1750,
      "是客厅": 1751,
      "直接连通": 1752,
      "还有一间卧室": 1753,
      "北侧是厨房和餐厅": 1754,
      "右中": 1755,
      "浴室右侧": 1756,
      "厨房和客厅": 1757,
      "连接卧室": 1758,
      "下方连接另一间卧室": 1759,
      "右上卧室": 1760,
      "连接走廊": 1761,
      "与客厅之间": 1762,
      "和两间浴室": 1763,
      "右端": 1764,
      "帽间": 1765,
      "衣帽间": 1766,
      "另一卧室": 1767,
      "与客厅以": 1768,
      "南向": 1769,
      "西面": 1770,
      "一条": 1771,
      "有一间浴室": 1772,
      "各有一间卧室": 1773,
      "中间浴室": 1774,
      "次卧西侧设有书房": 1775,
      "卧室位于左上角": 1776,
      "客厅在走廊": 1777,
      "卧室东侧": 1778,
      "走廊连接着客厅": 1779,
      "上而": 1780,
      "自上而": 1781,
      "门洞相通": 1782,
      "自上而下": 1783,
      "四间卧室": 1784,
      "与客厅以门洞相通": 1785,
      "与卧室相邻": 1786,
      "其上方是浴室": 1787,
      "延伸连接": 1788,
      "餐厅东侧": 1789,
      "其他房间": 1790,
      "两个卧室和两个浴室": 1791,
      "客厅的": 1792,
      "走廊上方连接": 1793,
      "直接相邻": 1794,
      "从上": 1795,
      "南接客厅": 1796,
      "走廊在": 1797,
      "左侧的卧室": 1798,
      "外接生活阳台": 1799,
      "中上": 1800,
      "是餐厅": 1801,
      "厨房外接生活阳台": 1802,
      "各有一个卧室": 1803,
      "右上和右下": 1804,
      "公卫": 1805,
      "其下方是走廊": 1806,
      "两间浴室分别位于走廊": 1807,
      "多个房间": 1808,
      "至右": 1809,
      "客厅在右侧": 1810,
      "南角": 1811,
      "北侧连接餐厅": 1812,
      "下方连接浴室": 1813,
      "紫色": 1814,
      "卫生间相邻": 1815,
      "从左至右": 1816,
      "右侧是浴室": 1817,
      "右侧是厨房": 1818,
      "和一间卧室": 1819,
      "客厅在走廊右侧": 1820,
      "覆盖": 1821,
      "厨房和浴室": 1822,
      "卧室和厨房": 1823,
      "公共": 1824,
      "次卧西面": 1825,
      "厨房位于右下角": 1826,
      "是书房": 1827,
      "南侧是阳台": 1828,
      "另一个在": 1829,
      "间浴室": 1830,
      "的客厅": 1831,
      "餐厅连接厨房": 1832,
      "向北": 1833,
      "三个卧室分别位于走廊": 1834,
      "连接餐厅": 1835,
      "厨房与餐厅相连": 1836,
      "一个在": 1837,
      "依次排列": 1838,
      "均与走廊相连": 1839,
      "左侧卧室与": 1840,
      "卫生间在": 1841,
      "走廊向右": 1842,
      "客厅位于中央偏左": 1843,
      "邻接卫生间": 1844,
      "和一个卧室": 1845,
      "餐厅西接": 1846,
      "另一个卧室在": 1847,
      "紧邻阳台": 1848,
      "大部分": 1849,
      "彼此": 1850,
      "三个浴室": 1851,
      "北向": 1852,
      "餐厅位于客厅": 1853,
      "一个卧室和一个浴室": 1854,
      "右侧是走廊": 1855,
      "厨房在左下角": 1856,
      "隔着": 1857,
      "客厅南侧紧邻阳台": 1858,
      "走廊东": 1859,
      "客厅位于左下角": 1860,
      "西北角": 1861,
      "餐厅西接次卧": 1862,
      "其右侧连接走廊": 1863,
      "夹在": 1864,
      "在厨房下方": 1865,
      "餐厅通向客厅": 1866,
      "并排位于": 1867,
      "厨房位于客厅": 1868,
      "其上方是走廊": 1869,
      "和走廊相邻": 1870,
      "和上方": 1871,
      "和厨房之间": 1872,
      "书房南侧与卧室相连": 1873,
      "下方连接客厅": 1874,
      "客厅西侧通往主卧": 1875,
      "次卧西侧紧邻": 1876,
      "在走廊上方": 1877,
      "门厅": 1878,
      "右侧连接浴室": 1879,
      "右侧连接走廊": 1880,
      "主卧南侧连接": 1881,
      "通过走廊连接到": 1882,
      "书房位于客厅": 1883,
      "卫浴": 1884,
      "卧室南接客厅": 1885,
      "多个卧室": 1886,
      "卧室上方": 1887,
      "卫生间在厨房东侧": 1888,
      "走廊呈": 1889,
      "的浴室和": 1890,
      "通厨房": 1891,
      "上下相邻": 1892,
      "卫生间在厨房与卧室": 1893,
      "厨房和卫生间之间": 1894,
      "上方卧室与": 1895,
      "与浴室": 1896,
      "走廊向上": 1897,
      "通过门": 1898,
      "卧室东侧邻接卫生间": 1899,
      "主卧与次卧": 1900,
      "主卧位于西侧": 1901,
      "走廊西": 1902,
      "三间卧室分别位于": 1903,
      "东侧与厨房相连": 1904,
      "南北": 1905,
      "厨房位于走廊上方": 1906,
      "餐厅位于客厅和厨房之间": 1907,
      "卧室与卫生间相邻": 1908,
      "厨房和卫生间之间是餐厅": 1909,
      "并与走廊相连": 1910,
      "两个卧室及": 1911,
      "走廊纵向贯穿": 1912,
      "厨房在右上角": 1913,
      "其上方是卧室": 1914,
      "和客厅": 1915,
      "是主卧": 1916,
      "卧室和卫生间": 1917,
      "走廊横跨": 1918,
      "浴室下方": 1919,
      "走廊连接厨房": 1920,
      "与上方的卧室": 1921,
      "卧室位于走廊": 1922,
      "左下和右下": 1923,
      "厨房西邻": 1924,
      "三间卧室和两间浴室": 1925,
      "不相连": 1926,
      "Living ": 1927,
      "端连接主卧": 1928,
      "大部分区域": 1929,
      "处于": 1930,
      "两个卧室之间": 1931,
      "厨房北面": 1932,
      "依次为": 1933,
      "平面": 1934,
      "北接餐厅": 1935,
      "南连卧室": 1936,
      "两间卧室分别位于": 1937,
      "红色厨房": 1938,
      "与走廊直接相连": 1939,
      "通往走廊": 1940,
      "其中两个卧室": 1941,
      "左方": 1942,
      "卧室位于左侧": 1943,
      "右侧紧邻": 1944,
      "客厅连接厨房和阳台": 1945,
      "客厅在中央": 1946,
      "左侧与": 1947,
      "一个卧室相邻": 1948,
      "北靠": 1949,
      "均相邻": 1950,
      "偏下位置": 1951,
      "南方向": 1952,
      "部分重叠": 1953,
      "东墙开门": 1954,
      "另有一间浴室": 1955,
      "连厨房": 1956,
      "和左下方": 1957,
      "中间偏左": 1958,
      "和下方的": 1959,
      "厨房通过走廊连接到": 1960,
      "走廊居中": 1961,
      "北侧连接次卧": 1962,
      "在走廊左侧": 1963,
      "左侧是厨房": 1964,
      "均通过走廊或": 1965,
      "及右侧": 1966,
      "右侧连接一间卧室": 1967,
      "下方连接一间卧室": 1968,
      "位于左侧": 1969,
      "次卧西侧紧邻储物间": 1970,
      "起居室相邻": 1971,
      "右下角卧室": 1972,
      "和阳台": 1973,
      "其右侧紧邻走廊": 1974,
      "厨房通过走廊连接到卧室": 1975,
      "次卧和": 1976,
      "厨房与卫生间": 1977,
      "),": 1978,
      "连接一个卧室": 1979,
      "直接相通": 1980,
      "连主卧": 1981,
      "独立卫浴": 1982,
      "两者": 1983,
      "与客厅和": 1984,
      "客厅和厨房": 1985,
      "浴室位于走廊": 1986,
      "南侧是卫生间": 1987,
      "其右侧是浴室": 1988,
      "主卧带独立卫生间": 1989,
      "客厅位于左下方": 1990,
      "下部": 1991,
      "接走廊": 1992,
      "其下方是浴室": 1993,
      "客厅位于走廊右侧": 1994,
      "和厨房相邻": 1995,
      "与右侧卧室相邻": 1996,
      "整体": 1997,
      "走廊贯穿中央": 1998,
      "在客厅": 1999,
      "环绕": 2000,
      "平面图": 2001,
      "向上": 2002,
      "其右侧是卧室": 2003,
      "北靠卫生间": 2004,
      "卫生间东侧": 2005,
      "客厅位于右下角": 2006,
      "其下方是客厅": 2007,
      "和右侧的": 2008,
      "厨房位于走廊左侧": 2009,
      "南接厨房": 2010,
      "左侧的": 2011,
      "和右上方": 2012,
      "客厅相连": 2013,
      "下方连接一个卧室": 2014,
      "其下方连接走廊": 2015,
      "对面": 2016,
      "一间卧室相邻": 2017,
      "客厅正南方向": 2018,
      "厨房及": 2019,
      "厨房西邻客厅": 2020,
      "厨房在客厅右侧": 2021,
      "客厅北侧连接次卧": 2022,
      "走廊从": 2023,
      "下方为": 2024,
      "客厅南侧为阳台": 2025,
      "上方是客厅": 2026,
      "通过门与客厅相连": 2027,
      "且通过门与客厅相连": 2028,
      "接客厅": 2029,
      "书房位于客厅旁边": 2030,
      "与上方卧室相邻": 2031,
      "客厅位于左上方": 2032,
      "书房相邻": 2033,
      "走廊连接着厨房": 2034,
      "左侧连接一间卧室和一间浴室": 2035,
      "连接上下": 2036,
      "一个浴室相邻": 2037,
      "浴室和另一间卧室": 2038,
      "向南": 2039,
      "直接连接": 2040,
      "厨房在右侧": 2041,
      "向下连接": 2042,
      "一个客厅": 2043,
      "北连阳台": 2044,
      "结构": 2045,
      "卧室相连": 2046,
      "各房间": 2047,
      "左中部": 2048,
      "客厅北侧为": 2049,
      "次卧和卫生间": 2050,
      "右侧连接一个卧室": 2051,
      "还有": 2052,
      "且均": 2053,
      "厨房与客厅": 2054,
      "在走廊右下方": 2055,
      "阳台西侧连接": 2056,
      "客厅北侧为阳台": 2057,
      "两个卧室相邻": 2058,
      "阳台西侧连接储藏室": 2059,
      "一门通向": 2060,
      "走廊北": 2061,
      "餐厅后方": 2062,
      "共享边界": 2063,
      "次卧南侧为厨房": 2064,
      "左右相邻": 2065,
      "两端": 2066,
      "右侧连接卧室": 2067,
      "中下部": 2068,
      "浴室上方": 2069,
      "和左下角": 2070,
      "再往": 2071,
      "显示": 2072,
      "一个厨房": 2073,
      "厨房与餐厅相通": 2074,
      "卫生间南接厨房": 2075,
      "餐厅与客厅": 2076,
      "客厅西侧是卫生间": 2077,
      "夹着": 2078,
      "是浴室": 2079,
      "分布在走廊": 2080,
      "走廊依次连接": 2081,
      "东侧与书房相邻": 2082,
      "卧室和下方": 2083,
      "顶部中央": 2084,
      "互通": 2085,
      "另一侧": 2086,
      "右侧连接另一个卧室": 2087,
      "卧室和客厅": 2088,
      "西墙开门": 2089,
      "西侧连接厨房": 2090,
      "是卧室": 2091,
      "其中一间浴室": 2092,
      "依次为卧室": 2093,
      "卧室与浴室": 2094,
      "与浴室和": 2095,
      "和右上角": 2096,
      "三个": 2097,
      "客厅右下方": 2098,
      "北侧为厨房和餐厅": 2099,
      "东侧餐厅": 2100,
      "上方连接一间卧室": 2101,
      "次卧东侧与书房相邻": 2102,
      "分别连接": 2103,
      "还连接": 2104,
      "右中部": 2105,
      "另一浴室": 2106,
      "有两个卧室": 2107,
      "客厅连接东侧餐厅": 2108,
      "三间卧室分别位于左上": 2109,
      "至下": 2110,
      "右侧是另一间卧室": 2111,
      "并延伸至": 2112,
      "横向": 2113,
      "该平面图": 2114,
      "边缘": 2115,
      "卧室南侧": 2116,
      "右侧连接一间浴室": 2117,
      "餐厅北侧为厨房": 2118,
      "厨房在右下角": 2119,
      "西侧开门": 2120,
      "该平面图显示": 2121,
      "北侧连通": 2122,
      "下方连接另一个卧室": 2123,
      "与书房": 2124,
      "为阳台": 2125,
      "另一个卧室位于": 2126,
      "厨房位于客厅上方": 2127,
      "区域为客厅": 2128,
      "该卧室下方": 2129,
      "位于走廊下方": 2130,
      "右侧为客厅": 2131,
      "为卫生间": 2132,
      "厨房和卧室": 2133,
      "右上角卧室": 2134,
      "偏上位置": 2135,
      "与左侧卧室相邻": 2136,
      "另一间卧室相邻": 2137,
      "及厨房": 2138,
      "整个": 2139,
      "客厅左侧连接": 2140,
      "连接书房": 2141,
      "大门": 2142,
      "下方与": 2143,
      "右侧依次连接": 2144,
      "上方是走廊": 2145,
      "上方是另一间卧室": 2146,
      "其中一个卧室在": 2147,
      "带卫生间": 2148,
      "通过走廊相连": 2149,
      "厨房南侧": 2150,
      "两个卫生间分别位于": 2151,
      "餐厅东侧为厨房": 2152,
      "厨房和走廊": 2153,
      "其右侧是走廊": 2154,
      "西侧通向走廊": 2155,
      "另外": 2156,
      "下方是另一个卧室": 2157,
      "西邻卫生间": 2158,
      "右下区域": 2159,
      "从上至下": 2160,
      "上下两侧": 2161,
      "两个浴室分别位于走廊的": 2162,
      "厨房紧邻": 2163,
      "公共卫生间": 2164,
      "两个浴室和三个卧室": 2165,
      "走廊西端连接主卧": 2166,
      "该卫生间": 2167,
      "客厅后方": 2168,
      "厨房位于左下方": 2169,
      "客厅连接玄关": 2170,
      "厨房位于中心": 2171,
      "右侧的客厅": 2172,
      "两个卫生间分别位于走廊": 2173,
      "左下角卧室": 2174,
      "浴室和客厅": 2175,
      "主卧内含独立卫生间": 2176,
      "西端": 2177,
      "右邻": 2178,
      "房间位于": 2179,
      "阳台与客厅": 2180,
      "客厅右上方": 2181,
      "左侧上下": 2182,
      "厨房在走廊右侧": 2183,
      "Bed ": 2184,
      "东通阳台": 2185,
      "厨房再": 2186,
      "下方连接另一间浴室": 2187,
      "卧室左侧": 2188,
      "右侧和下方": 2189,
      "与走廊及": 2190,
      "的卧室相连": 2191,
      "实现": 2192,
      "接浴室": 2193,
      "右侧卧室与": 2194,
      "紧邻浴室": 2195,
      "设有阳台": 2196,
      "垂直排列": 2197,
      "面积": 2198,
      "均与走廊或": 2199,
      "两间卧室分别位于走廊": 2200,
      "主卧位于南侧": 2201,
      "和主卧": 2202,
      "南墙": 2203,
      "厨房另有": 2204,
      "左侧和右侧": 2205,
      "分布于": 2206,
      "客厅正南方向为阳台": 2207,
      "两间卧室及": 2208,
      "门开": 2209,
      "通过走廊或": 2210,
      "三间浴室": 2211,
      "末端": 2212,
      "厨房位于底部中央": 2213,
      "餐厅再": 2214,
      "北侧通向厨房": 2215,
      "三间卧室分别位于走廊": 2216,
      "与下方卧室相邻": 2217,
      "所有房间均": 2218,
      "入口门厅": 2219,
      "与上方的": 2220,
      "位于厨房": 2221,
      "分布着": 2222,
      "连接左侧卧室": 2223,
      "厨房位于起居室": 2224,
      "和左侧": 2225,
      "左侧为": 2226,
      "客厅位于下方": 2227,
      "走廊连接着三个卧室": 2228,
      "西侧开门通往阳台": 2229,
      "西侧通往走廊": 2230,
      "与厨房之间": 2231,
      "与主卧之间": 2232,
      "次卧东侧": 2233,
      "北侧为玄关": 2234,
      "北墙再": 2235,
      "主卧南侧连接次卧": 2236,
      "西南角": 2237,
      "厨房在客厅下方": 2238,
      "右侧卧室下方": 2239,
      "客厅在走廊下方": 2240,
      "上方是厨房": 2241,
      "两间卧室和一间浴室": 2242,
      "走廊向右延伸": 2243,
      "和另一间浴室": 2244,
      "左端": 2245,
      "在厨房上方": 2246,
      "次卧紧邻": 2247,
      "次卧西面连接书房": 2248,
      "不直接相连": 2249,
      "下方连接一个浴室": 2250,
      "东南角": 2251,
      "左上角卧室": 2252,
      "分别分布在": 2253,
      "厨房与客厅相邻": 2254,
      "浴室与": 2255,
      "上方和下方各": 2256,
      "并与走廊相邻": 2257,
      "北侧依次连接": 2258,
      "下方连接一间浴室": 2259,
      "依次连接卧室": 2260,
      "厨房南侧设有阳台": 2261,
      "到下": 2262,
      "卫生间北面": 2263,
      "餐厅连接客厅": 2264,
      "在厨房正下方": 2265,
      "厨房连接客厅": 2266,
      "下方卧室与": 2267,
      "上层": 2268,
      "公用": 2269,
      "共同": 2270,
      "并与厨房相邻": 2271,
      "连接着走廊": 2272,
      "位于走廊上方": 2273,
      "从上到下": 2274,
      "走廊横跨中部": 2275,
      "各连接一间卧室": 2276,
      "间接相连": 2277,
      "右侧连接另一间浴室": 2278,
      "厨房北面通往餐厅": 2279,
      "的浴室相连": 2280,
      "和中间": 2281,
      "厨房位于客厅正下方": 2282,
      "厨房位于右侧": 2283,
      "卧室和走廊": 2284,
      "间接连通": 2285,
      "左邻": 2286,
      "手边": 2287,
      "客厅位于上方中央": 2288,
      "二者": 2289,
      "右侧通过走廊连接": 2290,
      "延伸出": 2291,
      "中段": 2292,
      "下方连接卧室": 2293,
      "左侧自上而下": 2294,
      "的右下方": 2295,
      "通餐厅": 2296,
      "上方与": 2297,
      "水平": 2298,
      "通向走廊": 2299,
      "两个浴室分别": 2300,
      "无房间": 2301,
      "客厅及": 2302,
      "起居区": 2303,
      "四个卧室分别位于左上": 2304,
      "是次卧": 2305,
      "上方连接浴室": 2306,
      "北通阳台": 2307,
      "右侧相邻": 2308,
      "不同": 2309,
      "通道": 2310,
      "上方浴室相邻": 2311,
      "客厅位于底部中央": 2312,
      "南端": 2313,
      "位于走廊右侧": 2314,
      "走廊连接南侧": 2315,
      "向右连接": 2316,
      "主卧与次卧不相连": 2317,
      "其上方为": 2318,
      "右侧浴室相邻": 2319,
      "与餐厅相连": 2320,
      "东邻书房": 2321,
      "下方是另一间浴室": 2322,
      "一个厨房和": 2323,
      "客厅位于厨房上方": 2324,
      "相互": 2325,
      "连接所有房间": 2326,
      "其右侧是客厅": 2327,
      "下方通过走廊连接": 2328,
      "的右上方": 2329,
      "较大": 2330,
      "走廊连接南侧主卧和": 2331,
      "客厅左下方": 2332,
      "两个并排": 2333,
      "各有一个浴室": 2334,
      "客厅与厨房": 2335,
      "厨房在走廊下方": 2336,
      "中央黄色": 2337,
      "在走廊右上方": 2338,
      "并与走廊": 2339,
      "主卧位于西北角": 2340,
      "左上卧室": 2341,
      "左侧中部": 2342,
      "一个浴室和一个卧室": 2343,
      "正对入户门": 2344,
      "客厅右侧是": 2345,
      "客厅北侧": 2346,
      "厨房在客厅正下方": 2347,
      "厨房位于走廊下方": 2348,
      "另一间浴室相邻": 2349,
      "左侧卧室下方": 2350,
      "厨房另有一门通向": 2351,
      "中左": 2352,
      "仅与": 2353,
      "厨房连接餐厅": 2354,
      "东连客厅": 2355,
      "餐厅东邻书房": 2356,
      "还连接着": 2357,
      "上接": 2358,
      "附带卫生间": 2359,
      "其上方是客厅": 2360,
      "分别位于客厅": 2361,
      "另一个浴室位于": 2362,
      "客厅占据右侧": 2363,
      "客厅位于走廊下方": 2364,
      "中间偏右位置": 2365,
      "仅与客厅": 2366,
      "北卧室与": 2367,
      "和餐厅": 2368,
      "右侧的浴室": 2369,
      "入口门厅正对": 2370,
      "上方是另一个卧室": 2371,
      "走廊东端": 2372,
      "走廊纵向贯穿中央": 2373,
      "东连主卧": 2374,
      "客厅在左下角": 2375,
      "其下方是卧室": 2376,
      "推拉": 2377,
      "相邻房间": 2378,
      "右上角的卧室": 2379,
      "主卧位于西端": 2380,
      "厨房位于中央偏上": 2381,
      "隔着走廊": 2382,
      "开一门": 2383,
      "通过走廊与客厅相连": 2384,
      "左侧连接浴室": 2385,
      "与下方的": 2386,
      "次卧和书房": 2387,
      "且与客厅": 2388,
      "并与客厅相邻": 2389,
      "接壤": 2390,
      "还有一个浴室": 2391,
      "北侧次卧": 2392,
      "与上方卧室": 2393,
      "右侧为厨房": 2394,
      "和另一间卧室": 2395,
      "连走廊": 2396,
      "通向卫生间": 2397,
      "最左侧": 2398,
      "右上区域": 2399,
      "走廊向左": 2400,
      "玄关正对入户门": 2401,
      "走廊连接南侧主卧和北侧次卧": 2402,
      "推拉门": 2403,
      "第二个浴室": 2404,
      "分别与": 2405,
      "通过走廊与其他房间": 2406,
      "且与走廊": 2407,
      "前方": 2408,
      "连接一间浴室": 2409,
      "且在": 2410,
      "客厅右": 2411,
      "客厅位于中央偏下": 2412,
      "一条走廊": 2413,
      "一个卧室和": 2414,
      "彼此相邻": 2415,
      "入口门厅正对南向": 2416,
      "最大": 2417,
      "最上方的卧室": 2418,
      "中间区域": 2419,
      "左侧连接一间浴室": 2420,
      "厨房与餐厅互通": 2421,
      "客厅在下方": 2422,
      "以及下方的": 2423,
      "功能": 2424,
      "上方和右侧": 2425,
      "部分覆盖": 2426,
      "在走廊左下方": 2427,
      "其左侧是浴室": 2428,
      "均与走廊相邻": 2429,
      "餐厅北面": 2430,
      "阳台南接": 2431,
      "并与其": 2432,
      "客厅位于中央偏上位置": 2433,
      "二楼": 2434,
      "四周": 2435,
      "客厅左侧是厨房": 2436,
      "两个浴室及": 2437,
      "Bath ": 2438,
      "左侧是客厅": 2439,
      "其右侧连接厨房": 2440,
      "每个卧室": 2441,
      "客厅在厨房右侧": 2442,
      "中间夹着": 2443,
      "南北相对": 2444,
      "浴厕": 2445,
      "主卧自": 2446,
      "两间卧室之间": 2447,
      "第二间浴室": 2448,
      "紫色走廊": 2449,
      "的左下方": 2450,
      "右侧为浴室": 2451,
      "纵向": 2452,
      "主卧带独立卫浴": 2453,
      "依次排列着": 2454,
      "上方的浴室": 2455,
      "下方连接另一个浴室": 2456,
      "右下角的卧室": 2457,
      "其他区域": 2458,
      "阳台南接卧室和卫生间": 2459,
      "和次卧": 2460,
      "连次卧": 2461,
      "其左侧紧邻": 2462,
      "厨房位于中央偏左": 2463,
      "紫色区域": 2464,
      "被走廊": 2465,
      "下方也": 2466,
      "主卧南侧连接卫生间": 2467,
      "过道相连": 2468,
      "有浴室": 2469,
      "客厅左": 2470,
      "厨房位于客厅右侧": 2471,
      "一间浴室相邻": 2472,
      "最下方的卧室": 2473,
      "走廊北端": 2474,
      "并与客厅": 2475,
      "其中左上卧室": 2476,
      "实现连通": 2477,
      "右边": 2478,
      "下方浴室相邻": 2479,
      "右侧卧室位于": 2480,
      "左侧相邻": 2481,
      "客厅在右下角": 2482,
      "两个卧室和浴室": 2483,
      "客厅正北": 2484,
      "餐厅连接客厅和厨房": 2485,
      "第二间卧室": 2486,
      "仅与走廊相连": 2487,
      "右接": 2488,
      "无直接连接": 2489,
      "客厅正上方": 2490,
      "其中左侧卧室": 2491,
      "浴室位于厨房": 2492,
      "卫生间东侧与客厅相连": 2493,
      "下方依次连接": 2494,
      "右侧上下": 2495,
      "上方和下方": 2496,
      "通往卫生间": 2497,
      "和右中": 2498,
      "厨房与餐厅相邻": 2499,
      "整个空间": 2500,
      "右侧有": 2501,
      "另一个卧室相邻": 2502,
      "右侧为走廊": 2503,
      "次卧西面紧邻": 2504,
      "厨房位于客厅正上方": 2505,
      "下层": 2506,
      "左下角和右下角": 2507,
      "及浴室": 2508,
      "开窗": 2509,
      "下方的卧室相邻": 2510,
      "中间浴室相邻": 2511,
      "厨房位于走廊右侧": 2512,
      "主卧内设独立卫生间": 2513,
      "和底部": 2514,
      "与客厅和走廊相邻": 2515,
      "住宅": 2516,
      "厨房连接": 2517,
      "厨房位于左侧中部": 2518,
      "与一个浴室相邻": 2519,
      "次卧北侧": 2520,
      "走廊向下": 2521,
      "厨房位于客厅左侧": 2522,
      "中间的卧室": 2523,
      "第二个卧室": 2524,
      "右侧也": 2525,
      "客厅位于右上角": 2526,
      "其中上方卧室": 2527,
      "两个浴室和厨房": 2528,
      "卫生间紧邻卧室": 2529,
      "餐厅再向北": 2530,
      "餐厅北面是": 2531,
      "通书房": 2532,
      "卧室位于走廊左侧": 2533,
      "上方为浴室": 2534,
      "其中左上卧室与": 2535,
      "在右侧": 2536,
      "主卧西侧": 2537,
      "左侧连接厨房": 2538,
      "在左下角": 2539,
      "卧室南侧连接卫生间": 2540,
      "位于左上角": 2541,
      "厨房和一间卧室": 2542,
      "连接一个浴室": 2543,
      "两个浴室相邻": 2544,
      "另一个卧室位于走廊": 2545,
      "位于上方": 2546,
      "客厅西侧通往卧室": 2547,
      "共用一": 2548,
      "其左侧是卧室": 2549,
      "另有一个卧室": 2550,
      "左侧浴室相邻": 2551,
      "分别位于走廊两侧": 2552,
      "主卧和次卧之间": 2553,
      "布局": 2554,
      "和右方": 2555,
      "主卧东侧附带卫生间": 2556,
      "另一绿色卧室": 2557,
      "北侧连通厨房": 2558,
      "与书房之间": 2559,
      "厨房位于客厅下方": 2560,
      "厨房位于左侧上方": 2561,
      "其右侧连接着": 2562,
      "中下卧室": 2563,
      "设门": 2564,
      "客厅位于左上": 2565,
      "上方连接卧室": 2566,
      "对应": 2567,
      "通主卧": 2568,
      "底层": 2569,
      "起居室下方": 2570,
      "上方连接一个卧室": 2571,
      "卫生间在卧室": 2572,
      "中上部": 2573,
      "与厨房和走廊相邻": 2574,
      "一个独立": 2575,
      "另一个浴室相邻": 2576,
      "所有房间通过走廊或": 2577,
      "主卧南侧连接主卫": 2578,
      "厨房的": 2579,
      "餐厅与客厅之间": 2580,
      "和正下方": 2581,
      "厨房下方是": 2582,
      "餐厅与客厅相连": 2583,
      "左侧紧邻": 2584,
      "端连接入户门": 2585,
      "中右": 2586,
      "起居室位于中央": 2587,
      "次卧紧邻主卧东侧": 2588,
      "动线": 2589,
      "叠放": 2590,
      "向东": 2591,
      "外侧": 2592,
      "连接着厨房": 2593,
      "和浴室相连": 2594,
      "厨房位于上方中央": 2595,
      "与一个卧室相邻": 2596,
      "与上方的浴室和": 2597,
      "所有房间通过": 2598,
      "两个浴室和一个卧室": 2599,
      "北墙开门通向": 2600,
      "浴室及": 2601,
      "浴室在厨房右侧": 2602,
      "依次连接厨房": 2603,
      "和右下位置": 2604,
      "以及右侧的": 2605,
      "三个卧室分别位于左下": 2606,
      "与走廊和浴室相邻": 2607,
      "和左下位置": 2608,
      "客厅占据右侧大部分区域": 2609,
      "客厅的上方": 2610,
      "客厅位于中央偏右": 2611,
      "与卫生间共用": 2612,
      "右侧是另一个卧室": 2613,
      "起居空间": 2614,
      "北通": 2615,
      "的卫生间": 2616,
      "南邻": 2617,
      "卧室之间": 2618,
      "与走廊和下方": 2619,
      "两个卧室分别": 2620,
      "右上卧室与": 2621,
      "下方的浴室": 2622,
      "左侧连接一个卧室": 2623,
      "浴室和走廊": 2624,
      "左下卧室与": 2625,
      "卧室南侧开窗": 2626,
      "第四间卧室": 2627,
      "中间位置": 2628,
      "三个卧室分别位于左侧": 2629,
      "旁设": 2630,
      "与上方的卧室相邻": 2631,
      "其右侧紧邻客厅": 2632,
      "且与厨房": 2633,
      "是走廊": 2634,
      "厨房南侧是卫生间": 2635,
      "客厅连接大门": 2636,
      "上方连接走廊": 2637,
      "绿色卧室位于": 2638,
      "中央是客厅": 2639,
      "和走廊相连": 2640,
      "直通": 2641,
      "且与走廊相邻": 2642,
      "介于": 2643,
      "周围": 2644,
      "和中下": 2645,
      "最下方卧室": 2646,
      "客厅则": 2647,
      "连接上方卧室": 2648,
      "连接着客厅": 2649,
      "在厨房左侧": 2650,
      "左下角的卧室": 2651,
      "区域相邻": 2652,
      "北墙与卫生间共用": 2653,
      "厨房北侧为储藏室": 2654,
      "走廊向上延伸": 2655,
      "右侧卧室相邻": 2656,
      "右侧连接一个浴室": 2657,
      "依次为浴室": 2658,
      "并列两个卧室": 2659,
      "东接": 2660,
      "其中一个": 2661,
      "其左侧连接着": 2662,
      "公用卫生间": 2663,
      "的厨房": 2664,
      "厨房东侧": 2665,
      "连通客厅": 2666,
      "两个浴室分别位于左上角": 2667,
      "与右侧的卧室": 2668,
      "其左侧连接一间卧室": 2669,
      "左侧和下方": 2670,
      "客厅左侧连餐厅": 2671,
      "所有卧室": 2672,
      "在右下角": 2673,
      "中央区域": 2674,
      "其中两个卧室分别位于走廊": 2675,
      "左中卧室": 2676,
      "之相邻": 2677,
      "邻近": 2678,
      "左侧依次连接": 2679,
      "上方连接厨房": 2680,
      "三个浴室分别位于": 2681,
      "和两个卧室": 2682,
      "客厅右侧走廊依次连接": 2683,
      "中间卧室相邻": 2684,
      "走廊依次": 2685,
      "中间偏下位置": 2686,
      "连接各": 2687,
      "该卧室右侧": 2688,
      "与右侧的卧室相邻": 2689,
      "次卧北侧是厨房": 2690,
      "厨房与卫生间不相连": 2691,
      "的正下方": 2692,
      "下方则": 2693,
      "下方和右侧": 2694,
      "阳台连接客厅": 2695,
      "两个卧室并排位于": 2696,
      "与卧室和": 2697,
      "向左": 2698,
      "厨房后方": 2699,
      "上方连接着": 2700,
      "厨房位于顶部中央": 2701,
      "位于走廊尽头": 2702,
      "其中一个卧室相邻": 2703,
      "入户门正对客厅": 2704,
      "第一个卧室": 2705,
      "卫生间分别位于": 2706,
      "底部卧室": 2707,
      "连接主卧": 2708,
      "走廊贯穿整个空间": 2709,
      "环形": 2710,
      "上侧": 2711,
      "卫生间在厨房与主卧之间": 2712,
      "客厅东": 2713,
      "餐厅与厨房相连": 2714,
      "厨房位于左上方": 2715,
      "在走廊正下方": 2716,
      "连接卫生间": 2717,
      "下方有": 2718,
      "卧室位于厨房": 2719,
      "其右侧为走廊": 2720,
      "黄色客厅": 2721,
      "中央黄色区域为客厅": 2722,
      "其余": 2723,
      "正下方是": 2724,
      "主卧自带": 2725,
      "浴室紧邻": 2726,
      "右侧自上而下": 2727,
      "与厨房相通": 2728,
      "卧室位于走廊上方": 2729,
      "浴室位于左侧": 2730,
      "浴室位于左上角": 2731,
      "该浴室又": 2732,
      "的正上方": 2733,
      "厨房相连": 2734,
      "次卧东侧与卫生间相邻": 2735,
      "左侧连接卧室": 2736,
      "与右侧浴室相邻": 2737,
      "厨房西侧": 2738,
      "餐厅北墙": 2739,
      "客厅在右上角": 2740,
      "和下方各有一个卧室": 2741,
      "分别位于客厅两侧": 2742,
      "右侧接": 2743,
      "右侧连接另一个浴室": 2744,
      "连接客厅和卧室": 2745,
      "底部对齐": 2746,
      "开向": 2747,
      "还有一间浴室": 2748,
      "位于左下角": 2749,
      "主卧与次卧相邻": 2750,
      "北侧依次连接次卧和书房": 2751,
      "另一间卧室和浴室": 2752,
      "玄关相连": 2753,
      "其右侧紧邻浴室": 2754,
      "走廊尽头是主卧": 2755,
      "上下方": 2756,
      "和两个浴室": 2757,
      "次卧东侧连接": 2758,
      "右上角和右下角": 2759,
      "客厅在上方": 2760,
      "次卧与书房相连": 2761,
      "另一个房间": 2762,
      "张床": 2763,
      "南侧走廊尽头": 2764,
      "两间浴室和": 2765,
      "其下方是厨房": 2766,
      "三间": 2767,
      "直达": 2768,
      "浴室在走廊右侧": 2769,
      "客厅位于最上方": 2770,
      "起居室上方": 2771,
      "客厅位于中心位置": 2772,
      "次卧与主卧": 2773,
      "浴室在卧室右侧": 2774,
      "书房在南侧走廊尽头": 2775,
      "与下方的卧室": 2776,
      "连接浴室": 2777,
      "连接上方": 2778,
      "走廊通向": 2779,
      "左侧有": 2780,
      "之间由": 2781,
      "上方连接一间浴室": 2782,
      "与上方卧室和": 2783,
      "下连": 2784,
      "走廊的": 2785,
      "浴室左侧": 2786,
      "上方连接一个浴室": 2787,
      "与左侧卧室和": 2788,
      "贯通": 2789,
      "走廊垂直": 2790,
      "右侧紧邻客厅": 2791,
      "其左侧是": 2792,
      "其下方连接着": 2793,
      "厨房上方是": 2794,
      "右侧中部": 2795,
      "厨房位于最下方": 2796,
      "下接": 2797,
      "卧室在走廊右侧": 2798,
      "下方卧室位于": 2799,
      "次卧对面": 2800,
      "靠近厨房": 2801,
      "起居室右侧": 2802,
      "同时与": 2803,
      "厨房北侧为储物间": 2804,
      "和左中": 2805,
      "通次卧": 2806,
      "右侧客厅": 2807,
      "其右侧为": 2808,
      "开门通向": 2809,
      "餐厅后方是厨房": 2810,
      "走廊右侧连接": 2811,
      "两个卧室上下排列": 2812,
      "另一个床": 2813,
      "浴室正下方": 2814,
      "卫生间北侧连通厨房": 2815,
      "连通走廊": 2816,
      "右侧卧室相连": 2817,
      "右侧为卧室": 2818,
      "厨房位于最上方": 2819,
      "与走廊和厨房相邻": 2820,
      "两个卧室分别位于左上": 2821,
      "下方是另一个浴室": 2822,
      "玄关连接客厅": 2823,
      "浴室和两个卧室": 2824,
      "该卧室上方": 2825,
      "走廊向北": 2826,
      "客厅位于走廊的右侧": 2827,
      "与相邻": 2828,
      "东西": 2829,
      "在下方": 2830,
      "厨房北侧为餐厅": 2831,
      "三个卧室和两个卫生间": 2832,
      "次卧东侧连接次卫": 2833,
      "与过道相连": 2834,
      "厨房位于生活区": 2835,
      "其右侧紧邻厨房": 2836,
      "其右侧为卧室": 2837,
      "厨房与浴室": 2838,
      "储藏间": 2839,
      "下侧": 2840,
      "中央偏右": 2841,
      "走廊向右延伸连接": 2842,
      "浴室则": 2843,
      "左侧的浴室": 2844,
      "通过走廊与厨房": 2845,
      "中间的": 2846,
      "厨房和另一间卧室": 2847,
      "和右中部": 2848,
      "所有房间均与过道相连": 2849,
      "客厅占据右下区域": 2850,
      "走廊东端连接入户门": 2851,
      "各有一间浴室": 2852,
      "餐厅东侧与": 2853,
      "一个房间位于": 2854,
      "和厨房相连": 2855,
      "位于走廊左侧": 2856,
      "其右侧是厨房": 2857,
      "且与走廊相连": 2858,
      "厨房北侧连接": 2859,
      "下方紧邻": 2860,
      "浴室位于走廊右侧": 2861,
      "邻接走廊": 2862,
      "共用卫生间": 2863,
      "最右侧的卧室": 2864,
      "卫生间在厨房与书房之间": 2865,
      "上部中央": 2866,
      "左手边": 2867,
      "形贯穿中部": 2868,
      "卧室正下方": 2869,
      "左下方和右下方": 2870,
      "客厅左侧是": 2871,
      "右上和左下": 2872,
      "两个浴室分别位于左上": 2873,
      "再往右": 2874,
      "串联": 2875,
      "客厅位于走廊上方": 2876,
      "右侧卧室及": 2877,
      "右侧卧室在": 2878,
      "与下方的卧室相邻": 2879,
      "厨房另有一门通向生活阳台": 2880,
      "北邻": 2881,
      "后门": 2882,
      "横跨": 2883,
      "下方左侧": 2884,
      "且与厨房相邻": 2885,
      "两个卧室相连": 2886,
      "厨房在左侧": 2887,
      "厨房在走廊上方": 2888,
      "客厅正北为书房": 2889,
      "并紧邻": 2890,
      "隔开": 2891,
      "和下方的卧室相邻": 2892,
      "两个卧室和两个卫生间": 2893,
      "右上和右下区域": 2894,
      "环形动线": 2895,
      "和另一个卧室": 2896,
      "和底部中央": 2897,
      "连接入户门": 2898,
      "下方卧室相邻": 2899,
      "其中上方卧室与": 2900,
      "上方为卧室": 2901,
      "和右上区域": 2902,
      "与客厅直接相连": 2903,
      "入户门连接客厅": 2904,
      "四个卧室分别位于": 2905,
      "和下方各有一间卧室": 2906,
      "下方左右两侧": 2907,
      "南卧室各": 2908,
      "走廊尽头是": 2909,
      "中间偏左位置": 2910,
      "可达": 2911,
      "居二楼": 2912,
      "连接左右两侧": 2913,
      "一个床": 2914,
      "厨房和另一间浴室": 2915,
      "阳台与客厅直接连通": 2916,
      "北卧室与南卧室各": 2917,
      "北卧室与南卧室各居二楼": 2918,
      "且位于": 2919,
      "附近": 2920,
      "与走廊重叠": 2921,
      "依次连接浴室": 2922,
      "其右侧连接一间卧室": 2923,
      "左接": 2924,
      "客厅东墙": 2925,
      "与下方浴室相邻": 2926,
      "西侧通往阳台": 2927,
      "浴室位于走廊下方": 2928,
      "厨房连接生活阳台": 2929,
      "大卧室": 2930,
      "并与厨房": 2931,
      "主卧与次卧之间": 2932,
      "一个卧室在": 2933,
      "右下卧室与": 2934,
      "主卧西侧为卫生间": 2935,
      "和右侧卧室": 2936,
      "走廊下方连接": 2937,
      "卫生间再": 2938,
      "与卫生间相通": 2939,
      "与左侧的卧室": 2940,
      "与走廊和客厅相邻": 2941,
      "竖直": 2942,
      "左侧卧室和": 2943,
      "卧室位于上方": 2944,
      "下方卧室相连": 2945,
      "走廊连接着两个卧室": 2946,
      "其下方连接": 2947,
      "右侧上方": 2948,
      "楼梯相连": 2949,
      "与中间的": 2950,
      "相互连通": 2951,
      "餐厅再向北连接入户门": 2952,
      "浴室和另一个卧室": 2953,
      "和下方的浴室相邻": 2954,
      "与右侧的浴室相邻": 2955,
      "连卫生间": 2956,
      "书房靠近": 2957,
      "一个走廊连接着三个卧室": 2958,
      "右端连接": 2959,
      "客厅上方是": 2960,
      "客厅左上方": 2961,
      "厨房位于左上": 2962,
      "与右侧的客厅相邻": 2963,
      "多个卧室和浴室": 2964,
      "走廊东端连接客厅": 2965,
      "和中部": 2966,
      "客厅西墙": 2967,
      "上方连接一间卧室和一间浴室": 2968,
      "底部相邻": 2969,
      "通过走廊与其他区域": 2970,
      "客厅东墙开门": 2971,
      "连接左侧浴室": 2972,
      "连接左侧的卧室": 2973,
      "的左右两侧": 2974,
      "另一间卧室和一间浴室": 2975,
      "开敞": 2976,
      "卧室及": 2977,
      "上方卧室相邻": 2978,
      "连通厨房": 2979,
      "走廊连接卧室": 2980,
      "书房南侧连通走廊": 2981,
      "依次是卧室": 2982,
      "彼此不直接相连": 2983,
      "并分": 2984,
      "矩形": 2985,
      "西北": 2986,
      "中间的浴室": 2987,
      "另一个卧室和浴室": 2988,
      "厨房与客厅南北相对": 2989,
      "门开在": 2990,
      "一个房间位于另一个房间": 2991,
      "为一间卧室": 2992,
      "围绕": 2993,
      "走廊下方是客厅": 2994,
      "下方通过走廊与": 2995,
      "左侧为卧室": 2996,
      "两个并排的卧室": 2997,
      "的左上方": 2998,
      "客厅右侧连接": 2999,
      "一间浴室和一间卧室": 3000,
      "左侧连接着": 3001,
      "上方卧室右侧": 3002,
      "与下方的浴室相邻": 3003,
      "直接相邻实现连通": 3004,
      "仅与客厅相连": 3005,
      "左侧邻接": 3006,
      "阳台位于": 3007,
      "房间相邻": 3008,
      "om": 3009,
      "的两侧": 3010,
      "餐厅连接": 3011,
      "中央的": 3012,
      "主卧和次卧分别位于走廊两侧": 3013,
      "卧室一": 3014,
      "端连接次卧": 3015,
      "oom": 3016,
      "再下方是": 3017,
      "卧室与客厅": 3018,
      "均通过走廊或直接": 3019,
      "主卧和次卧之间以及": 3020,
      "为另一间卧室": 3021,
      "走廊与": 3022,
      "浴室在右上角": 3023,
      "卫生间分别位于主卧和次卧之间以及": 3024,
      "卫生间分别位于主卧和次卧之间以及书房": 3025,
      "有两间卧室": 3026,
      "第一间卧室": 3027,
      "门朝": 3028,
      "下方为客厅": 3029,
      "其中一间": 3030,
      "右上方和右下方": 3031,
      "均与走廊直接相连": 3032,
      "形成环形动线": 3033,
      "与主卫": 3034,
      "是阳台": 3035,
      "的左上": 3036,
      "通走廊": 3037,
      "客厅在厨房下方": 3038,
      "厨房右侧是": 3039,
      "通向书房": 3040,
      "分别分布在走廊": 3041,
      "客厅在中央偏上": 3042,
      "三个房间": 3043,
      "最底部": 3044,
      "客厅位于中央上方": 3045,
      "另一间卧室位于": 3046,
      "右侧且与": 3047,
      "两个上下排列": 3048,
      "主卧内含主卫": 3049,
      "分别分布在左上": 3050,
      "卫生间北面通往走廊": 3051,
      "左端连接": 3052,
      "浴室分别位于": 3053,
      "与客厅或": 3054,
      "上方连接客厅": 3055,
      "在左侧": 3056,
      "次卧西侧紧邻卫生间": 3057,
      "与餐厅相邻": 3058,
      "上下相连": 3059,
      "客厅在左侧": 3060,
      "的上方和下方": 3061,
      "三间卧室分别位于左下": 3062,
      "卫生间北面与厨房相通": 3063,
      "右侧紧邻厨房": 3064,
      "南侧为入户门": 3065,
      "卧室位于客厅右侧": 3066,
      "东墙再": 3067,
      ")、": 3068,
      "东北角": 3069,
      "客厅在厨房": 3070,
      "厨房在下方": 3071,
      "卧室位于厨房上方": 3072,
      "次卧与书房相通": 3073,
      "其中一个浴室位于": 3074,
      "边缘对齐": 3075,
      "厨房北侧连接生活阳台": 3076,
      "接书房": 3077,
      "客厅西墙开门": 3078,
      "三个卧室分布在": 3079,
      "餐厅东侧与卫生间相通": 3080,
      "浴室与厨房": 3081,
      "一个走廊位于中心": 3082,
      "客厅西侧连接厨房": 3083,
      "两个卧室和一个卫生间": 3084,
      "其左侧连接卧室": 3085,
      "和两间卧室": 3086,
      "客厅下方是": 3087,
      "客厅和卧室": 3088,
      "厨房与卫生间相邻": 3089,
      "一间卫生间": 3090,
      "且均与走廊相连": 3091,
      "下方为浴室": 3092,
      "玄关南侧为入户门": 3093,
      "开门进入": 3094,
      "北卧室与南卧室各居二楼两侧": 3095,
      "右手边": 3096,
      "另一间在": 3097,
      "走廊从客厅": 3098,
      "南侧通向卫生间": 3099,
      "次卧室位于": 3100,
      "与上方卧室和下方": 3101,
      "占据较大": 3102,
      "两个浴室分别位于走廊两侧": 3103,
      "卫生间紧邻次卧": 3104,
      "向下延伸": 3105,
      "北端": 3106,
      "走廊右": 3107,
      "与走廊相接": 3108,
      "其中两间卧室": 3109,
      "设有一间浴室": 3110,
      "设有通往卫生间": 3111,
      "下方连接两个卧室": 3112,
      "靠近走廊": 3113,
      "中间偏上位置": 3114,
      "并与浴室相邻": 3115,
      "和下方的卧室": 3116,
      "与上方浴室相邻": 3117,
      "卧室的右侧": 3118,
      "且部分覆盖": 3119,
      "的房间": 3120,
      "客厅下方连接着": 3121,
      "厨房和三个卧室": 3122,
      "蓝色浴室相邻": 3123,
      "厨房北侧通往": 3124,
      "向上连接": 3125,
      "并通向": 3126,
      "浴室夹在": 3127,
      "书房北侧连通": 3128,
      "与走廊和右侧": 3129,
      "左下区域": 3130,
      "开放式厨房": 3131,
      "Kitchen ": 3132,
      "书房北侧连通卫生间": 3133,
      "且与客厅相邻": 3134,
      "书房与": 3135,
      "其中上方": 3136,
      "左上角卧室与": 3137,
      "卧室位于客厅上方": 3138,
      "其中一个卧室位于走廊": 3139,
      "与左侧浴室相邻": 3140,
      "上方为走廊": 3141,
      "中下和右下": 3142,
      "厨房在走廊右下方": 3143,
      "最右下角": 3144,
      "客厅的左侧": 3145,
      "走廊左侧连接一间卧室": 3146,
      "左侧为浴室": 3147,
      "左侧卧室在": 3148,
      "同时连接": 3149,
      "书房南侧与卧室相邻": 3150,
      "公卫相邻": 3151,
      "与其他房间": 3152,
      "东向": 3153,
      "各有": 3154,
      "相望": 3155,
      "卧室在走廊下方": 3156,
      "浴室位于厨房右侧": 3157,
      "连接客厅和卫生间": 3158,
      "通过走廊连接卫生间": 3159,
      "左中和左下": 3160,
      "另有一个浴室": 3161,
      "第三个": 3162,
      "紧邻卫生间": 3163,
      "连接着上方的卧室": 3164,
      "客厅占据右下角": 3165,
      "走廊北端连接主卧": 3166,
      "走廊两侧": 3167,
      "两间浴室及": 3168,
      "从左至右依次为卧室": 3169,
      "并排位于上方": 3170,
      "有门": 3171,
      "左侧接": 3172,
      "阳台相通": 3173,
      "北侧开门": 3174,
      "玄关向南": 3175,
      "厨房在左下方": 3176,
      "卧室位于左下角": 3177,
      "两间卧室相邻": 3178,
      "依次是浴室": 3179,
      "厨房连接客厅和餐厅": 3180,
      "卫生间分别位于主卧和次卧之间以及书房附近": 3181,
      "堆叠": 3182,
      "最右侧卧室": 3183,
      "第四个卧室": 3184,
      "位于左上": 3185,
      "卫生间介于": 3186,
      "上方卧室和": 3187,
      "两个浴室之间": 3188,
      "一个客厅和": 3189,
      "上方连接另一间卧室": 3190,
      "其右侧连接一个卧室": 3191,
      "和另一个浴室": 3192,
      "最上方卧室": 3193,
      "此卧室": 3194,
      "厨房位于下方": 3195,
      "中央的客厅": 3196,
      "厨房和另一个卧室": 3197,
      "厨房在客厅上方": 3198,
      "并与卧室相邻": 3199,
      "与厨房和浴室相邻": 3200,
      "与玄关相连": 3201,
      "主要": 3202,
      "主卧相邻": 3203,
      "左侧黄色": 3204,
      "三个卧室及": 3205,
      "绿色房间": 3206,
      "位于客厅正下方": 3207,
      "客厅北墙": 3208,
      "右侧与客厅相邻": 3209,
      "通向生活阳台": 3210,
      "左下角卧室与": 3211,
      "右侧的厨房": 3212,
      "左右两侧各有一间卧室": 3213,
      "还有一个独立": 3214,
      "其右": 3215,
      "隔走廊": 3216,
      "西侧为": 3217,
      "南侧为卫生间": 3218,
      "其下方紧邻": 3219,
      "与客厅和浴室相邻": 3220,
      "连接上下区域": 3221,
      "一个厨房和一个客厅": 3222,
      "与两个卧室相邻": 3223,
      "东连卧室": 3224,
      "厨房与客厅之间": 3225,
      "走廊下方连接着": 3226,
      "客厅位于走廊左侧": 3227,
      "阳台为": 3228,
      "三个卧室分别位于右上": 3229,
      "与一间浴室": 3230,
      "穿过": 3231,
      "面墙": 3232,
      "连接阳台": 3233,
      "连接多个房间": 3234,
      "走廊连接着三个卧室和两个浴室": 3235,
      "右侧为另一间卧室": 3236,
      "一扇": 3237,
      "与浴室相连": 3238,
      "及上方": 3239,
      "床房": 3240,
      "卫生间连接卧室": 3241,
      "右侧厨房": 3242,
      "紧邻走廊右侧": 3243,
      "右侧连接起居室": 3244,
      "底部相连": 3245,
      "卧室的上方": 3246,
      "书房在次卧东侧": 3247,
      "南端连接次卧": 3248,
      "厨房左侧连接": 3249,
      "走廊和": 3250,
      "其中左下卧室": 3251,
      "厨房和一间浴室": 3252,
      "下方卧室右侧": 3253,
      "餐厅与客厅相通": 3254,
      "餐厅北面是入户门": 3255,
      "走廊中段": 3256,
      "卫生间与": 3257,
      "主卧室东侧": 3258,
      "连接着三个卧室": 3259,
      "并列两间卧室": 3260,
      "客厅在走廊左侧": 3261,
      "都有": 3262,
      "走廊上方是": 3263,
      "浴室在厨房下方": 3264,
      "主卧北墙": 3265,
      "左侧卧室相邻": 3266,
      "客厅位于最下方": 3267,
      "中央是": 3268,
      "紧邻卧室": 3269,
      "与左侧的": 3270,
      "共用一墙": 3271,
      "room": 3272,
      "与 ": 3273,
      "各连接一个卧室": 3274,
      "餐厅后": 3275,
      "南侧为客厅": 3276,
      "上方连接一个卫生间": 3277,
      "Corridor ": 3278,
      "偏右位置": 3279,
      "卧室分布在": 3280,
      "一个卧室位于": 3281,
      "右侧连接一个卫生间": 3282,
      "其中左侧卧室与": 3283,
      "厨房和两个卧室": 3284,
      "区域位于": 3285,
      "客厅南侧通往": 3286,
      "东接客厅": 3287,
      "洗衣": 3288,
      "紧凑": 3289,
      "设走廊": 3290,
      "右侧与厨房相邻": 3291,
      "左侧为客厅": 3292,
      "另一间卧室在": 3293,
      "中间偏下": 3294,
      "中间隔着走廊": 3295,
      "玄关位于": 3296,
      "下方卧室在": 3297,
      "走廊向上延伸连接": 3298,
      "四个": 3299,
      "客厅与走廊相邻": 3300,
      "浴室正上方": 3301,
      "起居室左侧": 3302,
      "两间卧室分别": 3303,
      "主卧内设有通往卫生间": 3304,
      "其中一个浴室相邻": 3305,
      "门开向": 3306,
      "也连接着": 3307,
      "同样": 3308,
      "嵌入": 3309,
      "餐厅北接厨房": 3310,
      "书房北侧": 3311,
      "区域相连": 3312,
      "浴室位于走廊上方": 3313,
      "连接左侧的": 3314,
      "主卧和次卧分别位于客厅两侧": 3315,
      "客厅连接餐厅和厨房": 3316,
      "另一间床": 3317,
      "走廊向下延伸": 3318,
      "关系": 3319,
      "厨房门开在": 3320,
      "通向次卧": 3321,
      "两个卧室并排": 3322,
      "中间由": 3323,
      "连通阳台": 3324,
      "上方连接两间卧室": 3325,
      "三个卧室和一个浴室": 3326,
      "共享一条": 3327,
      "则位于": 3328,
      "客厅右侧连接着": 3329,
      "卧室的南侧": 3330,
      "浴室和厨房相邻": 3331,
      "走廊位于中心位置": 3332,
      "其正": 3333,
      "和南侧": 3334,
      "通生活阳台": 3335,
      "厨房上方是浴室": 3336,
      "浴室与卧室": 3337,
      "餐厅东侧与卫生间相邻": 3338,
      "左侧是另一间卧室": 3339,
      "右上方的卧室": 3340,
      "与上方的浴室相邻": 3341,
      "浴室在左下角": 3342,
      "另有一": 3343,
      "其左侧连接一个卧室": 3344,
      "走廊在客厅右侧": 3345,
      "厨房连接客厅和阳台": 3346,
      "和中下位置": 3347,
      "与另一间卧室相邻": 3348,
      "直抵": 3349,
      "下方为走廊": 3350,
      "左侧从上到下": 3351,
      "厨房和两个浴室": 3352,
      "整体呈": 3353,
      "无直接连接房间": 3354,
      "左拐": 3355,
      "卧室与厨房": 3356,
      "相邻边": 3357,
      "紧邻次卧": 3358,
      "主卧室位于左侧": 3359,
      "另一个卧室和一个浴室": 3360,
      "其下方为": 3361,
      "客厅占据右下": 3362,
      "从左至右依次为": 3363,
      "与上方的卧室和右侧的": 3364,
      "厨房连接餐厅和阳台": 3365,
      ")。": 3366,
      "与右侧卧室": 3367,
      "再连接": 3368,
      "在走廊左上方": 3369,
      "左侧连接客厅": 3370,
      "连接着左侧的卧室": 3371,
      "上下叠放": 3372,
      "和下方卧室": 3373,
      "的右侧和下方": 3374,
      "起居室位于上方": 3375,
      "四间卧室分别位于左上": 3376,
      "与左侧卧室": 3377,
      "西连客厅": 3378,
      "厨房位于餐厅北侧": 3379,
      "中央走廊相连": 3380,
      "书房与主卧": 3381,
      "其中左下": 3382,
      "两个浴室和两个卧室": 3383,
      "上方的浴室相邻": 3384,
      "走廊上方连接厨房": 3385,
      "通过走廊与其他房间相连": 3386,
      "且部分重叠": 3387,
      "它们": 3388,
      "开门通向阳台": 3389,
      "卧室北侧": 3390,
      "客厅位于走廊的下方": 3391,
      "带独立卫生间": 3392,
      "门通向客厅": 3393,
      "厨房与浴室相邻": 3394,
      "左侧从上至下": 3395,
      "客厅位于底部": 3396,
      "通过走廊连接客厅": 3397,
      "右侧连接另一个卫生间": 3398,
      "一个 ": 3399,
      "连接着浴室": 3400,
      "上下两端": 3401,
      "右上卧室下方": 3402,
      "独立于": 3403,
      "两个浴室分别位于厨房": 3404,
      "与另一间浴室相邻": 3405,
      "另一个卧室相连": 3406,
      "其右侧连接卧室": 3407,
      "下方的浴室相邻": 3408,
      "起居室位于左侧": 3409,
      "和书房": 3410,
      "和下部": 3411,
      "客厅下方连接": 3412,
      "连接玄关": 3413,
      "卫生间连接客厅": 3414,
      "右侧则": 3415,
      "紧邻一间卧室": 3416,
      "中间是": 3417,
      "左侧连接一个卫生间": 3418,
      "客厅与餐厅相连": 3419,
      "浴室位于上方": 3420,
      "浴室位于右下角": 3421,
      "底部浴室": 3422,
      "卧室的下方": 3423,
      "绿色卧室相邻": 3424,
      "第三个卧室位于走廊": 3425,
      "和下方各连接一间卧室": 3426,
      "其上方连接一间卧室": 3427,
      "回到": 3428,
      "衔接": 3429,
      "西通书房": 3430,
      "浴室在走廊下方": 3431,
      "右侧从上到下": 3432,
      "餐厅通向阳台": 3433,
      "连接着上方的": 3434,
      "左侧卧室上方": 3435,
      "另一蓝色浴室": 3436,
      "与下方卧室和": 3437,
      "其左侧为卧室": 3438,
      "共享一侧": 3439,
      "左下和右下区域": 3440,
      "各房间通过": 3441,
      "且与浴室相邻": 3442,
      "向西": 3443,
      "排布": 3444,
      "毗邻": 3445,
      "上方有": 3446,
      "左上角的卧室": 3447,
      "卧室与浴室相邻": 3448,
      "儿童房和主卧": 3449,
      "其左侧连接厨房": 3450,
      "与起居室": 3451,
      "其下": 3452,
      "卧室正上方": 3453,
      "客厅处于": 3454,
      "走廊右侧是客厅": 3455,
      "右侧的卧室相邻": 3456,
      "阳台仅与客厅": 3457,
      "与走廊之间": 3458,
      "其左侧连接浴室": 3459,
      "间接连接": 3460,
      "和右中位置": 3461,
      "包括": 3462,
      "和浴室相邻": 3463,
      "并与餐厅相邻": 3464,
      "旁有浴室": 3465,
      "连书房": 3466,
      "浴室在走廊上方": 3467,
      "主卧北墙开门": 3468,
      "分别连接卧室": 3469,
      "中部偏右": 3470,
      "东邻卫生间": 3471,
      "客厅左侧与": 3472,
      "客厅位于厨房右侧": 3473,
      "第二间": 3474,
      "厨房在走廊右上方": 3475,
      "客厅在走廊上方": 3476,
      "右上和右下位置": 3477,
      "次卧和主卧": 3478,
      "北卧室与主卧相邻": 3479,
      "客厅东连餐厅": 3480,
      "厨房位于餐厅北侧并与餐厅相邻": 3481,
      "右侧紧邻走廊": 3482,
      "其中中间卧室": 3483,
      "连接着左侧的": 3484,
      "上下左右": 3485,
      "过道尽头": 3486,
      "再往下": 3487,
      "分列": 3488,
      "及右下方": 3489,
      "和一个厨房": 3490,
      "客厅下方是走廊": 3491,
      "厨房与卧室": 3492,
      "西侧通向厨房": 3493,
      "厨房和另一个浴室": 3494,
      "右侧卧室上方": 3495,
      "两个房间": 3496,
      "该卧室又": 3497,
      "位于走廊右下方": 3498,
      "浴室在卧室下方": 3499,
      "厨房另有一门通向餐厅": 3500,
      "与下方卧室": 3501,
      "左接厨房": 3502,
      "紧邻一个卧室": 3503,
      "其中右上卧室": 3504,
      "下方连接另一个卫生间": 3505,
      "和下方的浴室": 3506,
      "走廊贯穿南北": 3507,
      "是另一间卧室": 3508,
      "隔断": 3509,
      "客厅南侧连接主卧": 3510,
      "右侧从上至下": 3511,
      "上方卧室位于": 3512,
      "浴室位于走廊左侧": 3513,
      "右上及": 3514,
      "其右侧依次连接": 3515,
      "左右两侧的卧室": 3516,
      "垂直方向": 3517,
      "和右上位置": 3518,
      "右中卧室": 3519,
      "卫生间在餐厅与客厅之间": 3520,
      "北墙再开一门": 3521,
      "相互连接": 3522,
      "次卧西面紧邻书房": 3523,
      "其右上方": 3524,
      "均通过走廊连接": 3525,
      "床位于": 3526,
      "次卧南侧": 3527,
      "通向餐厅": 3528,
      "所有房间均通过走廊": 3529,
      "走廊西端": 3530,
      "次卧东侧设有书房": 3531,
      "水平相邻": 3532,
      "也有一间卧室": 3533,
      "墙体": 3534,
      "第三间": 3535,
      "客厅右侧连接走廊": 3536,
      "走廊东侧": 3537,
      "连接着两个卧室": 3538,
      "卧室位于厨房左侧": 3539,
      "两间卧室和两间浴室": 3540,
      "走廊尽头是书房": 3541,
      "北侧依次连接次卧和卫生间": 3542,
      "被走廊环绕": 3543,
      "阳台位于卧室北侧": 3544,
      "与一间浴室相邻": 3545,
      "客厅西南角": 3546,
      "厨房与走廊相邻": 3547,
      "厨房北墙": 3548,
      "厨房上方为": 3549,
      "走廊北侧": 3550,
      "右侧邻接": 3551,
      "阳台连接厨房": 3552,
      "其中两个": 3553,
      "客厅位于中央偏下位置": 3554,
      "该浴室下方": 3555,
      "三间浴室分别位于": 3556,
      "左边": 3557,
      "位于右下角": 3558,
      "走廊同时": 3559,
      "中间浴室和": 3560,
      "走廊横向贯穿": 3561,
      "位于走廊正下方": 3562,
      "左上方和左下方": 3563,
      "其左侧为": 3564,
      "厨房在走廊左侧": 3565,
      "上边": 3566,
      "且与卧室": 3567,
      "仅连接客厅": 3568,
      "到右": 3569,
      "和中下部": 3570,
      "均与": 3571,
      "卧室南侧连接阳台": 3572,
      "位于客厅下方": 3573,
      "右侧相连": 3574,
      "厨房在客厅左侧": 3575,
      "上方连接两个卧室": 3576,
      "浴室位于右上角": 3577,
      "三间卧室及": 3578,
      "其右侧紧邻一间卧室": 3579,
      "卧室在左下角": 3580,
      "卧室在客厅右侧": 3581,
      "从左到右": 3582,
      "与另一个浴室相邻": 3583,
      "在右上角": 3584,
      "并邻接": 3585,
      "接一间卧室": 3586,
      "客厅位于右下方": 3587,
      "下方连接第三间卧室": 3588,
      "中间偏上": 3589,
      "卧室邻接": 3590,
      "客厅占据右上区域": 3591,
      "北墙再开门": 3592,
      "书房靠近入口": 3593,
      "三者": 3594,
      "建筑": 3595,
      "或客厅": 3596,
      "靠卧室": 3597,
      "走廊右侧是": 3598,
      "次卧旁设": 3599,
      "北侧连接厨房和餐厅": 3600,
      "上下对齐": 3601,
      "其右侧连接一个浴室": 3602,
      "走廊连接所有房间": 3603,
      "两个浴室和客厅": 3604,
      "与厨房和客厅相邻": 3605,
      "的客厅相连": 3606,
      "卫生间东侧连通客厅": 3607,
      "分布于左上": 3608,
      "客厅位于下方中央": 3609,
      "不同位置": 3610,
      "次卧室位于主卧室": 3611,
      "下邻": 3612,
      "东端": 3613,
      "左上方卧室": 3614,
      "床铺": 3615,
      "构成": 3616,
      "厨房下方是另一间卧室": 3617,
      "厨房东墙开门": 3618,
      "连接两个卧室": 3619,
      "位于右侧": 3620,
      "浴室在走廊左侧": 3621,
      "餐厅和卧室": 3622,
      "左侧和上方": 3623,
      "通过浴室": 3624,
      "中间层": 3625,
      "左侧连接一个浴室": 3626,
      "左侧连接两间卧室": 3627,
      "上方连接另一个卧室": 3628,
      "西侧紧邻厨房": 3629,
      "独立空间": 3630,
      "其右侧连接浴室": 3631,
      "其左侧和右侧": 3632,
      "左中和右下": 3633,
      "下方的客厅": 3634,
      "共享一": 3635,
      "西侧通向次卧和卫生间": 3636,
      "均与走廊相通": 3637,
      "公共卫生间相邻": 3638,
      "中间夹着一个浴室": 3639,
      "卧室旁": 3640,
      "走廊及": 3641,
      "浴室位于客厅右侧": 3642,
      "浴室在右下角": 3643,
      "该浴室再": 3644,
      "厨房与餐厅之间": 3645,
      "入口门通向客厅": 3646,
      "各自与相邻": 3647,
      "公用卫生间相邻": 3648,
      "连接各个房间": 3649,
      "同一": 3650,
      "第一个浴室": 3651,
      "纵向贯穿": 3652,
      "客厅左右两侧": 3653,
      "厨房以及": 3654,
      "走廊左侧连接一间卧室和一间浴室": 3655,
      "书房西侧": 3656,
      "与客厅和厨房相邻": 3657,
      "主卧内含衣帽间": 3658,
      "卧室东侧通过走廊连接卫生间": 3659,
      "所有房间通过走廊或直接相邻实现连通": 3660,
      "其右方": 3661,
      "各邻接": 3662,
      "并向下": 3663,
      "厨房正": 3664,
      "餐厅和走廊": 3665,
      "形成以": 3666,
      "右中和右下": 3667,
      "与之相邻": 3668,
      "在客厅右侧": 3669,
      "小浴室": 3670,
      "连着": 3671,
      "通卫生间": 3672,
      "厨房正下方": 3673,
      "厨房右侧为": 3674,
      "走廊右侧连接客厅": 3675,
      "下方区域": 3676,
      "卫生间连接": 3677,
      "南侧中央": 3678,
      "书房再": 3679,
      "紧邻书房": 3680,
      "浴室位于客厅下方": 3681,
      "另一个浴室相连": 3682,
      "厨房位于走廊的左侧": 3683,
      "客厅居中偏上": 3684,
      "客厅西侧通往走廊": 3685,
      "南向阳台": 3686,
      "与浴室和卧室相邻": 3687,
      "走廊向上延伸并连接": 3688,
      "共享一侧边界": 3689,
      "与一间卧室相邻": 3690,
      "包含": 3691,
      "并与客厅相连": 3692,
      "无连接": 3693,
      "核心": 3694,
      "每间卧室": 3695,
      "通客厅": 3696,
      "中央走廊纵向贯穿": 3697,
      "连接着四个卧室": 3698,
      "卧室位于客厅左侧": 3699,
      "浴室位于两个卧室之间": 3700,
      "左右各": 3701,
      "厨房位于走廊的上方": 3702,
      "两个卧室分别位于左上角": 3703,
      "儿童房与": 3704,
      "与中间的浴室相邻": 3705,
      "中央是起居室": 3706,
      "东连阳台": 3707,
      "南门": 3708,
      "紧贴": 3709,
      "客厅下方是厨房": 3710,
      "中央偏左": 3711,
      "依次排布": 3712,
      "贯穿中央": 3713,
      "右下及": 3714,
      "其下方左侧是": 3715,
      "书房位于客厅另一侧": 3716,
      "上方和下方各有一个卧室": 3717,
      "功能区": 3718,
      "厨房门开在餐厅北墙": 3719,
      "其正下方": 3720,
      "均有": 3721,
      "并连接厨房": 3722,
      "客厅位于左下": 3723,
      "厨房位于右下": 3724,
      "厨房位于卧室上方": 3725,
      "中央为客厅": 3726,
      "一个卫生间相邻": 3727,
      "另一张床": 3728,
      "厨房下方是浴室": 3729,
      "下方为厨房": 3730,
      "次卧位于": 3731,
      "北侧连厨房": 3732,
      "与走廊直接相通": 3733,
      "一个客厅位于中心": 3734,
      "中间是客厅": 3735,
      "起居室在": 3736,
      "次卧与公用卫生间相邻": 3737,
      "旁边是浴室": 3738,
      "的上方和右侧": 3739,
      "客厅位于厨房左侧": 3740,
      "走廊左侧依次连接": 3741,
      "上方为客厅": 3742,
      "左下和右下位置": 3743,
      "厨房在客厅右侧并与之相邻": 3744,
      "餐厅东侧与玄关": 3745,
      "北连": 3746,
      "及右下角": 3747,
      "客厅与走廊相连": 3748,
      "客厅和浴室": 3749,
      "客厅右侧是卧室": 3750,
      "厨房左右两侧": 3751,
      "与客厅相通": 3752,
      "一个卧室相连": 3753,
      "通往玄关": 3754,
      "右侧是另一个浴室": 3755,
      "中部偏左": 3756,
      "在厨房正上方": 3757,
      "两间并排": 3758,
      "该卧室左侧": 3759,
      "独立衣帽间": 3760,
      "客厅左侧与餐厅相连": 3761,
      "且与之相邻": 3762,
      "洗衣房": 3763,
      "各个房间": 3764,
      "客厅在厨房正下方": 3765,
      "次卧北墙": 3766,
      "左上角浴室": 3767,
      "西侧紧邻卧室": 3768,
      "浴室在左侧": 3769,
      "走廊尽头通向书房": 3770,
      "均与走廊或卧室": 3771,
      "厨房位于起居室上方": 3772,
      "右连": 3773,
      "室外": 3774,
      "自己": 3775,
      "右侧卧室和": 3776,
      "左下角和右上角": 3777,
      "次卧与公共卫生间相邻": 3778,
      "走廊横向": 3779,
      "其右侧紧邻一个卧室": 3780,
      "均通过走廊可达": 3781,
      "阳台为独立空间": 3782,
      "有两个": 3783,
      "客厅两侧": 3784,
      "下方另有一间卧室": 3785,
      "主卧门": 3786,
      "通过中央走廊相连": 3787,
      "其中右上": 3788,
      "卧室位于浴室上方": 3789,
      "其右侧为浴室": 3790,
      "其上方是厨房": 3791,
      "其上方是卧室和浴室": 3792,
      "与右侧卧室和下方": 3793,
      "其右侧紧邻起居区": 3794,
      "右侧与另一间卧室相邻": 3795,
      "最大区域": 3796,
      "都有自己": 3797,
      "与另一个卧室相邻": 3798,
      "回到客厅": 3799,
      "是另一个卧室": 3800,
      "西向": 3801,
      "卧室二": 3802,
      "阳台西接": 3803,
      "厨房位于底部": 3804,
      "北接阳台": 3805,
      "次卧与公卫相邻": 3806,
      "其下方是另一间卧室": 3807,
      "浴室在左": 3808,
      "走廊连接浴室": 3809,
      "卧室在右侧": 3810,
      "走廊左侧连接浴室": 3811,
      "次卧对面是": 3812,
      "与中间卧室": 3813,
      "并向上": 3814,
      "该住宅": 3815,
      "走廊为": 3816,
      "走廊左侧是": 3817,
      "客厅西侧连餐厅": 3818,
      "左侧连接另一间卧室": 3819,
      "卫生间西墙": 3820,
      "右侧的浴室相邻": 3821,
      "左上方和右上方": 3822,
      "与右侧卧室和": 3823,
      "其下方左侧是卧室": 3824,
      "垂直对齐": 3825,
      "向右延伸连接": 3826,
      "布局中": 3827,
      "上邻": 3828,
      "与儿童房": 3829,
      "分隔": 3830,
      "并覆盖": 3831,
      "卧室与客厅相邻": 3832,
      "客厅北侧是": 3833,
      "下方接": 3834,
      "右侧区域": 3835,
      "通向主卧": 3836,
      "书房与次卧": 3837,
      "两间浴室分别位于左上": 3838,
      "向右延伸": 3839,
      "客厅在走廊右下方": 3840,
      "为入户门": 3841,
      "在左上角": 3842,
      "接触": 3843,
      "由走廊": 3844,
      "该床": 3845,
      "客厅右侧连接厨房": 3846,
      "客厅右方": 3847,
      "走廊右下方": 3848,
      "走廊南端": 3849,
      "下方并列": 3850,
      "一间厨房": 3851,
      "厨房位于浴室": 3852,
      "其中上方浴室": 3853,
      "之间隔着": 3854,
      "连接着一个卧室": 3855,
      "厨房在右下": 3856,
      "其右侧通过走廊连接": 3857,
      "右侧卧室旁": 3858,
      "两间浴室分别": 3859,
      "其中一个卧室和一个浴室": 3860,
      "所有房间均通过走廊或": 3861,
      "西侧通向卫生间": 3862,
      "横向排列": 3863,
      "次卧室位于主卧室西侧": 3864,
      "一楼": 3865,
      "东南侧": 3866,
      "和主卫": 3867,
      "最后": 3868,
      "的走廊": 3869,
      "厨房则": 3870,
      "走廊在厨房右侧": 3871,
      "餐厅和阳台": 3872,
      "次卧通过走廊": 3873,
      "厨房在客厅右上方": 3874,
      "左侧卧室旁": 3875,
      "卧室在右下角": 3876,
      "其中一间卧室相邻": 3877,
      "与右侧的厨房相邻": 3878,
      "形环绕": 3879,
      "的上下两侧": 3880,
      "餐厅另一侧": 3881,
      "一间卧室相连": 3882,
      "下方是一个卧室": 3883,
      "靠近客厅": 3884,
      "另一间卧室相连": 3885,
      "两间卧室上下排列": 3886,
      "底部相接": 3887,
      "厨房位于走廊北侧": 3888,
      "卧室和浴室相连": 3889,
      "厨房位于客厅的上方": 3890,
      "三间卧室分别位于右上": 3891,
      "走廊垂直贯穿中部": 3892,
      "包围": 3893,
      "开一门通向": 3894,
      "正中": 3895,
      "餐厨": 3896,
      "卧室在厨房右侧": 3897,
      "浴室与客厅": 3898,
      "餐厅北墙开门": 3899,
      "次卧与卫生间": 3900,
      "右侧连接两个卧室": 3901,
      "下方连接两间卧室": 3902,
      "与厨房相邻且": 3903,
      "上方是另一个浴室": 3904,
      "卧室位于客厅正下方": 3905,
      "空间连通": 3906,
      "和下方卧室相邻": 3907,
      "走廊连接着浴室": 3908,
      "厨房位于走廊右下方": 3909,
      "浴室在客厅右侧": 3910,
      "偏左位置": 3911,
      "南接阳台": 3912,
      "北向开门": 3913,
      "与浴室和客厅相邻": 3914,
      "走廊向右延伸并连接": 3915,
      "西南侧": 3916,
      "该卧室与": 3917,
      "走廊左": 3918,
      "走廊上方是浴室": 3919,
      "走廊右侧连接着": 3920,
      "餐厅北通": 3921,
      "两个浴室相连": 3922,
      "西侧连接卫生间": 3923,
      "浴室位于厨房左侧": 3924,
      "浴室位于餐厅与客厅之间": 3925,
      "下方卧室及": 3926,
      "其左侧为浴室": 3927,
      "上方为厨房": 3928,
      "楼梯直达": 3929,
      "卧室右侧并与之相邻": 3930,
      "客厅与楼梯相连": 3931,
      "与上方的卧室和下方的浴室相邻": 3932,
      "厨房北面连接餐厅": 3933,
      "二楼走廊": 3934,
      "次卧西面紧邻卫生间": 3935,
      "走廊向下延伸连接": 3936,
      "该住宅布局中": 3937,
      "餐厅另一侧为客厅": 3938,
      "楼梯直达二楼走廊": 3939,
      "是储物间": 3940,
      "客厅通过走廊连接": 3941,
      "厨房居中": 3942,
      "走廊上方是卧室": 3943,
      "浴室分布在": 3944,
      "相邻次卧": 3945,
      "分别通向": 3946,
      "紧邻一个浴室": 3947,
      "一个走廊连接着客厅": 3948,
      "上方是一个卧室": 3949,
      "在厨房的": 3950,
      "左下和右上": 3951,
      "上下两个卧室": 3952,
      "上方卧室下方": 3953,
      "该浴室右侧": 3954,
      "均通过走廊或相邻房间": 3955,
      "南墙开门": 3956,
      "左侧自上而下依次连接卧室": 3957,
      "直通客厅": 3958,
      "次卧通过走廊与卫生间": 3959,
      "方式": 3960,
      "无隔断": 3961,
      "客厅右侧是走廊": 3962,
      "厨房右侧是客厅": 3963,
      "下方从左至右": 3964,
      "中央偏上": 3965,
      "右侧连接客厅和": 3966,
      "一个浴室相连": 3967,
      "右下角卧室与": 3968,
      "右侧卧室及下方": 3969,
      "右下浴室": 3970,
      "次卧北侧连接另一个卫生间": 3971,
      "上方卧室正下方": 3972,
      "走廊连接三间卧室": 3973,
      "蓝色浴室位于": 3974,
      "顶部浴室": 3975,
      "且与卧室相邻": 3976,
      "西墙再": 3977,
      "客厅南侧通往主卧室": 3978,
      ");": 3979,
      "串起": 3980,
      "之上": 3981,
      "和中间偏右位置": 3982,
      "左转": 3983,
      "的右方": 3984,
      "客厅东南角": 3985,
      "右侧有一个卧室": 3986,
      "上方接": 3987,
      "左侧相连": 3988,
      "客厅位于最右侧": 3989,
      "紧邻客厅右侧": 3990,
      "两个卧室位于左侧": 3991,
      "右下方卧室": 3992,
      "客厅在左下方": 3993,
      "右下和左下": 3994,
      "两个浴室分别位于左中": 3995,
      "厨房位于走廊的右侧": 3996,
      "两个卫生间和": 3997,
      "其右侧紧邻卧室": 3998,
      "卧室在右上角": 3999,
      "两个浴室分别位于走廊上方": 4000,
      "通过走廊与其余": 4001,
      "上部相邻": 4002,
      "其左侧连接一个浴室": 4003,
      "厨房北侧设有": 4004,
      "另一个在右侧": 4005,
      "和走廊下方": 4006,
      "和中上": 4007,
      "并部分覆盖": 4008,
      "的另一侧": 4009,
      "第三间浴室": 4010,
      "背靠": 4011,
      "厨房右": 4012,
      "厨房上方是卧室": 4013,
      "连接另一间卧室": 4014,
      "走廊下方连接厨房": 4015,
      "左下卧室相邻": 4016,
      "直接邻接": 4017,
      "浴室在左上角": 4018,
      "绿色卧室与": 4019,
      "与走廊和卧室相邻": 4020,
      "客厅位于右侧中部": 4021,
      "大部分空间": 4022,
      "浴室位于厨房正上方": 4023,
      "厨房北侧通往次卧": 4024,
      "都有自己的浴室": 4025,
      "大面积": 4026,
      "此浴室": 4027,
      "连接一个卫生间": 4028,
      "位于下方": 4029,
      "通过共用": 4030,
      "其中左侧浴室": 4031,
      "依次分布着": 4032,
      "另一个卧室在走廊": 4033,
      "卧室和另一间浴室": 4034,
      "右下角相邻": 4035,
      "下方卧室旁": 4036,
      "正对走廊": 4037,
      "次卧与书房之间": 4038,
      "儿童房与主卧": 4039,
      "顶部卧室": 4040,
      "次卧西侧紧邻书房": 4041,
      "与右上角": 4042,
      "两卧室之间": 4043,
      "或走廊": 4044,
      "的上": 4045,
      "直对": 4046,
      "客厅的右侧": 4047,
      "连接大门": 4048,
      "下方还有一个卧室": 4049,
      "餐厅位于厨房": 4050,
      "厨房位于右下方": 4051,
      "北侧连接厨房和卫生间": 4052,
      "玄关在": 4053,
      "浴室位于厨房下方": 4054,
      "和右下部": 4055,
      "卧室在客厅下方": 4056,
      "四个卧室分布在": 4057,
      "且与浴室": 4058,
      "走廊位于中央偏左": 4059,
      "客厅在右侧中部": 4060,
      "走廊向北延伸": 4061,
      "背靠背": 4062,
      "其左上角": 4063,
      "经过": 4064,
      "客厅与卧室": 4065,
      "连接所有": 4066,
      "连接各房间": 4067,
      "位于客厅上方": 4068,
      "走廊下方是": 4069,
      "走廊右端": 4070,
      "右侧卫生间": 4071,
      "客厅位于右上方": 4072,
      "右侧连接一间卧室和一间浴室": 4073,
      "一间浴室和另一间卧室": 4074,
      "客厅西侧是卧室": 4075,
      "三个卧室中": 4076,
      "厨房在上方": 4077,
      "左下侧": 4078,
      "三间卧室中": 4079,
      "两个卧室和另一个浴室": 4080,
      "部分相邻": 4081,
      "通过走廊与右侧的": 4082,
      "与走廊和一间卧室相邻": 4083,
      "客厅在走廊正下方": 4084,
      "另一个在下方": 4085,
      "另一个卧室在右上角": 4086,
      "走廊向左延伸": 4087,
      "玄关向南正对客厅": 4088,
      "书房北侧与厨房相邻": 4089,
      "共享一条边": 4090,
      "也有一间浴室": 4091,
      "及卫生间": 4092,
      "的主卧": 4093,
      "走廊和厨房": 4094,
      "与客厅相接": 4095,
      "其中两个卧室分别位于": 4096,
      "左下方和右上方": 4097,
      "另一间浴室位于": 4098,
      "浴室在卧室上方": 4099,
      "与左侧卧室和下方": 4100,
      "与右侧的浴室和": 4101,
      "面积最大": 4102,
      "一扇门": 4103,
      "且紧邻": 4104,
      "各连接一间浴室": 4105,
      "西南": 4106,
      "高度": 4107,
      "客厅上方是卧室": 4108,
      "卫生间外侧": 4109,
      "右侧通餐厅": 4110,
      "下方连接一个卫生间": 4111,
      "厨房位于左侧下方": 4112,
      "左侧是走廊": 4113,
      "客厅右侧走廊依次": 4114,
      "右下侧": 4115,
      "右下的卧室": 4116,
      "其上方是浴室和卧室": 4117,
      "绿色区域": 4118,
      "走廊连接了": 4119,
      "厨房在走廊左下方": 4120,
      "两间浴室分别位于左上角": 4121,
      "其上方连接走廊": 4122,
      "作为": 4123,
      "小卧室": 4124,
      "通主卫": 4125,
      "连接至": 4126,
      "浴室右侧是卧室": 4127,
      "下方与走廊相连": 4128,
      "次卧北墙开门": 4129,
      "其中右上角": 4130,
      "浴室位于左下角": 4131,
      "另一个浴室位于走廊": 4132,
      "卧室在右": 4133,
      "的左侧和下方": 4134,
      "楼梯直通": 4135,
      "走廊上方连接着": 4136,
      "走廊呈竖直": 4137,
      "走廊与楼梯相连": 4138,
      "一个客厅和一个厨房": 4139,
      "一楼客厅": 4140,
      "通过共用走廊与楼梯相连": 4141,
      "楼梯直通一楼客厅": 4142,
      "东北": 4143,
      "和中右": 4144,
      "并连接客厅": 4145,
      "床相邻": 4146,
      "客厅上方是走廊": 4147,
      "通过客厅": 4148,
      "一个卧室位于左上角": 4149,
      "其中左侧": 4150,
      "连接着左侧": 4151,
      "厨房在右下方": 4152,
      "厨房在客厅右下方": 4153,
      "右下角浴室": 4154,
      "左下方卧室": 4155,
      "左侧是另一个卧室": 4156,
      "和右侧的卧室": 4157,
      "左右两侧各有一个卧室": 4158,
      "走廊下方从左至右": 4159,
      "客厅居中偏右": 4160,
      "三个卧室分别位于走廊上方": 4161,
      "客厅在中央偏上位置": 4162,
      "客厅右侧是主卧": 4163,
      "并与其相邻": 4164,
      "东面": 4165,
      "仅与卧室相连": 4166,
      "无直接连通": 4167,
      "客厅下方是另一间卧室": 4168,
      "卫生间东侧与厨房相连": 4169,
      "左侧连接卧室和浴室": 4170,
      "浴室和下方": 4171,
      "卧室和浴室相邻": 4172,
      "卧室位于走廊下方": 4173,
      "右上角和左下角": 4174,
      "浴室位于左侧卧室": 4175,
      "右下方的卧室": 4176,
      "客厅在中间": 4177,
      "两个浴室分别位于厨房右侧": 4178,
      "右侧为一间卧室": 4179,
      "右侧为起居室": 4180,
      "通过走廊与其他": 4181,
      "连接一间卧室和一间浴室": 4182,
      "三个卧室分别位于走廊的上方": 4183,
      "两个卧室及两个浴室": 4184,
      "右侧紧邻浴室": 4185,
      "客厅在中央偏右": 4186,
      "为入口": 4187,
      "接次卧": 4188,
      "餐厅东墙开门": 4189,
      "客厅位于右中部": 4190,
      "一间独立": 4191,
      "东侧接书房": 4192,
      "其中右侧卧室": 4193,
      "左侧连接走廊": 4194,
      "房屋中部": 4195,
      "卧室位于客厅正上方": 4196,
      "上下堆叠": 4197,
      "主卧连接卫生间": 4198,
      "客厅与阳台": 4199,
      "上接厨房": 4200,
      "其右下方": 4201,
      "内部": 4202,
      "另设": 4203,
      "和左上方": 4204,
      "居住": 4205,
      "带独立卫浴": 4206,
      "走廊底部": 4207,
      "浴室在走廊": 4208,
      "中央偏下": 4209,
      "紧邻一间浴室": 4210,
      "南侧连接厨房": 4211,
      "浴室和走廊相邻": 4212,
      "浴室位于卧室下方": 4213,
      "右上部": 4214,
      "右下卧室相邻": 4215,
      "卧室的左侧": 4216,
      "其右侧连接一个卫生间": 4217,
      "连接左侧两个卧室": 4218,
      "走廊左侧连接厨房": 4219,
      "右侧连接着另一个卧室": 4220,
      "餐厅北面是储物间": 4221,
      "并分叉": 4222,
      "两个上下排列的卧室": 4223,
      "上中": 4224,
      "为起居室": 4225,
      "仅与客厅相邻": 4226,
      "仅与走廊相邻": 4227,
      "和下": 4228,
      "接主卧": 4229,
      "厨房右侧是浴室": 4230,
      "走廊左端": 4231,
      "右侧有两个卧室": 4232,
      "餐厅西侧": 4233,
      "北侧通厨房": 4234,
      "与客厅及": 4235,
      "紧邻其右侧": 4236,
      "其中右上方": 4237,
      "两个浴室一个在": 4238,
      "另一个卧室在走廊右侧": 4239,
      "北面与玄关相连": 4240,
      "浴室位于卧室左侧": 4241,
      "三间卧室和": 4242,
      "客厅左侧连阳台": 4243,
      "客厅位于厨房下方": 4244,
      "与左侧的卧室相邻": 4245,
      "左中和左下位置": 4246,
      "下方连接着另一个卧室": 4247,
      "及右侧卧室相邻": 4248,
      "共同构成": 4249,
      "并与其相连": 4250,
      "厨房东侧设有": 4251,
      "隔走廊相望": 4252,
      "和第三间卧室": 4253,
      "最上方的": 4254,
      "该浴室位于": 4255,
      "卧室与走廊相邻": 4256,
      "位于右上角": 4257,
      "主卧北侧": 4258,
      "左侧下方": 4259,
      "左侧有两个卧室": 4260,
      "客厅位于上部中央": 4261,
      "东侧连接厨房": 4262,
      "与走廊右端": 4263,
      "其中右上卧室与": 4264,
      "下方连接起居室": 4265,
      "厨房在左下": 4266,
      "卧室位于右下角": 4267,
      "卧室位于住宅": 4268,
      "走廊连接两个卧室": 4269,
      "两个卧室分别位于厨房": 4270,
      "四个卧室分别位于走廊": 4271,
      "走廊尽头左转": 4272,
      "三个卧室分别位于右上角": 4273,
      "各自邻接": 4274,
      "中上卧室": 4275,
      "次卧西面设有书房": 4276,
      "厨房位于走廊左侧上方": 4277,
      "厨房再北接阳台": 4278,
      "卫生间紧邻卧室西侧": 4279,
      "与走廊和下方卧室相邻": 4280,
      "两间浴室和一间卧室": 4281,
      "通过走廊与其他区域连通": 4282,
      "卧室位于住宅东侧": 4283,
      "与三个卧室": 4284,
      "十字": 4285,
      "布置": 4286,
      "客厅右侧是厨房": 4287,
      "连接上方浴室": 4288,
      "下方卫生间": 4289,
      "下方为卧室": 4290,
      "卫生间南": 4291,
      "次卧靠近": 4292,
      "阳台连接卧室": 4293,
      "西侧连通阳台": 4294,
      "书房与厨房相邻": 4295,
      "紧邻走廊左侧": 4296,
      "在走廊右端": 4297,
      "房间相连": 4298,
      "两间卧室并排": 4299,
      "上下两个浴室": 4300,
      "旁边都": 4301,
      "以及右侧的客厅": 4302,
      "走廊尽头是卫生间": 4303,
      "第二个": 4304,
      "连接左侧的客厅": 4305,
      "两个卧室分别位于走廊两侧": 4306,
      "与右侧的卧室和下方的": 4307,
      "卫生间外侧为入口": 4308,
      "卫生间外侧为入口玄关": 4309,
      "和走廊右侧": 4310,
      "西靠": 4311,
      "邻厨房": 4312,
      "位于最上方": 4313,
      "走廊右上方": 4314,
      "下方依次是": 4315,
      "卫生间夹在": 4316,
      "卫生间位于走廊尽头": 4317,
      "右侧及": 4318,
      "厨房位于浴室上方": 4319,
      "东侧连接卫生间": 4320,
      "分别在": 4321,
      "与走廊相通": 4322,
      "一间浴室和厨房": 4323,
      "浴室和一间卧室": 4324,
      "卧室位于左上": 4325,
      "两间卧室和": 4326,
      "通过走廊连接其他房间": 4327,
      "两个浴室分别位于右上": 4328,
      "走廊位于房屋中央": 4329,
      "其中一个卧室与客厅相邻": 4330,
      "左中卧室与": 4331,
      "和卧室相连": 4332,
      "其上方连接着": 4333,
      "与厨房和卧室相邻": 4334,
      "走廊上方连接浴室": 4335,
      "连接各区域": 4336,
      "第五": 4337,
      "组成": 4338,
      "位于中心": 4339,
      "书房东侧": 4340,
      "三个卧室分别分布在": 4341,
      "在厨房右上方": 4342,
      "左下浴室": 4343,
      "另一间浴室及": 4344,
      "上方卧室的右侧": 4345,
      "浴室在右侧": 4346,
      "其右侧紧邻一个浴室": 4347,
      "两个卧室分别位于左下角和右下角": 4348,
      "的左侧和上方": 4349,
      "三个卧室分别位于左下角": 4350,
      "其上方连接一个卧室": 4351,
      "均与走廊直接连通": 4352,
      "形成回": 4353,
      "各自与": 4354,
      "与浴室和走廊相邻": 4355,
      "左侧黄色区域为客厅": 4356,
      "一墙": 4357,
      "各连接一个浴室": 4358,
      "敞开": 4359,
      "无直接": 4360,
      "直走": 4361,
      "浴室在厨房上方": 4362,
      "上方和右下方": 4363,
      "厨房位于中间": 4364,
      "紧邻另一间卧室": 4365,
      "紧邻走廊下方": 4366,
      "两个卧室位于上方": 4367,
      "一个绿色卧室": 4368,
      "卫生间靠近卧室的南侧": 4369,
      "三个卧室分别位于走廊左侧": 4370,
      "下方为另一间卧室": 4371,
      "另外两个卧室": 4372,
      "一个卧室和一个卫生间": 4373,
      "客厅在下方中央": 4374,
      "右侧上下位置": 4375,
      "厨房位于生活区上方": 4376,
      "与两个浴室相邻": 4377,
      "与阳台相通": 4378,
      "为主卧": 4379,
      "仅与上方": 4380,
      "其下方连接厨房": 4381,
      "再向右": 4382,
      "可能": 4383,
      "和中左": 4384,
      "由走廊相连": 4385,
      "重合": 4386,
      "客厅与走廊": 4387,
      "厨房左侧是": 4388,
      "厨房西北角": 4389,
      "走廊还连接着": 4390,
      "相邻的卧室": 4391,
      "卫生间东接客厅": 4392,
      "厨房位于两个浴室之间": 4393,
      "中央走廊": 4394,
      "厨房和次卧": 4395,
      "三个卧室分布在走廊": 4396,
      "另一个卧室在走廊下方": 4397,
      "卧室位于浴室": 4398,
      "通过走廊连接至": 4399,
      "位于走廊末端": 4400,
      "两个卧室分别位于浴室": 4401,
      "儿童房与主卧之间": 4402,
      "并列于": 4403,
      "和下方各有一个浴室": 4404,
      "另一间卫生间": 4405,
      "及下方卧室相邻": 4406,
      "通过走廊与其他房间连通": 4407,
      "又与": 4408,
      "组合": 4409,
      "这两个卧室": 4410,
      "阳台连接": 4411,
      "厨房位于最右侧": 4412,
      "右侧连接第三间卧室": 4413,
      "其中一个卫生间": 4414,
      "客厅西侧是书房": 4415,
      "依次是厨房": 4416,
      "浴室位于厨房上方": 4417,
      "上下位置": 4418,
      "右上卧室相邻": 4419,
      "厨房位于走廊右上方": 4420,
      "且与之": 4421,
      "起居室位于左上方": 4422,
      "与厨房和客厅": 4423,
      "走廊上方连接一间卧室": 4424,
      "和右侧的浴室": 4425,
      "餐厅后方通厨房": 4426,
      "与次卧室": 4427,
      "且上方": 4428,
      "之隔": 4429,
      "也与走廊相连": 4430,
      "再下方是卧室": 4431,
      "左手": 4432,
      "是儿童房": 4433,
      "顶端": 4434,
      "厨房与次卧之间": 4435,
      "厨房北向": 4436,
      "连接上方的": 4437,
      "下方与厨房相邻": 4438,
      "下方还有一间卧室": 4439,
      "卫生间与厨房": 4440,
      "卫生间和卧室": 4441,
      "主卧在": 4442,
      "客厅位于左中部": 4443,
      "厨房位于浴室右侧": 4444,
      "另一间卧室和厨房": 4445,
      "另一个卧室和": 4446,
      "厨房在客厅左下方": 4447,
      "并与其中一个卧室相邻": 4448,
      "浴室位于右侧": 4449,
      "右上浴室": 4450,
      "两间浴室和厨房": 4451,
      "客厅在右下方": 4452,
      "该卧室上方是浴室": 4453,
      "紧邻厨房右侧": 4454,
      "和右侧的卧室相邻": 4455,
      "次卧西侧为卫生间": 4456,
      "并列着": 4457,
      "下方浴室相连": 4458,
      "一间卧室和一间浴室相邻": 4459,
      "另一个卧室在右下角": 4460,
      "两间卧室及一间浴室": 4461,
      "两个卧室分别位于左上和左下": 4462,
      "餐厅东侧与玄关相接": 4463,
      "与中间卧室相邻": 4464,
      "宽度": 4465,
      "是一个卧室": 4466,
      "每个": 4467,
      "顶层": 4468,
      "厨房紧邻客厅": 4469,
      "厨房西连客厅": 4470,
      "走廊右侧连接厨房": 4471,
      "客厅西侧是主卧": 4472,
      "玄关南接客厅": 4473,
      "浴室和右侧卧室": 4474,
      "厨房在底部中央": 4475,
      "和厨房下方": 4476,
      "右下位置": 4477,
      "该卧室下方是": 4478,
      "中间卧室右侧": 4479,
      "左中和右下位置": 4480,
      "走廊贯穿上下": 4481,
      "连接左侧的厨房": 4482,
      "书房南侧通向走廊": 4483,
      "走廊从客厅右侧": 4484,
      "上方和下方各有一间卧室": 4485,
      "和客厅下方": 4486,
      "是生活阳台": 4487,
      "第三个浴室": 4488,
      "连接三个卧室": 4489,
      "位于 ": 4490,
      "右侧连餐厅": 4491,
      "上方的卧室相邻": 4492,
      "中央走廊连接": 4493,
      "书房北墙开门": 4494,
      "右侧连接两间卧室": 4495,
      "下方连接另一卧室": 4496,
      "客厅西侧开门": 4497,
      "右侧是卫生间": 4498,
      "左侧连接两个卧室": 4499,
      "分别位于走廊两端": 4500,
      "卫生间靠近次卧": 4501,
      "上方连接两个卧室和一个浴室": 4502,
      "上下分别连接": 4503,
      "左下方的卧室": 4504,
      "书房在卧室": 4505,
      "与下方的卧室相连": 4506,
      "最下方还有一间卧室": 4507,
      "次卧在主卧东侧": 4508,
      "走廊左侧连接客厅": 4509,
      "水平方向": 4510,
      "和左中位置": 4511,
      "北侧开门通厨房": 4512,
      "穿过门厅": 4513,
      "一墙之隔": 4514,
      "和左中部": 4515,
      "均与客厅或": 4516,
      "接一间浴室": 4517,
      "浅蓝色浴室": 4518,
      "第一间浴室": 4519,
      "走廊正下方": 4520,
      "下方卧室和": 4521,
      "餐厅与客厅相邻": 4522,
      "主卧和卫生间": 4523,
      "北侧连餐厅": 4524,
      "通过走廊间接相连": 4525,
      "另一间卧室及": 4526,
      "卧室位于走廊右侧": 4527,
      "两间卧室分别位于左上": 4528,
      "上方卧室旁": 4529,
      "其中一个卧室在走廊上方": 4530,
      "上方为一间卧室": 4531,
      "与右侧的起居室相邻": 4532,
      "多个房间相连": 4533,
      "及右侧客厅": 4534,
      "其中一个卧室位于走廊的上方": 4535,
      "客厅占据右下角区域": 4536,
      "其左": 4537,
      "再下方是另一间卧室": 4538,
      "在客厅下方": 4539,
      "在客厅上方": 4540,
      "工作": 4541,
      "的位置": 4542,
      "窗户": 4543,
      "客厅向南": 4544,
      "下方并与": 4545,
      "左侧有一个卧室": 4546,
      "中央区域为客厅": 4547,
      "通向一间卧室": 4548,
      "北侧依次为": 4549,
      "三个卧室分别": 4550,
      "底部区域": 4551,
      "卫生间西接厨房": 4552,
      "卧室邻接走廊": 4553,
      "其中一个卧室与厨房相邻": 4554,
      "蓝色房间": 4555,
      "两个卧室分别位于客厅的": 4556,
      "最下方的": 4557,
      "隔着过道": 4558,
      "依次为一间卧室": 4559,
      "与上方的厨房和": 4560,
      "主卧自带卫生间": 4561,
      "下层卧室": 4562,
      "书房西侧是储物间": 4563,
      "与两个卧室": 4564,
      "再连": 4565,
      "北阳台": 4566,
      "或厨房": 4567,
      "高于": 4568,
      "厨房后": 4569,
      "北侧和": 4570,
      "其中左下卧室与": 4571,
      "三个卧室沿": 4572,
      "左下角相邻": 4573,
      "浴室和下方卧室": 4574,
      "厨房在其右侧": 4575,
      "厨房在右上方": 4576,
      "上方连接卧室和浴室": 4577,
      "左上卧室与": 4578,
      "三间卧室和一间浴室": 4579,
      "下方卧室左侧": 4580,
      "上方卧室相连": 4581,
      "其中一个卧室与浴室相邻": 4582,
      "与右侧的卧室相连": 4583,
      "所有房间通过走廊": 4584,
      "连接左侧厨房": 4585,
      "右侧连接另一间卧室和一间浴室": 4586,
      "卧室位于走廊右下方": 4587,
      "南邻卫生间": 4588,
      "垂直方向上": 4589,
      "餐厅位于厨房西侧": 4590,
      "休闲": 4591,
      "则与": 4592,
      "并连通": 4593,
      "接生活阳台": 4594,
      "最左侧的卧室": 4595,
      "卧室紧邻客厅": 4596,
      "厨房与客厅相连": 4597,
      "走廊左下方": 4598,
      "浴室与厨房相邻": 4599,
      "西侧与卫生间相邻": 4600,
      "通往室外": 4601,
      "左下角另有一间卧室": 4602,
      "右下角卧室相邻": 4603,
      "正下方并与之相连": 4604,
      "两个浴室分别位于左侧": 4605,
      "左上方和右下方": 4606,
      "两个卧室分别位于右上角和右下角": 4607,
      "厨房位于中央偏下": 4608,
      "右侧浴室相连": 4609,
      "三个卧室分别位于走廊的左侧": 4610,
      "上层卧室": 4611,
      "并分出": 4612,
      "工作阳台": 4613,
      "其左侧连接一间卧室和一间浴室": 4614,
      "景观": 4615,
      "的东侧": 4616,
      "路径": 4617,
      "过渡": 4618,
      "厨房右侧连接着": 4619,
      "浴室连接": 4620,
      "下方中间": 4621,
      "卫生间相连": 4622,
      "卫生间连接客厅和卧室": 4623,
      "主卧连接客厅": 4624,
      "一间在": 4625,
      "厨房位于右上方": 4626,
      "厨房位于顶部": 4627,
      "西侧通过走廊": 4628,
      "玄关仅连接客厅": 4629,
      "厨房在右上": 4630,
      "两个绿色卧室": 4631,
      "东侧连接主卧和次卧": 4632,
      "另一卧室相邻": 4633,
      "与下方的浴室和": 4634,
      "另一个位于": 4635,
      "与左侧的浴室和": 4636,
      "四个卧室分别分布在左上": 4637,
      "共享边": 4638,
      "垂直相邻": 4639,
      "走廊左侧连接着": 4640,
      "客厅东侧开门": 4641,
      "走廊在客厅下方": 4642,
      "卧室位于走廊的左侧": 4643,
      "客厅正南方向为书房": 4644,
      "其下方连接着走廊": 4645,
      "餐厨区": 4646,
      "上接走廊": 4647,
      "且靠近": 4648,
      "两卧室": 4649,
      "右手": 4650,
      "对门": 4651,
      "开有": 4652,
      "卧室与卫生间": 4653,
      "客厅左上角": 4654,
      "厨房下方是走廊": 4655,
      "厨房下方是卧室": 4656,
      "连接四个卧室": 4657,
      "上方通过走廊连接": 4658,
      "紧邻左侧卧室和": 4659,
      "一个浴室和厨房": 4660,
      "厨房在浴室右侧": 4661,
      "东邻阳台": 4662,
      "开门通阳台": 4663,
      "两个浴室分别位于厨房下方": 4664,
      "走廊连接着四个卧室": 4665,
      "并排相邻": 4666,
      "其中一个卧室在走廊": 4667,
      "走廊向南": 4668,
      "其左侧与": 4669,
      "四个卧室分别分布在": 4670,
      "厨房位于上方左侧": 4671,
      "其中左上和右上": 4672,
      "红色厨房相邻": 4673,
      "主卧内含独立卫浴": 4674,
      "两个卧室及浴室": 4675,
      "位于厨房正下方": 4676,
      "和中间偏下位置": 4677,
      "两个并排的浴室": 4678,
      "共用一面墙": 4679,
      "北通卫生间": 4680,
      "至少": 4681,
      "卧室在走廊上方": 4682,
      "卧室在走廊左侧": 4683,
      "厨房下方是客厅": 4684,
      "厨房上方是走廊": 4685,
      "走廊中部": 4686,
      "右侧依次": 4687,
      "厨房位于客厅的": 4688,
      "书房北墙": 4689,
      "右侧连接另一卧室": 4690,
      "下方是第三间卧室": 4691,
      "上方是另一间浴室": 4692,
      "另一个卧室的上方": 4693,
      "两个浴室分别位于客厅的": 4694,
      "两个卧室和客厅": 4695,
      "客厅左侧通阳台": 4696,
      "位于客厅右下方": 4697,
      "均与走廊直接相通": 4698,
      "整体结构": 4699,
      "三个卫生间": 4700,
      "两个浴室及三个卧室": 4701,
      "所有房间通过相邻边": 4702,
      "三个卧室及两个浴室": 4703,
      "下卧室": 4704,
      "与生活区": 4705,
      "且与下方": 4706,
      "对称": 4707,
      "整套": 4708,
      "西边": 4709,
      "采光": 4710,
      "客厅连接着": 4711,
      "上方无房间": 4712,
      "左侧上方的卧室": 4713,
      "与走廊或": 4714,
      "通往卧室": 4715,
      "右下角的": 4716,
      "北面紧邻书房": 4717,
      "进入客厅": 4718,
      "右下和右上": 4719,
      "所有卧室和浴室": 4720,
      "走廊连接三个卧室和两个浴室": 4721,
      "在走廊右侧上方": 4722,
      "其下方依次是": 4723,
      "其下方左侧是浴室": 4724,
      "最下方还有一个卧室": 4725,
      "下方连接着厨房": 4726,
      "西邻卧室": 4727,
      "各自邻近": 4728,
      "下方的卧室相连": 4729,
      "与中间浴室相邻": 4730,
      "主卧与次卧相对": 4731,
      "其中一间浴室相邻": 4732,
      "左侧上下位置": 4733,
      "均与走廊或卧室相邻": 4734,
      "餐厅后接厨房": 4735,
      "三间卧室及两间浴室": 4736,
      "下端": 4737,
      "及客厅": 4738,
      "在上方": 4739,
      "的右边": 4740,
      "连生活阳台": 4741,
      "右侧延伸至": 4742,
      "上方绿色卧室": 4743,
      "厨房位于北侧": 4744,
      "与厨房和走廊相连": 4745,
      "右侧是另一间浴室": 4746,
      "浴室和两间卧室": 4747,
      "厨房在最下方": 4748,
      "上方连接浴室和卧室": 4749,
      "Bedroom": 4750,
      "和下方浴室相邻": 4751,
      "两间浴室相邻": 4752,
      "右侧的起居室": 4753,
      "走廊连接着多个房间": 4754,
      "旁边是": 4755,
      "并排且": 4756,
      "上部重叠": 4757,
      "连接左侧的浴室": 4758,
      "与中间的卧室相邻": 4759,
      "左侧与一间卧室相邻": 4760,
      "通过走廊与其他区域相连": 4761,
      "东南": 4762,
      "为一间浴室": 4763,
      "和一个": 4764,
      "在左下方": 4765,
      "紧挨": 4766,
      "连浴室": 4767,
      "客厅和走廊": 4768,
      "厨房东墙": 4769,
      "厨房下方连接着": 4770,
      "下方紧邻厨房": 4771,
      "卫生间门": 4772,
      "右侧且": 4773,
      "上方邻接": 4774,
      "上方浴室相连": 4775,
      "主卧再": 4776,
      "书房与客厅": 4777,
      "紧邻餐厅": 4778,
      "东侧通往阳台": 4779,
      "通过走廊与厨房相连": 4780,
      "三个卧室分布": 4781,
      "浴室位于卧室上方": 4782,
      "上下各有一个卧室": 4783,
      "和下方浴室": 4784,
      "客厅右侧为走廊": 4785,
      "下方卧室的右侧": 4786,
      "与左侧的浴室相邻": 4787,
      "两个卧室分别位于走廊左右两侧": 4788,
      "走廊左侧连接一间浴室": 4789,
      "一个卧室和一个浴室相邻": 4790,
      "南北贯通": 4791,
      "客厅在中央偏下": 4792,
      "与卧室和浴室相邻": 4793,
      "浴室在卧室右侧并与之相邻": 4794,
      "客厅占据右下大部分区域": 4795,
      "次卧旁设公共卫生间": 4796,
      "共享一面墙": 4797,
      "景观阳台": 4798,
      "与其中一个卧室相邻": 4799,
      "南连客厅": 4800,
      "和上方的": 4801,
      "回客厅": 4802,
      "均相连": 4803,
      "并与厨房相连": 4804,
      "接阳台": 4805,
      "的西侧": 4806,
      "位于客厅右侧": 4807,
      "下方客厅": 4808,
      "左侧与卧室相邻": 4809,
      "次卧与厨房之间": 4810,
      "北侧是卫生间": 4811,
      "其中右下卧室": 4812,
      "西侧连接厨房和餐厅": 4813,
      "玄关西侧为": 4814,
      "卧室和卧室": 4815,
      "客厅在右上方": 4816,
      "另一间浴室和一间卧室": 4817,
      "客厅右侧依次连接": 4818,
      "左侧卧室与客厅相邻": 4819,
      "两个蓝色浴室": 4820,
      "上方卧室在": 4821,
      "其上方是另一间卧室": 4822,
      "两个浴室分别位于中间": 4823,
      "两个浴室分别位于中上": 4824,
      "书房在次卧北侧": 4825,
      "中间卧室下方": 4826,
      "四个卧室分别分布在走廊": 4827,
      "两个浴室分别位于走廊左右两侧": 4828,
      "走廊尽头正对": 4829,
      "两个浴室和一个厨房": 4830,
      "下方连接另一间卧室和浴室": 4831,
      "另一个在右下角": 4832,
      "厨房位于客厅右下方": 4833,
      "和下方的厨房": 4834,
      "每个卧室都": 4835,
      "每个卧室旁边都": 4836,
      "浴室位于厨房正下方": 4837,
      "客厅右侧走廊依次连接客卫": 4838,
      "两个卫生间和三个卧室": 4839,
      "分区": 4840,
      "客厅的下方": 4841,
      "客厅左侧是卧室": 4842,
      "客厅下方是卧室": 4843,
      "厨房西接": 4844,
      "走廊西侧": 4845,
      "走廊下方连接浴室": 4846,
      "走廊上方是客厅": 4847,
      "右侧下方": 4848,
      "右侧浴室位于": 4849,
      "主卧北邻": 4850,
      "左侧区域": 4851,
      "南侧的": 4852,
      "连接着多个房间": 4853,
      "厨房在右": 4854,
      "上下两": 4855,
      "上下各有一间卧室": 4856,
      "客厅在底部中央": 4857,
      "其下方是另一个卧室": 4858,
      "其上方紧邻": 4859,
      "多个卧室及浴室": 4860,
      "厨房与卫生间无直接连通": 4861,
      "次卧紧邻主卧": 4862,
      "一个厨房和两个浴室": 4863,
      "再往右是": 4864,
      "休闲阳台": 4865,
      "一卧室": 4866,
      "上端": 4867,
      "仅连接": 4868,
      "北门": 4869,
      "北连厨房": 4870,
      "和一个卫生间": 4871,
      "有一个卫生间": 4872,
      "进门": 4873,
      "客厅西北角": 4874,
      "客厅右侧连接一个卧室": 4875,
      "左侧垂直排列": 4876,
      "通过推拉门": 4877,
      "下方连接一间卧室和一间浴室": 4878,
      "并与右侧卧室相邻": 4879,
      "左下及": 4880,
      "进入主卧": 4881,
      "客厅在中间偏右": 4882,
      "左侧卧室与厨房相邻": 4883,
      "两个浴室分别位于客厅下方": 4884,
      "走廊连接着客厅和": 4885,
      "厨房位于走廊的右下方": 4886,
      "和右下区域": 4887,
      "和右下卧室相邻": 4888,
      "其下方与走廊相连": 4889,
      "卧室在浴室右侧": 4890,
      "客厅占据左下区域": 4891,
      "书房南侧通往阳台": 4892,
      "三个卧室和两个浴室相连": 4893,
      "右侧连接着厨房": 4894,
      "两者相邻": 4895,
      "阳台与客厅南侧": 4896,
      "厨房另有一门": 4897,
      "与下方的卧室和右侧的": 4898,
      "餐厅东侧与玄关相连": 4899,
      "再上方是": 4900,
      "有两个浴室": 4901,
      "条状": 4902,
      "这间卧室": 4903,
      "阶梯": 4904,
      "走廊通向客厅": 4905,
      "左侧卧室位于": 4906,
      "左侧接厨房": 4907,
      "厨房位于两个卧室之间": 4908,
      "书房与客厅之间": 4909,
      "下方连接一个卧室和一个浴室": 4910,
      "下方是卫生间": 4911,
      "主卧室相连": 4912,
      "厨房在卧室右侧": 4913,
      "左下卧室右侧": 4914,
      "三间卧室与": 4915,
      "客厅右侧为": 4916,
      "客厅右侧通走廊": 4917,
      "两个床": 4918,
      "主卧东侧连接卫生间": 4919,
      "客卫相邻": 4920,
      "生活阳台相连": 4921,
      "走廊右侧依次连接": 4922,
      "与左侧浴室和": 4923,
      "两个浴室分别位于走廊右侧": 4924,
      "均与走廊及": 4925,
      "右侧连接着另一间卧室": 4926,
      "上方卧室与浴室": 4927,
      "与客厅和卧室相邻": 4928,
      "环绕着": 4929,
      "向上延伸": 4930,
      "另外两间卧室": 4931,
      "左侧为一间卧室": 4932,
      "下方卧室与下方浴室相邻": 4933,
      "次卧西面紧邻储物间": 4934,
      "餐厅再向北通往玄关": 4935,
      "客厅的上方和下方": 4936,
      "卧室位于厨房正下方": 4937,
      "主卧自带独立卫生间": 4938,
      "右手边是客厅": 4939,
      "下而": 4940,
      "与之": 4941,
      "其左右两侧": 4942,
      "到达": 4943,
      "右转": 4944,
      "开走廊": 4945,
      "有走廊": 4946,
      "而客厅则": 4947,
      "自下而": 4948,
      "客厅后": 4949,
      "客厅下方连接厨房": 4950,
      "厨房与走廊": 4951,
      "厨房处于": 4952,
      "右侧与客厅相连": 4953,
      "右侧绿色卧室": 4954,
      "上方卫生间": 4955,
      "餐厅在厨房": 4956,
      "客厅位于中间": 4957,
      "分别分布于左上": 4958,
      "其中两间": 4959,
      "两个浴室并排位于": 4960,
      "厨房和一个卧室": 4961,
      "卧室和走廊相邻": 4962,
      "房屋中心": 4963,
      "其右侧与走廊相连": 4964,
      "延伸部分": 4965,
      "左侧是卧室和浴室": 4966,
      "独立主卫": 4967,
      "两个浴室分别位于客厅上方": 4968,
      "厨房位于走廊的": 4969,
      "和一间浴室相邻": 4970,
      "走廊下方还连接": 4971,
      "走廊左侧依次是": 4972,
      "走廊贯穿中心": 4973,
      "浴室和厨房相连": 4974,
      "黄色房间": 4975,
      "厨房位于右下角并与": 4976,
      "两间卧室及两间浴室": 4977,
      "左邻浴室": 4978,
      "三个卧室分别位于左侧上下排列": 4979,
      "两间并排的卧室": 4980,
      "书房东侧与卫生间相连": 4981,
      "自下而上": 4982,
      "一体": 4983,
      "再上方是卧室": 4984,
      "右上方是": 4985,
      "放射": 4986,
      "浅绿色卧室": 4987,
      "设备": 4988,
      "厨房右上方": 4989,
      "连接起居室": 4990,
      "走廊分布": 4991,
      "浴室在厨房左侧": 4992,
      "右侧相接": 4993,
      "上方区域": 4994,
      "上方且与": 4995,
      "餐厅东墙": 4996,
      "主卧南墙": 4997,
      "左侧依次": 4998,
      "次卧北面": 4999,
      "厨房位于 ": 5000,
      "分别邻接": 5001,
      "设有独立卫生间": 5002,
      "左上角和右上角": 5003,
      "卧室和另一间卧室": 5004,
      "卧室位于右侧": 5005,
      "客厅西侧连接餐厅": 5006,
      "客厅左侧连": 5007,
      "其下方左侧是厨房": 5008,
      "其左侧为走廊": 5009,
      "垂直延伸": 5010,
      "两个卧室和一个浴室相邻": 5011,
      "客厅和另一个卧室": 5012,
      "并连接走廊": 5013,
      "其上方连接一个浴室": 5014,
      "其上方连接一间卧室和一间浴室": 5015,
      "客厅在走廊右侧并与之相连": 5016,
      "其中一个卧室在客厅上方": 5017,
      "左侧为另一间卧室": 5018,
      "依次排列着卧室": 5019,
      "与上方的浴室和右侧的": 5020,
      "厨房西侧与卫生间相连": 5021,
      "不直接相邻": 5022,
      "二层": 5023,
      "和左方": 5024,
      "并与走廊直接相连": 5025,
      "有卧室": 5026,
      "有走廊相连": 5027,
      "枢纽": 5028,
      "标注": 5029,
      "的区域": 5030,
      "客厅上方是浴室": 5031,
      "厨房北墙开门通向": 5032,
      "连接厨房和": 5033,
      "下方厨房": 5034,
      "下方且与": 5035,
      "餐厅北侧连接厨房": 5036,
      "餐厅北向": 5037,
      "左侧的浴室和": 5038,
      "阳台与客厅相连": 5039,
      "其中左下角卧室": 5040,
      "右侧是一个卧室": 5041,
      "浴室和客厅相邻": 5042,
      "起居室位于走廊右侧": 5043,
      "卧室位于客厅下方": 5044,
      "右上的卧室": 5045,
      "厨房位于走廊正下方": 5046,
      "浴室在客厅下方": 5047,
      "蓝色区域": 5048,
      "蓝色浴室和": 5049,
      "的左侧和右侧": 5050,
      "客厅居中偏下": 5051,
      "生活区左侧": 5052,
      "并列两个浴室": 5053,
      "红色房间": 5054,
      "公卫位于": 5055,
      "在客厅右下方": 5056,
      "垂直排列于": 5057,
      "纵向走廊": 5058,
      "纵向排列": 5059,
      "与卧室和走廊相邻": 5060,
      "占据较大面积": 5061,
      "厨房东侧设有后门": 5062,
      "卧室紧邻客厅的东侧": 5063,
      "下位置": 5064,
      "为另一间浴室": 5065,
      "和 ": 5066,
      "并靠近": 5067,
      "并通向走廊": 5068,
      "床的右侧": 5069,
      "相隔": 5070,
      "竖向": 5071,
      "还与": 5072,
      "连主卫": 5073,
      "客厅南墙": 5074,
      "连接了": 5075,
      "连接储藏室": 5076,
      "位于客厅左侧": 5077,
      "浴室连接着": 5078,
      "浴室在厨房正下方": 5079,
      "卫生间右侧": 5080,
      "主卧与卫生间相邻": 5081,
      "左侧上方": 5082,
      "左侧与厨房相邻": 5083,
      "左侧两间卧室": 5084,
      "书房北墙开门通向": 5085,
      "其中右侧浴室": 5086,
      "次卧室与客厅之间": 5087,
      "起居室在走廊右侧": 5088,
      "厨房在左上角": 5089,
      "卧室位于右上角": 5090,
      "客厅位于中心偏左": 5091,
      "浴室位于客厅正下方": 5092,
      "和右侧浴室": 5093,
      "和右侧卧室相邻": 5094,
      "卧室在右下方": 5095,
      "厨房在走廊正下方": 5096,
      "右端接": 5097,
      "四间卧室分别位于": 5098,
      "客厅在中央偏左": 5099,
      "在客厅正上方": 5100,
      "左侧和右侧各有一个卧室": 5101,
      "客厅正北方向": 5102,
      "其右侧连接着走廊": 5103,
      "东接主卧": 5104,
      "阶梯状": 5105,
      "与一个卧室": 5106,
      "且彼此相邻": 5107,
      "再向右连接": 5108,
      "北窗": 5109,
      "和一个客厅": 5110,
      "接一个卧室": 5111,
      "明确": 5112,
      "是客卫": 5113,
      "画面": 5114,
      "直通厨房": 5115,
      "设推拉门": 5116,
      "卧室与客厅之间": 5117,
      "客厅右上角": 5118,
      "客厅同时": 5119,
      "位于厨房右侧": 5120,
      "走廊上方是厨房": 5121,
      "浴室右侧是另一间卧室": 5122,
      "下方及": 5123,
      "右侧与浴室相邻": 5124,
      "餐厅右侧": 5125,
      "次卧旁": 5126,
      "客厅位于南侧中央": 5127,
      "阳台从": 5128,
      "分别连接着": 5129,
      "一个厨房位于": 5130,
      "在走廊尽头": 5131,
      "中间浴室相连": 5132,
      "左上和右上": 5133,
      "右上角卧室与": 5134,
      "直接或": 5135,
      "东侧与主卧室相连": 5136,
      "客厅在卧室右侧": 5137,
      "其右侧为客厅": 5138,
      "客厅左侧和右侧": 5139,
      "与下方浴室": 5140,
      "其右侧连接客厅": 5141,
      "以及下方的卧室": 5142,
      "向下延伸连接": 5143,
      "依次是厨房和卫生间": 5144,
      "从左至右依次为浴室": 5145,
      "卫生间在主卧和次卧之间": 5146,
      "走廊纵向贯穿中心": 5147,
      "餐厅后方接厨房": 5148,
      "餐厅与客厅直接相通": 5149,
      "餐厅与客厅和厨房相连": 5150,
      "走廊依次连接主卧": 5151,
      "还连接另一间卧室": 5152,
      "左邻走廊": 5153,
      "其上方为浴室": 5154,
      "起居室位于中央偏上": 5155,
      "客厅在上方中央": 5156,
      "次卧与主卧之间": 5157,
      "右侧客厅及下方": 5158,
      "第三个卧室位于走廊的下方": 5159,
      "十字形": 5160,
      "第二个卫生间": 5161,
      "另两间": 5162,
      "旁设有一间浴室": 5163,
      "设计": 5164,
      "该卧室位于": 5165,
      "卧室在走廊右下方": 5166,
      "卧室分布在走廊": 5167,
      "客厅北墙开门": 5168,
      "厨房右侧连接": 5169,
      "厨房西侧连接": 5170,
      "位于左下方": 5171,
      "走廊在厨房下方": 5172,
      "浴室与卧室相邻": 5173,
      "右侧客厅及": 5174,
      "主卧连接客厅和卫生间": 5175,
      "左侧为厨房": 5176,
      "西侧通过门": 5177,
      "南侧通往阳台": 5178,
      "北侧的": 5179,
      "紧邻左侧卧室": 5180,
      "紧邻上方卧室": 5181,
      "中间是浴室": 5182,
      "之间夹着": 5183,
      "三个卧室分别分布在走廊": 5184,
      "右侧是第三间卧室": 5185,
      "卧室通过走廊与": 5186,
      "该卧室的": 5187,
      "下方卧室与厨房相邻": 5188,
      "独立阳台": 5189,
      "浴室在上方": 5190,
      "客厅位于左侧中部": 5191,
      "其中一个卧室在走廊左侧": 5192,
      "两个卧室分别位于走廊的两侧": 5193,
      "并连接所有房间": 5194,
      "厨房和卫生间分别位于走廊两端": 5195,
      "右中和右下位置": 5196,
      "走廊向上连接": 5197,
      "两者均": 5198,
      "与上方的浴室和下方的卧室相邻": 5199,
      "向左连接": 5200,
      "走廊垂直贯穿": 5201,
      "主卧室东侧附带卫生间": 5202,
      "走廊横向延伸": 5203,
      "阳台与客厅南侧相连": 5204,
      "且都": 5205,
      "且部分": 5206,
      "廊通往室外": 5207,
      "由走廊连接": 5208,
      "客厅上方连接": 5209,
      "厨房紧邻走廊": 5210,
      "走廊右侧为客厅": 5211,
      "浴室的右侧": 5212,
      "下方中央": 5213,
      "卫生间连接走廊": 5214,
      "书房与次卧之间": 5215,
      "与厨房和走廊": 5216,
      "通往生活阳台": 5217,
      "靠近卧室": 5218,
      "一个走廊": 5219,
      "中间有": 5220,
      "右侧是起居室": 5221,
      "连接着两个卧室和一个浴室": 5222,
      "在厨房右下方": 5223,
      "左下和右上区域": 5224,
      "客厅在左侧中部": 5225,
      "另一间浴室相连": 5226,
      "该卧室下方是浴室": 5227,
      "其下方是另一间浴室": 5228,
      "厨房位于走廊的右上方": 5229,
      "次卧西侧是书房": 5230,
      "客厅位于厨房正下方": 5231,
      "厨房与一间卧室相邻": 5232,
      "下方连接着客厅": 5233,
      "主卧和次卧分别": 5234,
      "走廊向左延伸连接": 5235,
      "中间夹着一间浴室": 5236,
      "卧室位于厨房正上方": 5237,
      "西北方向": 5238,
      "与走廊和右侧卧室相邻": 5239,
      "西侧为主卧": 5240,
      "形成以走廊为": 5241,
      "北侧依次为次卧和卫生间": 5242,
      "西侧通过门廊通往室外": 5243,
      "东连厨房": 5244,
      "北通厨房": 5245,
      "后者": 5246,
      "并紧邻走廊": 5247,
      "底边": 5248,
      "背后": 5249,
      "设生活阳台": 5250,
      "该区域": 5251,
      "厨房右下方": 5252,
      "厨房上方是另一间卧室": 5253,
      "下方相邻": 5254,
      "下方左侧是": 5255,
      "卫生间和主卧": 5256,
      "卫生间门朝": 5257,
      "右侧并与": 5258,
      "右侧与走廊相邻": 5259,
      "左侧卫生间": 5260,
      "左侧与走廊相邻": 5261,
      "次卧连接客厅": 5262,
      "南侧通往卫生间": 5263,
      "一个走廊位于中央": 5264,
      "左下角的浴室": 5265,
      "左侧连接另一个卧室": 5266,
      "厨房在卧室下方": 5267,
      "厨房在最右侧": 5268,
      "右下角和左下角": 5269,
      "右上角的浴室": 5270,
      "主卧东侧相邻次卧": 5271,
      "和右下卧室": 5272,
      "其右侧是另一间卧室": 5273,
      "另一个 ": 5274,
      "两个卧室分别位于右上和右下": 5275,
      "两个浴室分别位于走廊下方": 5276,
      "两个浴室分别位于走廊的上方": 5277,
      "三个卧室分别位于上方": 5278,
      "下方的厨房": 5279,
      "客厅南侧开门": 5280,
      "其中左上与": 5281,
      "右侧连接着客厅": 5282,
      "客厅位于走廊的上方": 5283,
      "客厅在走廊右侧且": 5284,
      "公共区域": 5285,
      "走廊向右延伸至": 5286,
      "卧室位于走廊正下方": 5287,
      "厨房北面连接储藏室": 5288,
      "浴室位于走廊右下方": 5289,
      "连接上下两个卧室": 5290,
      "还有一个卫生间": 5291,
      "卧室南侧邻接卫生间": 5292,
      "其中左上卧室与浴室相邻": 5293,
      "和右方各有一个卧室": 5294,
      "对应卧室": 5295,
      "叠放着": 5296,
      "连接左右两侧的卧室": 5297,
      "东墙再开门": 5298,
      "卫生间介于次卧与书房之间": 5299,
      "主卧室东侧设有卫生间": 5300,
      "形成回路": 5301,
      "又连接": 5302,
      "向走廊": 5303,
      "开一扇门": 5304,
      "规则": 5305,
      "客厅右侧连接卧室": 5306,
      "厨房与走廊相连": 5307,
      "走廊环绕": 5308,
      "浴室右侧是客厅": 5309,
      "下方紧邻客厅": 5310,
      "相邻且": 5311,
      "上方绿色": 5312,
      "左侧绿色卧室": 5313,
      "西侧与玄关相连": 5314,
      "下方连接浴室和卧室": 5315,
      "下方连接第三个卧室": 5316,
      "下方是起居室": 5317,
      "一个蓝色浴室": 5318,
      "东邻次卧": 5319,
      "客厅在左中部": 5320,
      "右侧的浴室和": 5321,
      "走廊右侧自上而下": 5322,
      "另一个在走廊下方": 5323,
      "卧室在客厅正下方": 5324,
      "两个浴室分别位于走廊左侧": 5325,
      "书房通过走廊连接主卧": 5326,
      "向北延伸": 5327,
      "另一个卧室在左下角": 5328,
      "三间卧室分别位于左下角": 5329,
      "卫生间东侧紧邻客厅": 5330,
      "走廊依次连接客卫": 5331,
      "两个浴室分别位于走廊的上下两侧": 5332,
      "左侧和右侧各有一间卧室": 5333,
      "上接卧室": 5334,
      "两个卧室并排位于上方": 5335,
      "主卧自带衣帽间": 5336,
      "还有一个独立的卧室": 5337,
      "紧凑的": 5338,
      "并向下延伸至": 5339,
      "书房在卧室对面": 5340,
      "次卧室与客厅之间有走廊相连": 5341,
      "一端": 5342,
      "上接浴室": 5343,
      "与另一间卧室": 5344,
      "与起居室相邻": 5345,
      "右边界": 5346,
      "和客厅右侧": 5347,
      "四个房间": 5348,
      "小门": 5349,
      "形贯穿中央": 5350,
      "是主卫": 5351,
      "最右端": 5352,
      "设卫生间": 5353,
      "通儿童房": 5354,
      "客厅下方是浴室": 5355,
      "客厅右侧是另一间卧室": 5356,
      "厨房门": 5357,
      "厨房西墙": 5358,
      "走廊和浴室": 5359,
      "走廊下方是浴室": 5360,
      "走廊左侧是卧室": 5361,
      "下方邻接": 5362,
      "相邻卧室": 5363,
      "右侧及下方": 5364,
      "右侧依次连接厨房": 5365,
      "餐厅和主卧": 5366,
      "中央偏下位置": 5367,
      "南侧通往卧室": 5368,
      "主卧室东侧连接卫生间": 5369,
      "上方是床": 5370,
      "左上角和右下角": 5371,
      "连接着另一个卧室": 5372,
      "另一个卧室位于客厅": 5373,
      "卧室和另一个浴室": 5374,
      "右上方卧室": 5375,
      "下方卧室上方": 5376,
      "客厅下方也": 5377,
      "客卫夹在": 5378,
      "两个卧室分别位于左侧": 5379,
      "上方为另一间卧室": 5380,
      "客厅占据右上": 5381,
      "厨房位于上方右侧": 5382,
      "客厅和另一间卧室": 5383,
      "客厅与浴室": 5384,
      "右侧的卧室和浴室": 5385,
      "下方连接另一间卧室和一间浴室": 5386,
      "与上方的卧室相连": 5387,
      "与上方的卧室和下方的": 5388,
      "卧室位于走廊右上方": 5389,
      "在客厅左下方": 5390,
      "走廊从厨房右侧": 5391,
      "三间卧室分别位于走廊上方": 5392,
      "所有房间均通过": 5393,
      "厨房位于起居室左侧": 5394,
      "与下方的客厅相邻": 5395,
      "所有房间通过走廊或直接相邻": 5396,
      "阳台西接卧室": 5397,
      "均通过走廊或相邻房间间接连通": 5398,
      "东面设有卫生间": 5399,
      "不规则": 5400,
      "使用": 5401,
      "即达": 5402,
      "完整": 5403,
      "床在": 5404,
      "西连次卧": 5405,
      "设书房": 5406,
      "走廊还": 5407,
      "走廊与客厅": 5408,
      "卫生间连接主卧": 5409,
      "阳台仅": 5410,
      "分别为": 5411,
      "北侧连接走廊": 5412,
      "通过走廊与客厅": 5413,
      "上方是卫生间": 5414,
      "餐厅北侧是厨房": 5415,
      "起居室和厨房": 5416,
      "右下角还有一个卧室": 5417,
      "上下分布": 5418,
      "开放式厨房与餐厅": 5419,
      "和厨房右侧": 5420,
      "客厅南侧是阳台": 5421,
      "通过走廊连接厨房": 5422,
      "两个浴室分别位于客厅右侧": 5423,
      "其下方是厨房和走廊": 5424,
      "厨房位于走廊正上方": 5425,
      "浴室在右": 5426,
      "该浴室上方": 5427,
      "另一个在走廊": 5428,
      "客厅位于厨房正上方": 5429,
      "其下方紧邻走廊": 5430,
      "并列分布着": 5431,
      "一个在下方": 5432,
      "一个在右侧": 5433,
      "厨房西邻次卧": 5434,
      "客厅左侧连接一个卧室": 5435,
      "右侧依次连接浴室": 5436,
      "厨房紧邻餐厅": 5437,
      "浴厕位于": 5438,
      "其左侧紧邻一间卧室": 5439,
      "餐厅连接厨房和客厅": 5440,
      "浴室夹在两个卧室之间": 5441,
      "与走廊和右侧浴室相邻": 5442,
      "书房与儿童房": 5443,
      "上接客厅": 5444,
      "与一间卧室": 5445,
      "与一个浴室": 5446,
      "且与上方": 5447,
      "其左上方": 5448,
      "再连接一个卧室": 5449,
      "南连厨房": 5450,
      "右接厨房": 5451,
      "和正上方": 5452,
      "旁设有": 5453,
      "无直接相邻": 5454,
      "卧室与厨房相邻": 5455,
      "卧室在厨房下方": 5456,
      "厨房右方": 5457,
      "走廊左侧是浴室": 5458,
      "走廊右侧连接浴室": 5459,
      "卫生间位于客厅": 5460,
      "左侧与走廊相连": 5461,
      "书房与主卧之间": 5462,
      "紧邻左侧": 5463,
      "其中右上角卧室": 5464,
      "其中浴室在左": 5465,
      "三个卧室分别分布在左上": 5466,
      "厨房在客厅正上方": 5467,
      "在厨房左下方": 5468,
      "左上和左下": 5469,
      "两侧各有一间卧室": 5470,
      "走廊连接着三间卧室": 5471,
      "有一个卧室和一个浴室": 5472,
      "和右侧浴室相邻": 5473,
      "与下方的浴室相连": 5474,
      "走廊横贯于": 5475,
      "其左侧连接走廊": 5476,
      "入口正对客厅": 5477,
      "客厅和两个卧室": 5478,
      "走廊左侧连接卧室": 5479,
      "其中左上和左下": 5480,
      "客厅连接餐厅和卧室": 5481,
      "再往里": 5482,
      "横向延伸": 5483,
      "厨房位于中心位置": 5484,
      "下方连接一间浴室和一间卧室": 5485,
      "左侧连接一间浴室和一间卧室": 5486,
      "书房靠近次卧南侧": 5487,
      "与上方卧室和下方浴室相邻": 5488,
      "卫生间西墙再": 5489,
      "一张床": 5490,
      "不与其他房间": 5491,
      "与右下卧室": 5492,
      "均只": 5493,
      "户外": 5494,
      "接入": 5495,
      "有一个": 5496,
      "有独立卫生间": 5497,
      "直入": 5498,
      "落地": 5499,
      "卧室在走廊": 5500,
      "厨房旁边": 5501,
      "厨房右侧连接一间卧室": 5502,
      "厨房与右侧卧室相邻": 5503,
      "连接到": 5504,
      "浴室处于": 5505,
      "浴室在走廊右上方": 5506,
      "上方左右两侧": 5507,
      "上方接客厅": 5508,
      "主卧西墙": 5509,
      "左侧与浴室相邻": 5510,
      "北侧通向卧室": 5511,
      "书房在厨房的": 5512,
      "两个浴室上下排列": 5513,
      "一个大": 5514,
      "左下角浴室": 5515,
      "左上角卧室下方": 5516,
      "卧室和厨房相邻": 5517,
      "厨房在其下方": 5518,
      "客厅连接走廊": 5519,
      "并与浴室相连": 5520,
      "右上角相邻": 5521,
      "两间卫生间": 5522,
      "右下方和左下方": 5523,
      "右下部": 5524,
      "左右并列": 5525,
      "两个浴室分别位于厨房上方": 5526,
      "左右两侧各连接一间卧室": 5527,
      "两个卫生间及": 5528,
      "其右侧紧邻起居室": 5529,
      "卧室在左": 5530,
      "卧室在客厅上方": 5531,
      "三个卧室和客厅": 5532,
      "共享一个浴室": 5533,
      "下方连接着另一个浴室": 5534,
      "垂直贯穿": 5535,
      "与中间的卧室": 5536,
      "左侧卧室与右侧卧室": 5537,
      "与上方的卧室和下方的卧室相邻": 5538,
      "与客厅和餐厅": 5539,
      "且均与走廊相邻": 5540,
      "另一个卧室位于右下角": 5541,
      "客厅左侧连接着": 5542,
      "右邻厨房": 5543,
      "上方和下方各连接一间卧室": 5544,
      "客厅与厨房及": 5545,
      "次卧北侧与卫生间相连": 5546,
      "两个浴室分别位于左上角和右下角": 5547,
      "走廊依次串起": 5548,
      "客厅东北角": 5549,
      "次卧对面是书房": 5550,
      "左手边是厨房": 5551,
      "连接左侧的卧室和浴室": 5552,
      "入口门通向客厅的西侧": 5553,
      "次卧对面是公用卫生间": 5554,
      "与两个浴室和": 5555,
      "且与右侧": 5556,
      "其下方连接一个卧室": 5557,
      "北通餐厅": 5558,
      "和上方的浴室相邻": 5559,
      "夹于": 5560,
      "接卫生间": 5561,
      "无其他房间": 5562,
      "的放射": 5563,
      "私密": 5564,
      "客厅右下角": 5565,
      "客厅在厨房上方": 5566,
      "厨房西墙开门": 5567,
      "厨房下方是另一间浴室": 5568,
      "连接左右": 5569,
      "浴室分别位于走廊": 5570,
      "浴室居中": 5571,
      "浴室右侧是厨房": 5572,
      "上方与走廊相连": 5573,
      "上方卫生间相邻": 5574,
      "上方接走廊": 5575,
      "餐厅南接厨房": 5576,
      "左侧绿色卧室位于": 5577,
      "右侧连接一个卧室和一个浴室": 5578,
      "下方连接另一浴室": 5579,
      "靠近浴室": 5580,
      "主卧室与卫生间相连": 5581,
      "中间和右侧": 5582,
      "厨房和起居室": 5583,
      "卧室位于起居室上方": 5584,
      "并与卧室": 5585,
      "右下角的浴室": 5586,
      "右上角浴室": 5587,
      "右上角区域": 5588,
      "直接与走廊相连": 5589,
      "浴室位于卧室的南侧": 5590,
      "两侧的卧室": 5591,
      "客厅在中间偏左位置": 5592,
      "厨房位于走廊的下方": 5593,
      "右侧为另一间浴室": 5594,
      "主卧内套": 5595,
      "两个浴室分别位于走廊右侧和下方": 5596,
      "客厅占据左下": 5597,
      "厨房位于中央偏右": 5598,
      "右侧浴室及下方": 5599,
      "第三个卧室在": 5600,
      "上方的浴室和": 5601,
      "其中一间卧室与浴室相邻": 5602,
      "均通过走廊相连": 5603,
      "客厅位于走廊正下方": 5604,
      "右侧与卧室相邻": 5605,
      "直接连通走廊": 5606,
      "厨房位于客厅的右侧": 5607,
      "及右侧浴室相邻": 5608,
      "两个浴室分别位于走廊的两侧": 5609,
      "两个浴室分别位于走廊的左右两侧": 5610,
      "其上方为走廊": 5611,
      "以及下方的客厅": 5612,
      "每个卧室都有自己的浴室": 5613,
      "南邻阳台": 5614,
      "走廊依次串联": 5615,
      "厨房位于生活区正上方": 5616,
      "两个上下排列的浴室": 5617,
      "其中一个卧室位于走廊的左侧": 5618,
      "书房在厨房的西边": 5619,
      "与右上方": 5620,
      "东接厨房": 5621,
      "东连走廊": 5622,
      "两处": 5623,
      "其左下方": 5624,
      "及厨房相邻": 5625,
      "后院": 5626,
      "床的": 5627,
      "是入户门": 5628,
      "第三": 5629,
      "较小": 5630,
      "还连接一个卧室": 5631,
      "客厅右侧连接一间卧室": 5632,
      "厨房左侧是浴室": 5633,
      "厨房北墙开门": 5634,
      "厨房右侧是走廊": 5635,
      "走廊或": 5636,
      "浴室在走廊右下方": 5637,
      "下方偏左": 5638,
      "左侧两个卧室": 5639,
      "厨房位于浴室下方": 5640,
      "与客厅和浴室相连": 5641,
      "紧邻左侧浴室": 5642,
      "其中靠": 5643,
      "两个浴室分别连接": 5644,
      "中间的浴室和": 5645,
      "连接着东侧": 5646,
      "依次连接着": 5647,
      "另一个卧室与": 5648,
      "起居室居中": 5649,
      "浴室位于卧室右侧": 5650,
      "两间上下排列": 5651,
      "客厅在左下": 5652,
      "左侧卧室相连": 5653,
      "该卧室右侧紧邻": 5654,
      "客厅左侧为走廊": 5655,
      "走廊连接左侧卧室": 5656,
      "走廊向东": 5657,
      "四个卧室分布在走廊": 5658,
      "客厅占据左下角": 5659,
      "厨房与卧室相邻": 5660,
      "连接左侧两间卧室": 5661,
      "下方连接着一个浴室": 5662,
      "其上方和下方各": 5663,
      "垂直堆叠": 5664,
      "客厅和三个卧室": 5665,
      "走廊左侧连接一个卧室": 5666,
      "其上方连接浴室": 5667,
      "三个卧室分别位于走廊的": 5668,
      "浴室位于走廊正下方": 5669,
      "右侧卧室与右侧浴室相邻": 5670,
      "其中上方卧室与厨房相邻": 5671,
      "另一个卧室位于走廊的右侧": 5672,
      "所有房间通过走廊或直接邻接": 5673,
      "厨房后方是餐厅": 5674,
      "占据较大区域": 5675,
      "阳台仅与客厅连接": 5676,
      "下边": 5677,
      "再连接一间卧室": 5678,
      "半部分": 5679,
      "右拐": 5680,
      "同一侧": 5681,
      "和正": 5682,
      "和中间偏左位置": 5683,
      "多个": 5684,
      "夹在走廊": 5685,
      "正下方是浴室": 5686,
      "遮挡": 5687,
      "客厅下方连接走廊": 5688,
      "厨房右侧连接走廊": 5689,
      "厨房正下方是": 5690,
      "厨房南侧为卫生间": 5691,
      "走廊和卧室": 5692,
      "下方与客厅相连": 5693,
      "下方有两个卧室": 5694,
      "右侧和右下方": 5695,
      "左侧与客厅相邻": 5696,
      "与走廊和厨房": 5697,
      "与走廊直接相邻": 5698,
      "通往书房": 5699,
      "通往入户门": 5700,
      "三个卧室呈": 5701,
      "左侧连接另一间浴室": 5702,
      "浴室和第三间卧室": 5703,
      "浴室和走廊相连": 5704,
      "连接着上方的浴室": 5705,
      "起居室占据": 5706,
      "厨房在左": 5707,
      "上方连接另一间浴室": 5708,
      "右上和中下位置": 5709,
      "开放式厨房相连": 5710,
      "卫生间西靠卧室": 5711,
      "其右侧为厨房": 5712,
      "左侧卧室的": 5713,
      "该卧室右侧是浴室": 5714,
      "厨房位于走廊左下方": 5715,
      "浴室在卧室正下方": 5716,
      "另一侧连接": 5717,
      "位于客厅正上方": 5718,
      "走廊尽头为入户门": 5719,
      "中下和右下位置": 5720,
      "其左侧连接一间浴室": 5721,
      "生活区上方": 5722,
      "其上方和下方各有一个卧室": 5723,
      "其上方和下方各有一间卧室": 5724,
      "上方的客厅": 5725,
      "上方的两个卧室": 5726,
      "其中一间卧室在": 5727,
      "起居室位于右侧": 5728,
      "主卧带独立衣帽间": 5729,
      "形成连通": 5730,
      "向北开门": 5731,
      "上方卧室与浴室相邻": 5732,
      "和客厅区域": 5733,
      "在客厅右上方": 5734,
      "餐厅与客厅连通": 5735,
      "其中一个卧室在客厅左侧": 5736,
      "阳台与客厅直接相连": 5737,
      "厨房位于起居室的左侧": 5738,
      "下方通过走廊连接厨房": 5739,
      "每个卧室旁": 5740,
      "左侧紧邻一间卧室": 5741,
      "走廊尽头是共用卫生间": 5742,
      "餐厅连接厨房和阳台": 5743,
      "门开向走廊": 5744,
      "主卧内含衣帽间与主卫": 5745,
      "所有房间均通过走廊或直接相邻实现连通": 5746,
      "与左下角": 5747,
      "交通": 5748,
      "仅与走廊和": 5749,
      "南通阳台": 5750,
      "及两个浴室": 5751,
      "及下方的": 5752,
      "外墙": 5753,
      "拼接": 5754,
      "最右上角": 5755,
      "标有": 5756,
      "的是": 5757,
      "客厅连接着走廊": 5758,
      "厨房上方是客厅": 5759,
      "浴室右侧是": 5760,
      "右侧通过走廊连接客厅": 5761,
      "主卧东墙": 5762,
      "左侧为走廊": 5763,
      "中央走廊连接客厅": 5764,
      "南侧连阳台": 5765,
      "南侧紧邻次卧": 5766,
      "分别是": 5767,
      "与客厅左侧相邻": 5768,
      "紧邻另一间浴室": 5769,
      "紧邻其右": 5770,
      "次卧室相连": 5771,
      "另一间卧室和另一间浴室": 5772,
      "厨房和一个浴室": 5773,
      "中部卧室": 5774,
      "中心位置": 5775,
      "卧室位于浴室右侧": 5776,
      "右侧卧室则": 5777,
      "右上方和左下方": 5778,
      "两个 ": 5779,
      "与上方和下方的卧室相邻": 5780,
      "位于走廊两侧": 5781,
      "走廊连接着卧室": 5782,
      "书房在西南角": 5783,
      "与下方的客厅相连": 5784,
      "卧室在上方": 5785,
      "两个卧室分别位于客厅下方": 5786,
      "儿童房和书房": 5787,
      "厨房与一个浴室相邻": 5788,
      "右方且": 5789,
      "走廊连接客厅和厨房": 5790,
      "其上方连接两个卧室": 5791,
      "及下方浴室相邻": 5792,
      "走廊在中间": 5793,
      "还有一间独立": 5794,
      "餐厅后方紧邻厨房": 5795,
      "左侧上下各有一间卧室": 5796,
      "相邻房间直接相连": 5797,
      "通过走廊与其他房间连接": 5798,
      "客厅右墙": 5799,
      "与上方卧室和下方卧室相邻": 5800,
      "各房间通过相邻边": 5801,
      "与左上角": 5802,
      "与一个卧室和": 5803,
      "为核心": 5804,
      "仅与厨房相邻": 5805,
      "均直接相连": 5806,
      "大片": 5807,
      "左接客厅": 5808,
      "服务": 5809,
      "连儿童房": 5810,
      "客厅左侧连接一间卧室": 5811,
      "厨房旁": 5812,
      "厨房左侧连接一间卧室": 5813,
      "厨房右侧连接一个卧室": 5814,
      "走廊左端连接": 5815,
      "浴室上方是卧室": 5816,
      "下方通过走廊连接客厅": 5817,
      "次卧和厨房": 5818,
      "次卧西墙": 5819,
      "西侧和南侧": 5820,
      "与走廊底部相连": 5821,
      "一个较大": 5822,
      "中间走廊纵向贯穿": 5823,
      "中部偏下": 5824,
      "和右上部": 5825,
      "卧室位于厨房右侧": 5826,
      "北面紧邻卫生间": 5827,
      "右侧卧室在走廊右下方": 5828,
      "客厅右侧紧邻厨房": 5829,
      "左侧卧室与厨房": 5830,
      "并排两个卧室": 5831,
      "其中一个卧室与": 5832,
      "左右两侧卧室": 5833,
      "卧室在浴室下方": 5834,
      "第三间卧室相邻": 5835,
      "厨房与生活阳台相连": 5836,
      "生活区在": 5837,
      "右方和下方": 5838,
      "垂直相连": 5839,
      "向下连接厨房": 5840,
      "其上方连接卧室": 5841,
      "走廊位于中心区域": 5842,
      "另一间位于": 5843,
      "两个卧室及一个浴室": 5844,
      "北墙再开一门通向": 5845,
      "走廊向右延伸并分出": 5846,
      "右侧通过走廊连接厨房": 5847,
      "左侧自上而下依次为卧室": 5848,
      "东接卫生间": 5849,
      "两个卧室分别位于左上和右上": 5850,
      "客厅左侧是餐厅": 5851,
      "一个床位于": 5852,
      "不相邻": 5853,
      "也连接一间浴室": 5854,
      "五个卧室": 5855,
      "并连接着": 5856,
      "并与走廊及": 5857,
      "横向贯穿": 5858,
      "正下方是厨房": 5859,
      "独占": 5860,
      "第四": 5861,
      "客厅右侧连接浴室": 5862,
      "客厅下方连接一个卧室": 5863,
      "客厅上方是另一间卧室": 5864,
      "连接三个卧室和两个浴室": 5865,
      "走廊末端": 5866,
      "浴室又": 5867,
      "浴室下方是卧室": 5868,
      "浴室下方是另一间卧室": 5869,
      "下方浴室在": 5870,
      "卫生间独立": 5871,
      "右侧客厅相邻": 5872,
      "餐厅西北方向": 5873,
      "阳台与客厅之间": 5874,
      "与客厅和厨房": 5875,
      "与走廊和浴室相连": 5876,
      "通过走廊间接连通": 5877,
      "两个浴室并排": 5878,
      "主卫连接主卧": 5879,
      "起居室正下方": 5880,
      "卧室通过走廊间接相连": 5881,
      "厨房在浴室下方": 5882,
      "浴室位于客厅左侧": 5883,
      "卧室与右侧浴室相邻": 5884,
      "其右侧与走廊相邻": 5885,
      "与上方浴室和": 5886,
      "次卧与客卫相邻": 5887,
      "其上方是左侧卧室": 5888,
      "两个浴室分别位于左下角": 5889,
      "厨房位于走廊的左下方": 5890,
      "两个卫生间分别": 5891,
      "其下方依次连接": 5892,
      "与左侧浴室": 5893,
      "走廊尽头右转": 5894,
      "端连接卫生间": 5895,
      "三个卧室分别位于左中": 5896,
      "生活区下方": 5897,
      "次卧连接阳台": 5898,
      "下方浴室与": 5899,
      "西墙共用": 5900,
      "三个卧室和两个浴室相邻": 5901,
      "与右侧的客厅相连": 5902,
      "客厅位于走廊东侧": 5903,
      "还连接另一个卧室": 5904,
      "与书房相连": 5905,
      "左侧自上而下依次连接": 5906,
      "左侧自上而下依次为": 5907,
      "功能分区": 5908,
      "连接着左侧的客厅": 5909,
      "玄关西侧为入户门": 5910,
      "一浴室": 5911,
      "三侧": 5912,
      "及右上方": 5913,
      "及下方卧室": 5914,
      "各卧室": 5915,
      "和一间厨房": 5916,
      "在垂直方向上": 5917,
      "堵墙": 5918,
      "并位于": 5919,
      "继续": 5920,
      "客厅北侧连接": 5921,
      "客厅南向": 5922,
      "厨房下方连接": 5923,
      "厨房北接卫生间": 5924,
      "厨房下方是另一个卧室": 5925,
      "浴室及厨房": 5926,
      "下方绿色卧室": 5927,
      "下方和右下方": 5928,
      "相邻边界": 5929,
      "右侧通向": 5930,
      "右侧浴室在": 5931,
      "餐厅南侧连接厨房": 5932,
      "主卧东墙开门": 5933,
      "主卧对面": 5934,
      "主卧北墙再开一门": 5935,
      "次卧与客厅之间": 5936,
      "右侧连接厨房和另一间浴室": 5937,
      "其中上部": 5938,
      "设有通往": 5939,
      "左下角有一个卧室": 5940,
      "玄关东接客厅": 5941,
      "房间在": 5942,
      "左侧连接浴室和卧室": 5943,
      "依次为厨房": 5944,
      "右下角另有一间卧室": 5945,
      "上方连接一个卧室和一个浴室": 5946,
      "东邻卧室": 5947,
      "右上和左下位置": 5948,
      "右下方的": 5949,
      "客厅在右上": 5950,
      "另一间浴室和厨房": 5951,
      "与上方的浴室": 5952,
      "该卧室右侧是客厅": 5953,
      "独立浴室": 5954,
      "右侧为另一卧室": 5955,
      "其下方为走廊": 5956,
      "和卫生间相邻": 5957,
      "右侧连接另一间卧室和浴室": 5958,
      "两间浴室分别位于走廊左右两侧": 5959,
      "隔着卫生间": 5960,
      "上方卧室与下方卧室": 5961,
      "左侧上下各有一个卧室": 5962,
      "客厅右侧走廊依次连接主卧": 5963,
      "走廊垂直贯穿中央": 5964,
      "右上和左下区域": 5965,
      "和中部偏右": 5966,
      "均通过走廊或直接与": 5967,
      "开门进入次卧": 5968,
      "卫生间与次卧室相连": 5969,
      "客厅南侧通往主卧": 5970,
      "从左至右依次为一间卧室": 5971,
      "大片区域": 5972,
      "下边缘": 5973,
      "和中间卧室": 5974,
      "和最右侧": 5975,
      "和三个浴室": 5976,
      "和右侧卧室下方": 5977,
      "均与卧室": 5978,
      "夹在厨房": 5979,
      "完全": 5980,
      "连储物间": 5981,
      "卧室则": 5982,
      "卧室与卫生间相连": 5983,
      "厨房右侧连接一间浴室": 5984,
      "下方相连": 5985,
      "卫生间和厨房": 5986,
      "右侧与走廊相连": 5987,
      "右侧上部": 5988,
      "主卧与客厅之间": 5989,
      "左侧上方卧室": 5990,
      "左侧的卧室相邻": 5991,
      "左侧相接": 5992,
      "左侧接浴室": 5993,
      "中央位置": 5994,
      "西侧与餐厅相连": 5995,
      "与厨房右侧相邻": 5996,
      "与走廊和厨房相连": 5997,
      "中间下方": 5998,
      "另一个卧室位于走廊下方": 5999,
      "卧室和走廊相连": 6000,
      "浴室位于客厅上方": 6001,
      "客厅在浴室右侧": 6002,
      "右侧卧室与客厅": 6003,
      "Bathroom": 6004,
      "另一个浴室和卧室": 6005,
      "次卧与儿童房": 6006,
      "位于走廊左下方": 6007,
      "紧邻厨房下方": 6008,
      "另一条": 6009,
      "其下方紧邻浴室": 6010,
      "通过走廊与浴室相连": 6011,
      "上部相连": 6012,
      "其左侧连接两个卧室": 6013,
      "生活区在走廊右侧": 6014,
      "连接左侧卧室和": 6015,
      "连接左侧卧室与": 6016,
      "入口处": 6017,
      "其上方连接一个卫生间": 6018,
      "客厅位于走廊右下方": 6019,
      "客厅位于走廊的左侧": 6020,
      "左侧卧室与浴室相邻": 6021,
      "厨房在右侧中部": 6022,
      "中下部和右下角": 6023,
      "两间卧室分别位于走廊左右两侧": 6024,
      "左端接": 6025,
      "左上角卧室右侧连接浴室": 6026,
      "二者共同": 6027,
      "占据较大空间": 6028,
      "各有一个卫生间": 6029,
      "卫生间介于厨房与次卧之间": 6030,
      "走廊向下延伸并连接": 6031,
      "书房与主卧共用一墙": 6032,
      "北连玄关": 6033,
      "厨房北侧设有餐厅": 6034,
      "**": 6035,
      "且覆盖": 6036,
      "其左侧是厨房": 6037,
      "北连餐厅": 6038,
      "及走廊相邻": 6039,
      "合理": 6040,
      "并占据": 6041,
      "并向下延伸": 6042,
      "或浴室": 6043,
      "或客厅相连": 6044,
      "经走廊": 6045,
      "客厅上方是另一个卧室": 6046,
      "厨房正上方": 6047,
      "浴室在走廊左下方": 6048,
      "卫生间北侧": 6049,
      "右侧上方是": 6050,
      "右侧还有一个卧室": 6051,
      "上方和右上方": 6052,
      "主卧后方": 6053,
      "客厅位于中下部": 6054,
      "客厅位于整套": 6055,
      "阳台北连玄关": 6056,
      "中央偏上位置": 6057,
      "书房北面": 6058,
      "另一间卧室和": 6059,
      "中间和下方": 6060,
      "厨房和两个卫生间": 6061,
      "卧室和客厅相邻": 6062,
      "并与下方卧室相邻": 6063,
      "连接客厅和厨房": 6064,
      "客厅在中间偏左": 6065,
      "左侧卧室与客厅": 6066,
      "与上方浴室": 6067,
      "与上方卧室相连": 6068,
      "两个浴室分别位于左侧中部": 6069,
      "位于走廊右上方": 6070,
      "走廊连接三个卧室": 6071,
      "另一个在走廊右侧": 6072,
      "其下方为浴室": 6073,
      "同时与客厅": 6074,
      "其左侧紧邻厨房": 6075,
      "以及下方": 6076,
      "通过走廊与三个卧室": 6077,
      "最右侧还有一个卧室": 6078,
      "入口位于": 6079,
      "向右连接客厅": 6080,
      "客厅在走廊右上方": 6081,
      "四间卧室分别分布于左上": 6082,
      "一个在左侧": 6083,
      "走廊东西": 6084,
      "夹在两个卧室之间": 6085,
      "卫生间东侧与客厅相邻": 6086,
      "右侧连接一间浴室和一间卧室": 6087,
      "两个浴室分别在": 6088,
      "两个卧室分别在": 6089,
      "走廊向北依次连接": 6090,
      "开门进入主卧": 6091,
      "厨房北侧通往储藏室": 6092,
      "同样连接着浴室": 6093,
      "与上方的卧室和右侧的浴室相邻": 6094,
      "中间是走廊连接": 6095,
      "与次卧室相邻": 6096,
      "客厅与厨房及阳台相连": 6097,
      "与该": 6098,
      "与左上": 6099,
      "均通过走廊与其他": 6100,
      "支通向": 6101,
      "朝南": 6102,
      "正南": 6103,
      "由推拉门": 6104,
      "纵向贯穿中部": 6105,
      "角落": 6106,
      "厨房右侧是卧室": 6107,
      "连接次卧": 6108,
      "走廊内": 6109,
      "下方还有": 6110,
      "下方通过走廊与厨房": 6111,
      "右侧一个卧室": 6112,
      "右侧连通": 6113,
      "右侧和上方": 6114,
      "主卧西墙开门": 6115,
      "中央走廊连接着": 6116,
      "西侧和": 6117,
      "东侧为卫生间": 6118,
      "北侧连接客厅": 6119,
      "在走廊正上方": 6120,
      "厨房和上方卧室": 6121,
      "左上角的浴室": 6122,
      "客厅位于中心区域": 6123,
      "浴室位于右侧卧室": 6124,
      "正下方且与": 6125,
      "左下方另有一间卧室": 6126,
      "客厅右侧依次是": 6127,
      "两个浴室分别位于上方": 6128,
      "客厅下方并列": 6129,
      "浴室在右下方": 6130,
      "卫生间位于厨房东侧": 6131,
      "两个浴室分别位于走廊下方左右两侧": 6132,
      "客厅占据下方": 6133,
      "下方的浴室和": 6134,
      "下方的客厅相邻": 6135,
      "走廊贯穿多个房间": 6136,
      "第三个卧室在右下角": 6137,
      "厨房左侧和右侧": 6138,
      "客厅东侧连餐厅": 6139,
      "客厅在走廊东侧": 6140,
      "三个浴室分别位于左上": 6141,
      "并排位于下方": 6142,
      "卧室位于走廊两侧": 6143,
      "走廊居中纵向贯穿": 6144,
      "其中一间浴室位于": 6145,
      "南墙再": 6146,
      "厨房的左右两侧": 6147,
      "与走廊和下方浴室相邻": 6148,
      "与走廊和下方卧室相连": 6149,
      "周围环绕着": 6150,
      "走廊向上延伸并分叉": 6151,
      "浴室则位于": 6152,
      "走廊尽头是客卫": 6153,
      "第五间卧室": 6154,
      "西侧通过走廊通往": 6155,
      "两间上下排列的卧室": 6156,
      "与玄关": 6157,
      "交界": 6158,
      "再下方是厨房": 6159,
      "分叉": 6160,
      "及右侧卧室": 6161,
      "同层": 6162,
      "在水平方向": 6163,
      "均与客厅相邻": 6164,
      "均与客厅相连": 6165,
      "是一间卧室": 6166,
      "最右侧的": 6167,
      "正前方": 6168,
      "浴缸": 6169,
      "第一间": 6170,
      "第一个卧室相邻": 6171,
      "通行": 6172,
      "卧室分别位于": 6173,
      "厨房仅": 6174,
      "下方卫生间相邻": 6175,
      "下方另有一间浴室": 6176,
      "相邻的浴室": 6177,
      "上方卧室位于走廊": 6178,
      "餐厅在": 6179,
      "左侧上下排列": 6180,
      "次卧门": 6181,
      "中央走廊连接厨房": 6182,
      "北侧通餐厅": 6183,
      "通过一条": 6184,
      "通过走廊间接连接": 6185,
      "其中上方的卧室": 6186,
      "主卧室和": 6187,
      "连接着一个浴室": 6188,
      "右上浴室相邻": 6189,
      "两间浴室和另一间卧室": 6190,
      "通过走廊连接三个卧室和两个浴室": 6191,
      "另一个浴室位于走廊下方": 6192,
      "该卧室上方为": 6193,
      "下方卧室与客厅": 6194,
      "走廊连接着所有房间": 6195,
      "绿色卧室在": 6196,
      "并排且均": 6197,
      "主卧内部": 6198,
      "儿童房与书房": 6199,
      "走廊左侧依次": 6200,
      "客厅占据底部": 6201,
      "通过走廊与主": 6202,
      "与走廊和一间卧室相连": 6203,
      "其上方从左至右": 6204,
      "右侧浴室下方": 6205,
      "紧邻走廊和": 6206,
      "紧邻走廊和客厅": 6207,
      "走廊连接客厅和卧室": 6208,
      "其中一间卧室在走廊上方": 6209,
      "右侧连接另一间卧室和厨房": 6210,
      "起居室位于右下方": 6211,
      "与厨房和客厅相连": 6212,
      "右中和左下": 6213,
      "走廊在卧室右侧": 6214,
      "北向走廊": 6215,
      "走廊西端连接入户门": 6216,
      "向南开门": 6217,
      "右邻客厅": 6218,
      "均与走廊或客厅": 6219,
      "厨房位于起居室的正上方": 6220,
      "下方连接一个浴室和一个卧室": 6221,
      "客厅占据右侧大部分空间": 6222,
      "以及下方的厨房": 6223,
      "两间卧室之间夹着": 6224,
      "与上方的浴室和右侧的卧室相邻": 6225,
      "客厅在厨房右上方": 6226,
      "各自与相邻的卧室": 6227,
      "次卧室位于主卧室西侧并与走廊相连": 6228,
      "每个卧室旁边都有浴室": 6229,
      "条状贯穿中部": 6230,
      "餐厅在厨房西侧": 6231,
      "西侧通过走廊通往卧室和卫生间": 6232,
      "且与右侧浴室相邻": 6233,
      "为餐厅": 6234,
      "为绿色卧室": 6235,
      "右边缘对齐": 6236,
      "左接走廊": 6237,
      "并共享边界": 6238,
      "每个浴室": 6239,
      "的床": 6240,
      "客厅以及": 6241,
      "客厅右侧是浴室": 6242,
      "客厅紧邻走廊右侧": 6243,
      "厨房的上方": 6244,
      "厨房下方连接一间卧室": 6245,
      "厨房右侧是另一间卧室": 6246,
      "厨房右侧为走廊": 6247,
      "厨房后门": 6248,
      "走廊顶部": 6249,
      "下方浴室和": 6250,
      "右侧连": 6251,
      "右侧边界": 6252,
      "上方客厅": 6253,
      "主卧南面": 6254,
      "主卧东面设有卫生间": 6255,
      "主卧独占": 6256,
      "左侧和右下方": 6257,
      "客厅位于右上": 6258,
      "西侧的": 6259,
      "其中厨房": 6260,
      "其中左上方": 6261,
      "一个浴室和另一个卧室": 6262,
      "通往次卧": 6263,
      "次卧室北侧": 6264,
      "左下角卧室右侧": 6265,
      "区域在": 6266,
      "连接着三个卧室和两个浴室": 6267,
      "厨房在客厅北侧": 6268,
      "并与其中一个浴室相邻": 6269,
      "左下方卧室与": 6270,
      "右上和右中位置": 6271,
      "底部卧室相邻": 6272,
      "其右侧与": 6273,
      "其右侧上方是厨房": 6274,
      "右下浴室相邻": 6275,
      "另一个浴室在": 6276,
      "两个浴室分别位于左下": 6277,
      "紧邻厨房左侧": 6278,
      "其中一个卧室旁边": 6279,
      "走廊连接三间卧室和两间浴室": 6280,
      "与右侧浴室": 6281,
      "走廊左侧依次排列": 6282,
      "三个卧室和另一个浴室": 6283,
      "客厅居中偏左": 6284,
      "另有一个卫生间": 6285,
      "与走廊和客厅": 6286,
      "两个卧室分别位于走廊的左右两侧": 6287,
      "向下通向": 6288,
      "依次是厨房和餐厅": 6289,
      "与右侧的客厅": 6290,
      "客厅位于走廊的右下方": 6291,
      "连接走廊和厨房": 6292,
      "一条纵向走廊": 6293,
      "两间浴室分别位于走廊右侧": 6294,
      "两间浴室分别位于走廊两侧": 6295,
      "三个卧室分别位于走廊的左上": 6296,
      "隔着餐厅": 6297,
      "走廊向上通向": 6298,
      "卧室位于走廊的上方": 6299,
      "向下连接另一间卧室": 6300,
      "分别连接两个卧室": 6301,
      "还连接第三间卧室": 6302,
      "边缘相邻": 6303,
      "右邻浴室": 6304,
      "厨房在走廊右侧下方": 6305,
      "门开在客厅": 6306,
      "与上方的起居室": 6307,
      "走廊向右延伸连接厨房": 6308,
      "厨房位于右侧中部": 6309,
      "两间浴室和两间卧室": 6310,
      "主要房间": 6311,
      "与左侧的厨房和": 6312,
      "建筑中部": 6313,
      "各邻接一间浴室": 6314,
      "带独立卫浴的主卧": 6315,
      "两间卧室和两个卫生间": 6316,
      "紧挨着": 6317,
      "; ": 6318,
      "下连厨房": 6319,
      "与右上卧室": 6320,
      "且与客厅相连": 6321,
      "也连接一个卧室": 6322,
      "仅与厨房相连": 6323,
      "分离": 6324,
      "及走廊相连": 6325,
      "和中间偏右": 6326,
      "和左侧的": 6327,
      "底端": 6328,
      "是过道": 6329,
      "有两个卧室和一个浴室": 6330,
      "此卧室右侧": 6331,
      "此卧室下方": 6332,
      "厨房与客厅和餐厅": 6333,
      "浴室右下方": 6334,
      "右侧和下方各连接一间卧室": 6335,
      "餐厅背后": 6336,
      "左侧接客厅": 6337,
      "书房与厨房之间": 6338,
      "与客厅和走廊相连": 6339,
      "紧邻客厅下方": 6340,
      "北侧连接公卫": 6341,
      "一个浴室和一个厨房": 6342,
      "一个位于": 6343,
      "一个房间": 6344,
      "在走廊右方": 6345,
      "次卧室在右侧": 6346,
      "中间卫生间": 6347,
      "左侧连接另一个浴室": 6348,
      "左上区域": 6349,
      "左下浴室和": 6350,
      "直接连接走廊": 6351,
      "和下方的浴室相连": 6352,
      "连接客厅和阳台": 6353,
      "与次卧相对": 6354,
      "客厅右侧为厨房": 6355,
      "两间浴室之间": 6356,
      "两个浴室分别位于中间偏右": 6357,
      "走廊连接厨房和浴室": 6358,
      "厨房与餐厅并排": 6359,
      "位于客厅右上方": 6360,
      "卧室在右上方": 6361,
      "同时位于": 6362,
      "其左侧与走廊相连": 6363,
      "厨房与一间卧室和一间浴室相邻": 6364,
      "厨房位于中央偏上位置": 6365,
      "主卧南侧相邻次卧": 6366,
      "走廊位于中央偏右": 6367,
      "上方的卧室相连": 6368,
      "共用走廊": 6369,
      "蓝色浴室右侧": 6370,
      "的下方和右侧": 6371,
      "上方的床": 6372,
      "依次是浴室和卧室": 6373,
      "其中一间卧室和一间浴室": 6374,
      "上方浴室右侧": 6375,
      "厨房和客厅之间": 6376,
      "南向连接阳台": 6377,
      "向北直走": 6378,
      "走廊居中偏右": 6379,
      "厨房与卫生间相对": 6380,
      "整体空间": 6381,
      "厨房再向北": 6382,
      "厨房位于起居室的上方": 6383,
      "厨房在客厅正下方并与之相连": 6384,
      "客厅左连阳台": 6385,
      "走廊北端连接客厅": 6386,
      "右侧上下两端": 6387,
      "右侧有三个卧室": 6388,
      "另一个卧室位于走廊的下方": 6389,
      "起居室位于中央偏左": 6390,
      "浴室在厨房右侧并与之相邻": 6391,
      "两间浴室和三间卧室": 6392,
      "东西相邻": 6393,
      "左侧从上到下依次为卧室": 6394,
      "最后一间卧室": 6395,
      "厨房西侧连接生活阳台": 6396,
      "一个床位于另一个床": 6397,
      "与阳台": 6398,
      "且下方": 6399,
      "且该卧室": 6400,
      "也连接": 6401,
      "共有": 6402,
      "和西侧": 6403,
      "四侧": 6404,
      "均为": 6405,
      "均通过走廊与其他区域连通": 6406,
      "或客厅相邻": 6407,
      "更大": 6408,
      "最左下角": 6409,
      "有另一间浴室": 6410,
      "的上下左右": 6411,
      "该 ": 6412,
      "轮廓": 6413,
      "还连接一间卧室": 6414,
      "附带": 6415,
      "卧室东墙": 6416,
      "卧室在走廊右上方": 6417,
      "厨房右侧连接客厅": 6418,
      "走廊右侧是浴室": 6419,
      "浴室与客厅相邻": 6420,
      "浴室下方是厨房": 6421,
      "下方通过走廊": 6422,
      "右侧卧室和下方": 6423,
      "右侧上方是厨房": 6424,
      "右侧上方为卧室": 6425,
      "上方则": 6426,
      "上方还有一个卧室": 6427,
      "上方有两个卧室": 6428,
      "左侧有一个浴室": 6429,
      "左侧的浴室相邻": 6430,
      "左侧接走廊": 6431,
      "书房后方": 6432,
      "书房和主卧": 6433,
      "与客厅共享": 6434,
      "一个卧室在走廊上方": 6435,
      "通过走廊与卧室": 6436,
      "右侧连接右侧卧室": 6437,
      "右侧连接卧室和浴室": 6438,
      "其中右上角的卧室": 6439,
      "两个浴室均": 6440,
      "一个客厅位于中央": 6441,
      "一个走廊连接着多个房间": 6442,
      "厨房和三间卧室": 6443,
      "右侧是书房": 6444,
      "左上角相邻": 6445,
      "起居室右侧连接厨房": 6446,
      "起居室右侧连接走廊": 6447,
      "卧室位于客厅的上方": 6448,
      "客厅位于中心偏右": 6449,
      "上方连接另一个浴室": 6450,
      "左上卧室下方": 6451,
      "左下浴室相邻": 6452,
      "浴室位于左侧卧室下方": 6453,
      "和下方的卧室相连": 6454,
      "右上和下方": 6455,
      "客厅在右下": 6456,
      "客厅在右中部": 6457,
      "客厅右侧紧邻": 6458,
      "左侧卧室正下方": 6459,
      "右侧的两个卧室": 6460,
      "左右两端": 6461,
      "上方卧室的": 6462,
      "上方卧室右侧连接浴室": 6463,
      "一个卫生间和一个卧室": 6464,
      "浴室在右下": 6465,
      "客厅上方和右侧": 6466,
      "走廊下方还连接着": 6467,
      "卧室在下方": 6468,
      "其左侧紧邻走廊": 6469,
      "南接主卧": 6470,
      "主卧连接阳台": 6471,
      "主卧连接次卧和卫生间": 6472,
      "其上方和右侧": 6473,
      "共用一条": 6474,
      "并连接至": 6475,
      "客厅正南侧连接": 6476,
      "另一个卫生间相邻": 6477,
      "衣帽间再": 6478,
      "三个浴室分别位于走廊": 6479,
      "和客厅相连": 6480,
      "右侧紧邻一个卧室": 6481,
      "整体形成": 6482,
      "客厅正南方向是阳台": 6483,
      "餐厅与客厅南北贯通": 6484,
      "两间卧室分别位于走廊两侧": 6485,
      "二者相邻": 6486,
      "客厅右侧走廊依次连接书房": 6487,
      "该浴室又与": 6488,
      "与中间的走廊相连": 6489,
      "客厅北侧是阳台": 6490,
      "无直接通道": 6491,
      "厨房西接客厅": 6492,
      "客厅正北方向是书房": 6493,
      "连接着东侧的厨房": 6494,
      "上边界": 6495,
      "与多个房间": 6496,
      "东北侧": 6497,
      "为床": 6498,
      "其正下方是": 6499,
      "分出": 6500,
      "右墙": 6501,
      "右接走廊": 6502,
      "和一间卫生间": 6503,
      "四面": 6504,
      "均邻近": 6505,
      "并共享": 6506,
      "床的上方": 6507,
      "相同": 6508,
      "突出": 6509,
      "边相邻": 6510,
      "适合": 6511,
      "卧室与走廊": 6512,
      "厨房右侧连接另一间卧室": 6513,
      "厨房下方连接另一间卧室": 6514,
      "厨房左侧连接一个卧室": 6515,
      "连接上方的卧室": 6516,
      "连接所有卧室": 6517,
      "走廊区域": 6518,
      "走廊上方是另一间卧室": 6519,
      "卫生间与卧室": 6520,
      "右侧接厨房": 6521,
      "上方浴室和": 6522,
      "主卧与书房之间": 6523,
      "左侧浴室和": 6524,
      "左侧的客厅": 6525,
      "客厅位于右下": 6526,
      "书房门": 6527,
      "其中右下方": 6528,
      "两个浴室则": 6529,
      "下方是一间卧室": 6530,
      "一个走廊连接着厨房": 6531,
      "左下角卧室在": 6532,
      "中心区域": 6533,
      "连接着一间卧室": 6534,
      "另一个卧室在走廊右下方": 6535,
      "卧室和两个浴室": 6536,
      "并与一个卧室相邻": 6537,
      "右下角及": 6538,
      "右上角卧室下方": 6539,
      "浴室位于两个卧室": 6540,
      "浴室位于客厅右下方": 6541,
      "三间卧室呈": 6542,
      "两侧及": 6543,
      "进入次卧": 6544,
      "客厅在卧室下方": 6545,
      "两间浴室均": 6546,
      "右侧的厨房和": 6547,
      "该卧室上方是另一个卧室": 6548,
      "该卧室右侧为浴室": 6549,
      "下方卧室与厨房": 6550,
      "下方卧室正上方": 6551,
      "位于走廊的左侧": 6552,
      "位于走廊右端": 6553,
      "客厅左侧连通厨房": 6554,
      "浴室在下方": 6555,
      "浴室在左下": 6556,
      "和右侧中部": 6557,
      "其右侧是另一个卧室": 6558,
      "部分区域": 6559,
      "该浴室右侧为": 6560,
      "其左侧和上方": 6561,
      "南接卫生间": 6562,
      "和卫生间相连": 6563,
      "厨房与另一间卧室": 6564,
      "厨房与起居室": 6565,
      "三个卧室分别位于客厅左侧": 6566,
      "走廊贯穿房屋中部": 6567,
      "蓝色浴室与": 6568,
      "两个浴室和四个卧室": 6569,
      "红色区域": 6570,
      "各自连接": 6571,
      "向右连接厨房": 6572,
      "客厅东侧是主卧": 6573,
      "卧室和厨房相连": 6574,
      "整体布局": 6575,
      "在客厅两侧": 6576,
      "走廊从厨房下方": 6577,
      "下方为一间卧室": 6578,
      "及厨房相连": 6579,
      "另外两个卧室分别位于": 6580,
      "厨房再北": 6581,
      "厨房再北通阳台": 6582,
      "其上方为卧室": 6583,
      "中左部": 6584,
      "另一个卧室位于走廊的左侧": 6585,
      "客厅则处于": 6586,
      "主卧自带独立卫浴": 6587,
      "次卧与主卧相邻": 6588,
      "与中间的客厅相邻": 6589,
      "中央的走廊连接着": 6590,
      "厨房位于起居室上方并与之相邻": 6591,
      "和中上位置": 6592,
      "走廊从客厅右侧延伸": 6593,
      "客厅正南侧连接开放式厨房": 6594,
      "上端连接": 6595,
      "与一个卧室和一个浴室相邻": 6596,
      "且与厨房相连": 6597,
      "便于": 6598,
      "其右上角": 6599,
      "其下方连接浴室": 6600,
      "后连餐厅": 6601,
      "和客厅相邻": 6602,
      "均通过走廊与其他房间连通": 6603,
      "是另一间浴室": 6604,
      "卧室右上方": 6605,
      "客厅分布": 6606,
      "连接另一个卧室": 6607,
      "位于最下方": 6608,
      "走廊上部": 6609,
      "浴室右侧是走廊": 6610,
      "左侧边界": 6611,
      "阳台连接主卧": 6612,
      "中央是走廊": 6613,
      "通向儿童房": 6614,
      "北侧与餐厅相连": 6615,
      "书房北侧为厨房": 6616,
      "与客厅直接连通": 6617,
      "与客厅直接相邻": 6618,
      "紧邻右侧卧室": 6619,
      "紧邻下方卧室": 6620,
      "右侧连接厨房和另一间卧室": 6621,
      "三个卧室分布于": 6622,
      "起居室在走廊下方": 6623,
      "起居室右侧连接一间卧室": 6624,
      "卧室位于浴室左侧": 6625,
      "浴室位于两间卧室之间": 6626,
      "和厨房上方": 6627,
      "其右侧上方是": 6628,
      "该卧室右侧为厨房": 6629,
      "两个浴室分别位于左中部": 6630,
      "其下方是卧室和厨房": 6631,
      "浴室在客厅上方": 6632,
      "浴室在卧室左侧": 6633,
      "该浴室上方是另一间卧室": 6634,
      "该浴室右侧为走廊": 6635,
      "在走廊右侧下方": 6636,
      "其右侧紧邻上方卧室": 6637,
      "卫生间位于卧室": 6638,
      "卫生间位于餐厅西北方向": 6639,
      "顶部对齐": 6640,
      "走廊尽头设": 6641,
      "下方的两个卧室": 6642,
      "下方连接着走廊": 6643,
      "依次是卧室和浴室": 6644,
      "左侧浴室上方": 6645,
      "走廊左侧连接一个浴室": 6646,
      "其上方连接厨房": 6647,
      "向右延伸至": 6648,
      "厨房左侧为": 6649,
      "右侧紧邻一间卧室": 6650,
      "右侧紧邻另一间卧室": 6651,
      "两者均相邻": 6652,
      "并延伸至右侧": 6653,
      "厨房紧邻玄关": 6654,
      "右邻走廊": 6655,
      "左侧上下两端": 6656,
      "厨房在走廊右侧上方": 6657,
      "左侧和右侧各连接一间卧室": 6658,
      "延伸出来": 6659,
      "客厅北侧连餐厅": 6660,
      "通过走廊与其他房间相通": 6661,
      "的左下方和右下方": 6662,
      "下方依次连接浴室": 6663,
      "南邻客厅": 6664,
      "右侧自上而下依次连接卧室": 6665,
      "与左侧的卧室和下方的": 6666,
      "围绕走廊分布": 6667,
      "东墙再开一门": 6668,
      "中下和右下区域": 6669,
      "上方卧室和下方卧室": 6670,
      "四个方向": 6671,
      "其正下方是客厅": 6672,
      "居住空间": 6673,
      "中间有走廊连接": 6674,
      "卫生间独立不与其他房间": 6675,
      "——": 6676,
      "与左下方": 6677,
      "与右侧卧室相连": 6678,
      "与中央的": 6679,
      "且与右侧卧室相邻": 6680,
      "且与下方卧室相邻": 6681,
      "也连接一个浴室": 6682,
      "各与一个卧室相邻": 6683,
      "和起居室": 6684,
      "均与客厅直接相连": 6685,
      "均通过走廊与其他房间相连": 6686,
      "最南端": 6687,
      "的左": 6688,
      "连一间卧室": 6689,
      "都相邻": 6690,
      "卧室在走廊正下方": 6691,
      "厨房东向": 6692,
      "位于左上方": 6693,
      "位于厨房下方": 6694,
      "走廊右侧是卧室": 6695,
      "走廊下方连接另一间卧室": 6696,
      "浴室下方是": 6697,
      "下方左侧的卧室": 6698,
      "下方依次排列": 6699,
      "下方依次连接厨房": 6700,
      "卫生间西侧": 6701,
      "卫生间东邻卧室": 6702,
      "右侧另有一间卧室": 6703,
      "右侧上方是卧室": 6704,
      "右侧接浴室": 6705,
      "主卧北墙开门通向": 6706,
      "左侧下方的卧室": 6707,
      "次卧西墙开门": 6708,
      "次卧通过走廊连接卫生间": 6709,
      "厨房位于左下": 6710,
      "厨房位于右上": 6711,
      "厨房位于起居空间": 6712,
      "书房与厨房": 6713,
      "书房西墙开门": 6714,
      "紧邻右侧浴室": 6715,
      "右侧连接浴室和卧室": 6716,
      "之间隔着走廊": 6717,
      "与餐厅连通": 6718,
      "中部浴室": 6719,
      "与客厅相邻且": 6720,
      "浴室和另一卧室": 6721,
      "卧室和另一个卧室": 6722,
      "左下的卧室": 6723,
      "上下各": 6724,
      "和下方的客厅": 6725,
      "客厅在浴室下方": 6726,
      "右侧卧室与厨房相邻": 6727,
      "右侧卧室在走廊右上方": 6728,
      "左侧卧室右侧": 6729,
      "右侧的另一个卧室": 6730,
      "客厅下方另有一间卧室": 6731,
      "走廊连接着上方的卧室": 6732,
      "另一浴室相邻": 6733,
      "其中一个卧室与一个浴室相邻": 6734,
      "部分相连": 6735,
      "其左侧与厨房相邻": 6736,
      "浴室和卧室相连": 6737,
      "以及右侧的卧室": 6738,
      "在走廊下方偏左": 6739,
      "厨房与一间卧室": 6740,
      "走廊贯穿建筑中部": 6741,
      "延伸至右侧": 6742,
      "客厅西侧通往主卧室": 6743,
      "两间浴室分别位于左下": 6744,
      "客厅与卧室相邻": 6745,
      "右侧与另一间浴室相邻": 6746,
      "中上和右上": 6747,
      "左侧卧室与中间浴室相邻": 6748,
      "另一个卧室在客厅右侧": 6749,
      "走廊东端连接": 6750,
      "夹在两间卧室之间": 6751,
      "上方卧室与上方浴室相邻": 6752,
      "卧室与浴室并排": 6753,
      "另一个卧室位于左下角": 6754,
      "其中一个卧室在客厅右侧": 6755,
      "两个浴室分别位于走廊的左上方和左下方": 6756,
      "下方连接另一间浴室和一间卧室": 6757,
      "右侧卧室与浴室相邻": 6758,
      "左上角卧室下方是浴室": 6759,
      "左侧自上而下依次连接浴室": 6760,
      "开向客厅": 6761,
      "一个卧室位于另一个卧室的上方": 6762,
      "另有一卧室": 6763,
      "阳台仅与客厅连通": 6764,
      "分列走廊两侧": 6765,
      "右侧从上至下依次为卧室": 6766,
      "其左侧为卧室和浴室": 6767,
      "儿童房与客卫": 6768,
      "与两个浴室和一个卧室相邻": 6769,
      "上卧室": 6770,
      "上浴室": 6771,
      "上边缘对齐": 6772,
      "与右上": 6773,
      "与另一间浴室": 6774,
      "及左下方": 6775,
      "右下方是": 6776,
      "无走廊或": 6777,
      "正下方是客厅": 6778,
      "玻璃": 6779,
      "的结构": 6780,
      "的四周": 6781,
      "门相对": 6782,
      "卧室分布": 6783,
      "卧室南连客厅": 6784,
      "客厅旁边": 6785,
      "客厅右侧连接另一个卧室": 6786,
      "客厅周围": 6787,
      "下方有一个卧室": 6788,
      "下方厨房及": 6789,
      "右侧两个卧室": 6790,
      "右侧延伸出": 6791,
      "上方和左下方": 6792,
      "左侧无房间": 6793,
      "次卧北邻": 6794,
      "西侧与次卧室相邻": 6795,
      "书房北侧连接客厅": 6796,
      "北侧连接玄关": 6797,
      "通过走廊与右侧的卧室": 6798,
      "其中中间浴室": 6799,
      "南侧连接一间卧室": 6800,
      "左侧连接一个卧室和一个浴室": 6801,
      "左侧连接两间卧室和一间浴室": 6802,
      "连接着下方的卧室": 6803,
      "起居室与厨房": 6804,
      "卧室位于浴室下方": 6805,
      "并与卧室相连": 6806,
      "上方连接两间卧室和一间浴室": 6807,
      "左上卧室右侧": 6808,
      "右上角的": 6809,
      "右上和正下方": 6810,
      "卧室邻接客厅": 6811,
      "客厅右侧和下方": 6812,
      "与上方的浴室相连": 6813,
      "该卧室下方是客厅": 6814,
      "该卧室下方为": 6815,
      "其上方是卫生间": 6816,
      "两个浴室分别位于顶部": 6817,
      "客厅下方有": 6818,
      "客厅左侧通餐厅": 6819,
      "走廊位于房屋中部": 6820,
      "和右下侧": 6821,
      "其中一个卧室位于走廊上方": 6822,
      "中间卧室相连": 6823,
      "同时与厨房": 6824,
      "两个卧室分别位于左下角": 6825,
      "两个卧室分别位于左下和右下": 6826,
      "儿童房对面": 6827,
      "走廊左侧为客厅": 6828,
      "和卧室二": 6829,
      "中下和右上": 6830,
      "客厅占据右中部": 6831,
      "另有一门通向": 6832,
      "三个卧室分别位于左上角": 6833,
      "三个卧室分别位于客厅的上方": 6834,
      "与走廊和客厅相连": 6835,
      "生活区右侧": 6836,
      "并列两间浴室": 6837,
      "下方连接着浴室": 6838,
      "下方连接着一个卧室": 6839,
      "两个卧室分别位于走廊下方左右两侧": 6840,
      "西接餐厅": 6841,
      "其中一间卧室与一间浴室相邻": 6842,
      "并连接左侧卧室": 6843,
      "左侧浴室正下方": 6844,
      "过道北端": 6845,
      "两间浴室分别位于厨房": 6846,
      "两间浴室分别位于左中": 6847,
      "浴室右侧相邻": 6848,
      "客厅在走廊的右侧": 6849,
      "客厅的右下方": 6850,
      "走廊上方连接一间卧室和一间浴室": 6851,
      "还连接另一间浴室": 6852,
      "横向相邻": 6853,
      "客厅左侧连接厨房": 6854,
      "实现连接": 6855,
      "左侧和右侧各有一个浴室": 6856,
      "客厅及多个卧室和浴室": 6857,
      "的右上方和右下方": 6858,
      "客厅右侧是另一个卧室": 6859,
      "客厅北侧为书房": 6860,
      "相邻房间连通": 6861,
      "紫色区域为走廊": 6862,
      "向东开门": 6863,
      "客厅右侧走廊依次连接儿童房": 6864,
      "开向走廊": 6865,
      "开门通向次卧": 6866,
      "两个卧室上下排列于": 6867,
      "左手边是客厅": 6868,
      "客厅西墙设走廊": 6869,
      "餐厅连接厨房和次卧": 6870,
      "两间浴室及三间卧室": 6871,
      "玄关位于南侧中央": 6872,
      "客厅左侧与开放式厨房相连": 6873,
      "再往下是": 6874,
      "每间卧室旁": 6875,
      "大面积区域": 6876,
      "主卧北邻卫生间": 6877,
      ",“": 6878,
      "且面积最大": 6879,
      "再下方是客厅": 6880,
      "右半部分": 6881,
      "吧台": 6882,
      "和第三个卧室": 6883,
      "和中上部": 6884,
      "在卧室": 6885,
      "客卧": 6886,
      "并部分重叠": 6887,
      "或厨房相连": 6888,
      "有另一间卧室": 6889,
      "衔接厨房": 6890,
      "客厅右侧连接另一间卧室": 6891,
      "厨房左": 6892,
      "厨房右侧连接浴室": 6893,
      "厨房右侧连接另一间浴室": 6894,
      "走廊左侧是客厅": 6895,
      "走廊隔开": 6896,
      "浴室右侧是另一个卧室": 6897,
      "下方两个卧室": 6898,
      "相邻卧室相连": 6899,
      "卫生间东墙": 6900,
      "卫生间与主卧": 6901,
      "右侧卫生间相邻": 6902,
      "右侧两间卧室及": 6903,
      "上方两个卧室": 6904,
      "上方左侧的卧室": 6905,
      "主卧东南角": 6906,
      "客厅位于右上区域": 6907,
      "厨房位于卧室旁边": 6908,
      "厨房位于卧室左侧": 6909,
      "西侧是卫生间": 6910,
      "与厨房直接相连": 6911,
      "其中下方卧室": 6912,
      "两个浴室以及": 6913,
      "下方是两个卧室": 6914,
      "通往厨房": 6915,
      "客厅西侧连次卧": 6916,
      "西侧连接一间卧室": 6917,
      "右侧是主卧": 6918,
      "与餐厅相通": 6919,
      "起居室相连": 6920,
      "卧室位于起居室": 6921,
      "并与浴室": 6922,
      "左下卧室和": 6923,
      "上下区域": 6924,
      "开放式餐厨区": 6925,
      "客厅在最右侧": 6926,
      "左侧卧室下方是浴室": 6927,
      "该卧室右侧连接": 6928,
      "该卧室下方是厨房": 6929,
      "两个浴室分别位于右上角": 6930,
      "客厅左侧依次连接": 6931,
      "浴室在左下方": 6932,
      "客厅上方和下方各有一个卧室": 6933,
      "和浴室均相邻": 6934,
      "其下方的浴室": 6935,
      "两个卧室分别位于厨房下方": 6936,
      "儿童房北墙": 6937,
      "卫生间位于客厅西侧": 6938,
      "顶部相接": 6939,
      "中下及": 6940,
      "中下浴室": 6941,
      "厨房与其中一间卧室": 6942,
      "下方的卫生间": 6943,
      "东墙共用": 6944,
      "垂直区域": 6945,
      "最右侧还有一间卧室": 6946,
      "走廊左侧连接两个卧室和一个浴室": 6947,
      "主卧内含独立主卫": 6948,
      "客厅在走廊右侧下方": 6949,
      "公共卫浴": 6950,
      "另一个卧室在右侧": 6951,
      "厨房位于客厅右上方": 6952,
      "主卧与次卧南北相对": 6953,
      "浴室位于走廊的下方": 6954,
      "走廊贯穿中央连接所有房间": 6955,
      "和右侧的浴室相邻": 6956,
      "餐厅与客厅直接连通": 6957,
      "并与走廊相通": 6958,
      "客厅右侧是次卧": 6959,
      "一个卧室和另一个浴室": 6960,
      "客厅左连餐厅": 6961,
      "两个浴室和厨房相连": 6962,
      "其左侧连接着一间卧室和一间浴室": 6963,
      "与卧室和走廊相连": 6964,
      "厨房后方是": 6965,
      "厨房后方是卫生间": 6966,
      "一个房间位于另一个房间的左侧": 6967,
      "卧室一和卫生间": 6968,
      "厨房位于下方中央": 6969,
      "隔走廊相对": 6970,
      "门开向客厅": 6971,
      "与右侧卧室之间": 6972,
      "且部分重叠于": 6973,
      "左侧从上至下依次为卧室": 6974,
      "其中左上和右上的卧室": 6975,
      "南侧的阳台": 6976,
      "与书房相邻": 6977,
      "也与": 6978,
      "其北侧连接": 6979,
      "及走廊": 6980,
      "和客厅左侧": 6981,
      "均不直接相连": 6982,
      "左接浴室": 6983,
      "方位": 6984,
      "最小": 6985,
      "最右侧的浴室": 6986,
      "走向": 6987,
      "边直接相连": 6988,
      "连衣帽间": 6989,
      "客厅底部": 6990,
      "厨房则位于": 6991,
      "连接上方的浴室": 6992,
      "走廊下方是卧室": 6993,
      "走廊右侧是厨房": 6994,
      "浴室右上方": 6995,
      "下方与浴室相邻": 6996,
      "相邻关系": 6997,
      "相邻墙体": 6998,
      "右侧上方卧室": 6999,
      "右侧通过走廊与": 7000,
      "上方还有一间卧室": 7001,
      "左侧卫生间相邻": 7002,
      "左侧黄色客厅": 7003,
      "一间床": 7004,
      "与客厅右侧相邻": 7005,
      "紧邻主卧": 7006,
      "与走廊和一间浴室相邻": 7007,
      "其中左下角卧室与": 7008,
      "下方连接另一": 7009,
      "之间设": 7010,
      "连通卫生间": 7011,
      "依次为客厅": 7012,
      "另一个卧室则": 7013,
      "卧室通过走廊与客厅相连": 7014,
      "右下角相接": 7015,
      "左上卧室相邻": 7016,
      "浴室位于下方卧室": 7017,
      "和下方卧室相连": 7018,
      "两侧各有一个浴室": 7019,
      "右下方卧室相邻": 7020,
      "客厅在最下方": 7021,
      "客厅在中间偏上位置": 7022,
      "其右侧上方是浴室": 7023,
      "右侧卧室的": 7024,
      "右侧卧室正下方": 7025,
      "该卧室再": 7026,
      "该卧室右侧为": 7027,
      "下方卧室在走廊": 7028,
      "上方卧室与厨房相邻": 7029,
      "走廊连接着浴室和卧室": 7030,
      "其下方是浴室和卧室": 7031,
      "客厅上方和下方": 7032,
      "与下方的客厅": 7033,
      "该浴室上方是": 7034,
      "走廊向西": 7035,
      "卧室在左下方": 7036,
      "四个卧室分布于": 7037,
      "最下方的浴室": 7038,
      "厨房与一个卧室相邻": 7039,
      "三个卧室分别位于客厅上方": 7040,
      "与走廊和右侧卧室相连": 7041,
      "与走廊和上方卧室相邻": 7042,
      "走廊贯穿整个": 7043,
      "右方是": 7044,
      "蓝色浴室上方": 7045,
      "两个浴室和一个客厅": 7046,
      "和左下部": 7047,
      "其中一间卧室位于走廊上方": 7048,
      "其上方连接卧室和浴室": 7049,
      "和右上卧室相邻": 7050,
      "下方连接另一间卧室和另一间浴室": 7051,
      "四间卧室分布于": 7052,
      "走廊上方连接卧室": 7053,
      "走廊上方连接一个卧室": 7054,
      "多个卧室与浴室": 7055,
      "其中两个卧室相邻": 7056,
      "分布在走廊两侧": 7057,
      "走廊依次连接书房": 7058,
      "另一个卧室位于右上角": 7059,
      "右侧依次连接卧室": 7060,
      "入口门厅正对客厅": 7061,
      "不同的卧室": 7062,
      "南端通向": 7063,
      "下方通过走廊连接另一间卧室": 7064,
      "彼此相邻且均": 7065,
      "最上方的卧室位于": 7066,
      "下方也是卧室": 7067,
      "其中左上卧室与上方浴室相邻": 7068,
      "一个独立浴室": 7069,
      "厨房下方是另一个浴室": 7070,
      "两个浴室分别位于左上角和左下角": 7071,
      "与卧室和客厅相邻": 7072,
      "两个浴室分别位于左上卧室下方": 7073,
      "主要区域": 7074,
      "主卧内含衣帽间和主卫": 7075,
      "各邻接一个浴室": 7076,
      "两个卧室分别位于左上角和右下角": 7077,
      "均与走廊或卧室直接相连": 7078,
      "西墙再开门": 7079,
      "与右侧的浴室和下方的卧室相邻": 7080,
      "与走廊右端相连": 7081,
      "公卫位于次卧": 7082,
      "落地窗": 7083,
      "与一个卧室和浴室相邻": 7084,
      "、 ": 7085,
      "下端连接": 7086,
      "与主卧相连": 7087,
      "与其他": 7088,
      "与对应": 7089,
      "与一个卫生间相邻": 7090,
      "且占据": 7091,
      "中层": 7092,
      "其左右两侧各有一间卧室": 7093,
      "再连接一间浴室": 7094,
      "各与一个浴室相邻": 7095,
      "在左下": 7096,
      "在客厅左侧": 7097,
      "在客厅正下方": 7098,
      "左边界": 7099,
      "带独立阳台": 7100,
      "清晰": 7101,
      "用卫生间": 7102,
      "通风": 7103,
      "厨房左下方": 7104,
      "厨房下方连接一个卧室": 7105,
      "厨房右侧为浴室": 7106,
      "连接三间卧室": 7107,
      "连接另一间浴室": 7108,
      "浴室在走廊正下方": 7109,
      "浴室在厨房正上方": 7110,
      "右侧走廊": 7111,
      "上方右侧": 7112,
      "上方左侧": 7113,
      "上方浴室位于": 7114,
      "上方接厨房": 7115,
      "上方从左至右": 7116,
      "左侧且与": 7117,
      "左侧依次连接厨房": 7118,
      "与客厅和走廊": 7119,
      "与客厅和上方": 7120,
      "紧邻上方": 7121,
      "与厨房并排": 7122,
      "与走廊下部": 7123,
      "与走廊左端": 7124,
      "右侧连接第三个卧室": 7125,
      "其中客厅与厨房相邻": 7126,
      "其中左中卧室": 7127,
      "厨房和两间浴室": 7128,
      "右侧是次卧": 7129,
      "左上角卧室右侧": 7130,
      "连接着卧室": 7131,
      "依次分布": 7132,
      "依次经过": 7133,
      "起居室右上方": 7134,
      "起居室下方是走廊": 7135,
      "起居室位于走廊下方": 7136,
      "并与下方": 7137,
      "浴室位于卧室正下方": 7138,
      "两间卧室和另一间浴室": 7139,
      "进入走廊": 7140,
      "客厅在中间偏下位置": 7141,
      "另一个浴室位于走廊右侧": 7142,
      "该卧室上方是": 7143,
      "下方卧室则": 7144,
      "下方卧室在走廊右下方": 7145,
      "两个浴室分别位于上方卧室": 7146,
      "走廊连接着两个卧室和两个浴室": 7147,
      "两个卧室和一个客厅": 7148,
      "浴室在客厅正下方": 7149,
      "走廊位于客厅下方": 7150,
      "其右侧是卫生间": 7151,
      "其右侧是浴室和卧室": 7152,
      "所有其他房间": 7153,
      "走廊连接卧室和浴室": 7154,
      "同时走廊": 7155,
      "走廊左侧依次连接卧室": 7156,
      "走廊左侧依次排布": 7157,
      "南接走廊": 7158,
      "卫生间位于厨房西侧": 7159,
      "左中卧室相邻": 7160,
      "厨房与阳台": 7161,
      "主卧和客厅": 7162,
      "其左侧连接一个卫生间": 7163,
      "与走廊和起居室相邻": 7164,
      "生活区位于": 7165,
      "共用走廊尽头": 7166,
      "两个浴室和三间卧室": 7167,
      "厨房下方为": 7168,
      "下方浴室及": 7169,
      "第三个卧室在走廊": 7170,
      "两个卧室和一个浴室相连": 7171,
      "其中一间卧室与厨房相邻": 7172,
      "左侧浴室下方": 7173,
      "其上方连接两个卧室和一个浴室": 7174,
      "其中左上卧室下方": 7175,
      "右侧连接着另一个浴室": 7176,
      "各自独立": 7177,
      "右侧与一间卧室相邻": 7178,
      "连接走廊和": 7179,
      "两个卧室和两个浴室相连": 7180,
      "另一个在右下方": 7181,
      "另一个卧室在客厅下方": 7182,
      "客厅在中央偏下位置": 7183,
      "浴室位于走廊右上方": 7184,
      "浴室位于走廊的上方": 7185,
      "和右侧的厨房": 7186,
      "还有一个": 7187,
      "厨房紧邻客厅右侧": 7188,
      "和中间位置": 7189,
      "左邻厨房": 7190,
      "与下方的起居室相邻": 7191,
      "中间夹着浴室": 7192,
      "右接餐厅": 7193,
      "客厅则占据": 7194,
      "左侧依次连接浴室": 7195,
      "厨房西侧是卫生间": 7196,
      "左侧有三个卧室": 7197,
      "其左侧是浴室和卧室": 7198,
      "两个卧室分别位于左上和右下": 7199,
      "走廊从客厅延伸出来": 7200,
      "两个卧室分别位于左上角和右上角": 7201,
      "其中右上的卧室": 7202,
      "并向上延伸": 7203,
      "餐厅北通玄关": 7204,
      "右下和左下区域": 7205,
      "和中右位置": 7206,
      "再向右连接厨房": 7207,
      "下通": 7208,
      "之下": 7209,
      "分居": 7210,
      "前述": 7211,
      "各带": 7212,
      "客用卫生间": 7213,
      "开入户门": 7214,
      "正下": 7215,
      "正下方是另一间卧室": 7216,
      "的空间": 7217,
      "被紫色走廊": 7218,
      "西连卧室": 7219,
      "卧室右下方": 7220,
      "厨房下方连接浴室": 7221,
      "厨房下方连接一间浴室": 7222,
      "走廊下方是厨房": 7223,
      "下方并列两个卧室": 7224,
      "右侧厨房相邻": 7225,
      "右侧上方为厨房": 7226,
      "上方中央": 7227,
      "上方绿色房间": 7228,
      "餐厅西墙": 7229,
      "主卧与主卫": 7230,
      "厨房位于左中部": 7231,
      "厨房位于底层": 7232,
      "通向浴室": 7233,
      "与客厅重叠": 7234,
      "与客厅底部相邻": 7235,
      "通过走廊相互连通": 7236,
      "两个卧室上下相邻": 7237,
      "其中右侧": 7238,
      "两个浴室和厨房相邻": 7239,
      "下方是第三个卧室": 7240,
      "玄关右侧": 7241,
      "左侧连接两个卧室和一个浴室": 7242,
      "连接着右侧的卧室": 7243,
      "另一个卧室在厨房下方": 7244,
      "起居室右下方": 7245,
      "厨房在中间偏右": 7246,
      "卧室位于左下方": 7247,
      "卧室位于浴室正上方": 7248,
      "并与起居室相邻": 7249,
      "左下位置": 7250,
      "直接接触": 7251,
      "卫生间西接书房": 7252,
      "客厅在中间偏右位置": 7253,
      "右侧卧室之间": 7254,
      "右侧卧室的下方": 7255,
      "左侧是卫生间": 7256,
      "客厅右侧的卧室": 7257,
      "右下和右上区域": 7258,
      "右侧的客厅相邻": 7259,
      "两个浴室分别位于中间偏左": 7260,
      "位于走廊的右侧": 7261,
      "走廊连接着两个卧室和浴室": 7262,
      "卫生间在厨房西侧": 7263,
      "客厅左侧与厨房相连": 7264,
      "绿色卧室和": 7265,
      "中间卧室之间": 7266,
      "该浴室同时": 7267,
      "位于客厅左下方": 7268,
      "客厅位于厨房的上方": 7269,
      "走廊尽头折": 7270,
      "中下位置": 7271,
      "厨房与另一间浴室": 7272,
      "上部和中部": 7273,
      "紧邻走廊末端": 7274,
      "西接主卧": 7275,
      "客厅正下方是厨房": 7276,
      "均与走廊相接": 7277,
      "右侧连接另一间卧室和另一间浴室": 7278,
      "客厅位于走廊的": 7279,
      "右中位置": 7280,
      "客厅的右上方": 7281,
      "三个卧室分别位于走廊左上": 7282,
      "彼此相连": 7283,
      "三间卧室和两间浴室相连": 7284,
      "两间卧室分别位于左下角和右下角": 7285,
      "右侧紧邻卧室": 7286,
      "及右侧厨房": 7287,
      "且均与客厅相邻": 7288,
      "中下部卧室": 7289,
      "客厅左侧连接卧室": 7290,
      "阳台与客厅相通": 7291,
      "位于厨房正上方": 7292,
      "不同卧室": 7293,
      "客厅位于厨房上方并与之相邻": 7294,
      "被走廊覆盖": 7295,
      "客厅左连厨房": 7296,
      "其中左上卧室旁有浴室": 7297,
      "右接卧室": 7298,
      "厨房位于客厅正上方并与之相连": 7299,
      "对应卧室相连": 7300,
      "所有卧室均": 7301,
      "中央区域是客厅": 7302,
      "下方有三个卧室": 7303,
      "与下方的卧室和上方的浴室相邻": 7304,
      "与相邻卧室": 7305,
      "一个床房": 7306,
      "北侧开门通向厨房": 7307,
      "阳台为开放式": 7308,
      "阳台仅与客厅相接": 7309,
      "厨房与餐厅之间设推拉门": 7310,
      "同一水平": 7311,
      "连接至走廊": 7312,
      "走廊呈竖直条状贯穿中部": 7313,
      "和下中": 7314,
      "三间卧室与两间浴室": 7315,
      "直入主卧": 7316,
      "所有房间通过走廊或直接邻接实现连通": 7317,
      "Room": 7318,
      "与两个卧室和": 7319,
      "与公卫相邻": 7320,
      "且高于": 7321,
      "仅与厨房": 7322,
      "从下": 7323,
      "前者": 7324,
      "又一间卧室": 7325,
      "又连接着": 7326,
      "和客厅上方": 7327,
      "均直接相邻": 7328,
      "并通向客厅": 7329,
      "横向贯穿中部": 7330,
      "浴房": 7331,
      "独卫": 7332,
      "直通阳台": 7333,
      "辐射": 7334,
      "连次卫": 7335,
      "门对门": 7336,
      "需求": 7337,
      "靠下": 7338,
      "卧室区域": 7339,
      "卧室下方是浴室": 7340,
      "客厅下方连接另一间卧室": 7341,
      "客厅下方连接一间卧室": 7342,
      "厨房带": 7343,
      "厨房左上方": 7344,
      "厨房右侧连接一个浴室": 7345,
      "厨房通向餐厅": 7346,
      "连接两间卧室": 7347,
      "走廊同时连接": 7348,
      "浴室右侧连接厨房": 7349,
      "餐厅在厨房的": 7350,
      "主卧与卫生间": 7351,
      "左侧邻": 7352,
      "左侧与厨房": 7353,
      "左侧另有一间卧室": 7354,
      "客厅位于卧室上方": 7355,
      "客厅位于最左侧": 7356,
      "阳台位于客厅": 7357,
      "厨房位于卧室右侧": 7358,
      "北侧与厨房相连": 7359,
      "书房东墙开门": 7360,
      "紧邻上方浴室": 7361,
      "通过走廊进入": 7362,
      "一个大卧室": 7363,
      "一个标有": 7364,
      "主卧室南侧连接卫生间": 7365,
      "中间是走廊": 7366,
      "右侧是两个卧室": 7367,
      "右侧是第三个卧室": 7368,
      "左侧连接另一个卫生间": 7369,
      "浴室和三个卧室": 7370,
      "连接着两个浴室": 7371,
      "另一个卧室与厨房相邻": 7372,
      "在厨房右方": 7373,
      "卫生间靠近书房": 7374,
      "上方连接两个浴室": 7375,
      "左下和中下位置": 7376,
      "浴室位于下方": 7377,
      "三间卧室分别": 7378,
      "两侧各有一个卧室": 7379,
      "左下方和正下方": 7380,
      "底部左侧": 7381,
      "左侧是另一个浴室": 7382,
      "上方卧室左侧": 7383,
      "两个浴室分别位于中间卧室": 7384,
      "其下方是卫生间": 7385,
      "浴室在中间": 7386,
      "绿色床": 7387,
      "其中一个卧室位于": 7388,
      "左右两侧各有一个浴室": 7389,
      "其下方与": 7390,
      "两个浴室分别位于走廊左侧和下方": 7391,
      "第三间卧室及": 7392,
      "走廊尽头为": 7393,
      "客厅占据中央偏右": 7394,
      "在走廊下方偏右": 7395,
      "另有一个": 7396,
      "卫生间靠近卧室入口": 7397,
      "厨房位于中央上方": 7398,
      "上部和下部": 7399,
      "次卧连接主卧": 7400,
      "走廊贯穿中间": 7401,
      "右侧浴室与": 7402,
      "右侧浴室上方": 7403,
      "下方浴室右侧": 7404,
      "和右下角卧室": 7405,
      "和左下区域": 7406,
      "客厅和一间卧室": 7407,
      "右下卧室上方": 7408,
      "主卧和次卧对面": 7409,
      "客厅与阳台相通": 7410,
      "各自相邻": 7411,
      "与中间的浴室相连": 7412,
      "及下方客厅": 7413,
      "走廊在客厅上方": 7414,
      "左侧卧室与左侧浴室相邻": 7415,
      "北向厨房": 7416,
      "厨房位于客厅的下方": 7417,
      "Living Room": 7418,
      "浴室位于走廊的左侧": 7419,
      "连接上下两个浴室": 7420,
      "餐厅与客厅和厨房相邻": 7421,
      "其中一个卧室在客厅下方": 7422,
      "三间浴室分别位于左上": 7423,
      "下方卧室与浴室相邻": 7424,
      "左侧自上而下依次为浴室": 7425,
      "走廊北端对": 7426,
      "餐厅北面是玄关": 7427,
      "右侧自上而下依次连接浴室": 7428,
      "浴室位于左侧上方": 7429,
      "右侧接卧室": 7430,
      "东西相对": 7431,
      "厨房在客厅上方并与之相邻": 7432,
      "还有一个独立的浴室": 7433,
      "上边对齐": 7434,
      "次卧北墙也": 7435,
      "书房与次卧及卫生间": 7436,
      "西墙再开一门": 7437,
      "三个卧室沿左侧垂直排列": 7438,
      "厨房另有一门通往餐厅": 7439,
      "的放射状": 7440,
      "客厅占据左下大部分区域": 7441,
      "客厅北侧连接次卧室": 7442,
      "书房与次卧及卫生间通过走廊相连": 7443,
      "上边缘": 7444,
      "下接走廊": 7445,
      "与南侧": 7446,
      "与阳台相连": 7447,
      "且两者": 7448,
      "且二者": 7449,
      "东南方向": 7450,
      "为次卧": 7451,
      "为红色厨房": 7452,
      "仅与走廊": 7453,
      "其下方连接一个浴室": 7454,
      "再接": 7455,
      "分支": 7456,
      "北连次卧": 7457,
      "并带": 7458,
      "并靠近走廊": 7459,
      "无邻接": 7460,
      "直线": 7461,
      "被紫色区域": 7462,
      "西北侧": 7463,
      "连开放式厨房": 7464,
      "通客卫": 7465,
      "客厅也": 7466,
      "客厅下方是另一个卧室": 7467,
      "厨房东侧连接": 7468,
      "厨房右侧为客厅": 7469,
      "厨房上方是另一个卧室": 7470,
      "连接结构": 7471,
      "位于中间": 7472,
      "走廊下方连接另一间浴室": 7473,
      "浴室分别": 7474,
      "下方与走廊重叠": 7475,
      "右侧和": 7476,
      "右侧依次是": 7477,
      "右侧上下方": 7478,
      "上方厨房": 7479,
      "上方与厨房相邻": 7480,
      "上方有两间卧室": 7481,
      "餐厅东侧连接": 7482,
      "餐厅南侧": 7483,
      "左侧浴室相连": 7484,
      "次卧前方": 7485,
      "客厅位于主卧和次卧对面": 7486,
      "中央为走廊": 7487,
      "西侧通往": 7488,
      "北侧连": 7489,
      "书房北墙再开门": 7490,
      "与客厅和卧室": 7491,
      "东侧和南侧": 7492,
      "与厨房及": 7493,
      "其中客厅": 7494,
      "其中一个在": 7495,
      "一间浴室及厨房": 7496,
      "两个浴室夹在": 7497,
      "下方连接另一个": 7498,
      "下方连接两个卧室和一个浴室": 7499,
      "下方是浴室和卧室": 7500,
      "一个厨房位于左侧": 7501,
      "西侧连接卧室": 7502,
      "中间的卫生间": 7503,
      "左下角有一间卧室": 7504,
      "左上角和左下角": 7505,
      "浴室和起居室": 7506,
      "另一个卧室与客厅相邻": 7507,
      "并与左侧卧室相邻": 7508,
      "上方连接另一个卫生间": 7509,
      "直接连接客厅": 7510,
      "东邻厨房": 7511,
      "右侧卧室在右下角": 7512,
      "延伸段": 7513,
      "左侧是另一间浴室": 7514,
      "右侧的浴室相连": 7515,
      "该卧室右侧连接浴室": 7516,
      "上方卧室与厨房": 7517,
      "其上方是另一间浴室": 7518,
      "位于走廊的上方": 7519,
      "客厅下方还有一个卧室": 7520,
      "客卫位于": 7521,
      "客厅上方为": 7522,
      "其右侧是另一个浴室": 7523,
      "与下方浴室和": 7524,
      "与下方浴室相连": 7525,
      "两个卫生间相邻": 7526,
      "两个卫生间和一个卧室": 7527,
      "卧室在左侧": 7528,
      "两个浴室分别位于走廊上方和下方": 7529,
      "第三间卧室在": 7530,
      "最下方卧室位于": 7531,
      "走廊尽头左拐": 7532,
      "连接左侧三个卧室和两个浴室": 7533,
      "和右下方各有一间卧室": 7534,
      "其上方连接客厅": 7535,
      "右侧连接着走廊": 7536,
      "各自的卧室": 7537,
      "客厅位于走廊北侧": 7538,
      "右端下方": 7539,
      "中上卧室相邻": 7540,
      "依次排列两个卧室": 7541,
      "左侧卧室与浴室": 7542,
      "另一个卧室在下方": 7543,
      "彼此通过走廊或": 7544,
      "和上方的浴室": 7545,
      "走廊向上延伸至": 7546,
      "南北相邻": 7547,
      "在走廊左侧下方": 7548,
      "浴室位于走廊的右侧": 7549,
      "和右侧的客厅": 7550,
      "各房间通过走廊或": 7551,
      "不同高度": 7552,
      "一个厨房和一个卧室": 7553,
      "中右部": 7554,
      "两个卧室分别在走廊": 7555,
      "厨房东侧是卫生间": 7556,
      "三个浴室分别位于左上角": 7557,
      "下方则与": 7558,
      "开向餐厅": 7559,
      "左侧连接着一个卧室": 7560,
      "左侧邻接厨房": 7561,
      "与主卫相连": 7562,
      "次卧室位于右侧": 7563,
      "左侧接卧室": 7564,
      "回到厨房": 7565,
      "餐厅东侧与玄关相邻": 7566,
      "方式相互连通": 7567,
      "与左侧卧室和下方浴室相邻": 7568,
      "和中右部": 7569,
      "三间卧室和三间浴室": 7570,
      "画面中部": 7571,
      "功能分区明确": 7572,
      "主卧室和次卧室": 7573,
      "上连": 7574,
      "下接厨房": 7575,
      "且该浴室": 7576,
      "且与上方卧室": 7577,
      "也连接一间卧室": 7578,
      "及左下角": 7579,
      "右接客厅": 7580,
      "右边缘": 7581,
      "在右": 7582,
      "多间卧室": 7583,
      "对角": 7584,
      "抵达": 7585,
      "无其他": 7586,
      "最右下方": 7587,
      "有一扇": 7588,
      "正上": 7589,
      "的底部": 7590,
      "空白": 7591,
      "竖排": 7592,
      "第一间卧室相邻": 7593,
      "至上": 7594,
      "通储物间": 7595,
      "靠右": 7596,
      "卧室与客厅相连": 7597,
      "卧室在走廊左下方": 7598,
      "客厅左方": 7599,
      "厨房北侧连接餐厅": 7600,
      "走廊南侧": 7601,
      "走廊下方连接客厅": 7602,
      "走廊右侧连接另一个卧室": 7603,
      "浴室的门": 7604,
      "浴室旁边": 7605,
      "浴室右侧为厨房": 7606,
      "浴室有两个": 7607,
      "下方连": 7608,
      "下方卧室与浴室": 7609,
      "下方和左侧": 7610,
      "下方依次排列着": 7611,
      "右侧大": 7612,
      "右侧上方为": 7613,
      "右侧蓝色浴室": 7614,
      "右侧厨房及": 7615,
      "右侧绿色卧室位于": 7616,
      "餐厅位于": 7617,
      "左侧客厅": 7618,
      "左侧连通": 7619,
      "中央走廊横向贯穿": 7620,
      "书房位于走廊尽头": 7621,
      "与客厅下方的卧室相邻": 7622,
      "紧邻客厅左侧": 7623,
      "东侧次卧": 7624,
      "右侧连接两间卧室和一间浴室": 7625,
      "其中左下角的卧室": 7626,
      "客厅西侧是次卧": 7627,
      "客厅西侧开门进入次卧": 7628,
      "一个厨房位于左下角": 7629,
      "一个走廊连接着两个卧室": 7630,
      "在走廊东侧": 7631,
      "中间的客厅": 7632,
      "上方是卧室和浴室": 7633,
      "左下角的": 7634,
      "连通结构": 7635,
      "玄关南接阳台": 7636,
      "左侧连接一个浴室和一个卧室": 7637,
      "另一个卧室位于走廊右侧": 7638,
      "起居室的右侧": 7639,
      "卧室位于走廊尽头": 7640,
      "右下角区域": 7641,
      "直接通向客厅": 7642,
      "两间卧室与一间浴室": 7643,
      "厨房位于左侧中间": 7644,
      "客厅在右上区域": 7645,
      "另一间浴室和卧室": 7646,
      "客厅右侧无房间": 7647,
      "左侧卧室下方连接浴室": 7648,
      "右下和左下位置": 7649,
      "上方卧室与客厅": 7650,
      "走廊横穿": 7651,
      "两个浴室分别位于中下": 7652,
      "两个浴室分别位于中部偏左": 7653,
      "左上方的卧室": 7654,
      "另一卧室和浴室": 7655,
      "走廊连接浴室和厨房": 7656,
      "走廊连接两个卧室和两个浴室": 7657,
      "该浴室右侧是走廊": 7658,
      "走廊右侧延伸出": 7659,
      "同时邻接": 7660,
      "两个卧室分别位于客厅的上方和下方": 7661,
      "其左侧自上而下": 7662,
      "四个卧室和两个浴室": 7663,
      "中下卧室相邻": 7664,
      "上部区域": 7665,
      "客厅位于上方左侧": 7666,
      "且与浴室相连": 7667,
      "三个卧室分别位于上部": 7668,
      "与走廊和上方卧室相连": 7669,
      "次卧连接走廊": 7670,
      "连接左侧三个卧室": 7671,
      "两个卧室分别位于走廊左侧和下方": 7672,
      "厨房下方的卧室": 7673,
      "紧邻走廊和浴室": 7674,
      "有一个浴室和一个卧室": 7675,
      "向下延伸至": 7676,
      "黄色客厅正上方": 7677,
      "另一间在右侧": 7678,
      "左下卧室上方": 7679,
      "客厅东侧是书房": 7680,
      "另一卧室相连": 7681,
      "南向开门通阳台": 7682,
      "两间浴室分别位于走廊右侧和下方": 7683,
      "和一间卧室相邻": 7684,
      "卧室和厨房之间": 7685,
      "厨房位于客厅的左侧": 7686,
      "厨房位于走廊上方并与之相连": 7687,
      "走廊横跨于": 7688,
      "两个卧室之间夹着": 7689,
      "右侧紧邻起居室": 7690,
      "左侧与另一间卧室相邻": 7691,
      "均通过走廊或直接相邻": 7692,
      "厨房与卫生间之间": 7693,
      "平面图的左上": 7694,
      "向下连接浴室": 7695,
      "其中一个卧室在上方": 7696,
      "两个浴室分别位于走廊的上下两端": 7697,
      "右侧的客厅及": 7698,
      "两间卧室及另一间浴室": 7699,
      "所有房间均通过客厅": 7700,
      "和左侧的浴室相邻": 7701,
      "左邻卧室": 7702,
      "右侧通过走廊连接另一间卧室": 7703,
      "并与走廊相接": 7704,
      "客厅在厨房右侧并与之相邻": 7705,
      "厨房位于客厅右侧并与之相邻": 7706,
      "北通走廊": 7707,
      "中央区域为走廊": 7708,
      "两个卧室并排位于底部": 7709,
      "三间房间": 7710,
      "走廊通向三个卧室和两个浴室": 7711,
      "卧室在走廊右侧上方": 7712,
      "浴室则处于": 7713,
      "再往右是厨房": 7714,
      "再下方是第三间卧室": 7715,
      "均通过走廊或直接邻接": 7716,
      "客厅在厨房正上方": 7717,
      "走廊从客厅向北延伸": 7718,
      "一个卧室位于另一个卧室": 7719,
      "走廊北侧依次排列": 7720,
      "走廊右侧是起居室": 7721,
      "走廊及右侧卧室": 7722,
      "并向下延伸连接": 7723,
      "右侧连接客厅和另一个卧室": 7724,
      "每个都有自己的浴室": 7725,
      "左侧自上而下依次为床": 7726,
      "厨房后门通向生活阳台": 7727,
      "一行": 7728,
      "与两个": 7729,
      "与下方卧室相连": 7730,
      "且共享": 7731,
      "且共享边界": 7732,
      "其下方连接一间卧室": 7733,
      "右部": 7734,
      "均连接走廊": 7735,
      "存在": 7736,
      "开小门": 7737,
      "形状": 7738,
      "朝向": 7739,
      "相应": 7740,
      "第一个卫生间": 7741,
      "西连卫生间": 7742,
      "通次卫": 7743,
      "门均": 7744,
      "客厅左下角": 7745,
      "客厅与下方": 7746,
      "厨房与下方卧室相邻": 7747,
      "连接在": 7748,
      "连接两个浴室": 7749,
      "走廊南": 7750,
      "下方与客厅相邻": 7751,
      "下方并与之相邻": 7752,
      "下方左侧是浴室": 7753,
      "卫生间和": 7754,
      "卫生间紧邻厨房": 7755,
      "右侧两间卧室": 7756,
      "右侧和左下方": 7757,
      "上方并列": 7758,
      "上方绿色卧室位于": 7759,
      "餐厅与厨房": 7760,
      "餐厅和厨房": 7761,
      "次卧北侧是": 7762,
      "分别与厨房": 7763,
      "紧邻上方卧室和": 7764,
      "与厨房上下相邻": 7765,
      "与走廊和浴室": 7766,
      "右侧连接红色厨房": 7767,
      "其中客厅与": 7768,
      "其中右下卧室与": 7769,
      "下方连接两个浴室": 7770,
      "下方是一个浴室": 7771,
      "左下角还有一间卧室": 7772,
      "左侧连接厨房和一间卧室": 7773,
      "浴室和客厅相连": 7774,
      "厨房在卧室右侧并与之相邻": 7775,
      "客厅位于中心偏上位置": 7776,
      "右下角卧室位于": 7777,
      "右上角卧室相邻": 7778,
      "两间卧室和浴室": 7779,
      "三间卧室分布于": 7780,
      "上下各有一个浴室": 7781,
      "卧室与上方浴室相邻": 7782,
      "两侧浴室": 7783,
      "底部从左至右依次为卧室": 7784,
      "主卧并排": 7785,
      "客厅在左": 7786,
      "其右侧上方是卧室": 7787,
      "该卧室下方是另一间浴室": 7788,
      "两个浴室分别位于右上和右下": 7789,
      "客厅左侧连通": 7790,
      "浴室在最右侧": 7791,
      "客厅上方有": 7792,
      "客厅上方有两个卧室": 7793,
      "中间卧室在": 7794,
      "中间卧室左侧": 7795,
      "客厅位于厨房的右侧": 7796,
      "其左侧与走廊相邻": 7797,
      "走廊左侧为卧室": 7798,
      "另有一门": 7799,
      "厨房与其中一个浴室相邻": 7800,
      "三个卧室分别位于左侧上下": 7801,
      "其左侧连接一个卧室和一个浴室": 7802,
      "生活区相邻": 7803,
      "下方连接着另一间卧室": 7804,
      "两个卧室分别位于走廊左侧": 7805,
      "两个卧室分别位于走廊右侧和下方": 7806,
      "和下方各有一间浴室": 7807,
      "并连接左右两侧": 7808,
      "其上方连接一个卧室和一个浴室": 7809,
      "其中左上卧室在": 7810,
      "其中一个浴室与厨房相邻": 7811,
      "形成一个": 7812,
      "与右侧的厨房和": 7813,
      "客厅位于走廊右上方": 7814,
      "客厅的左": 7815,
      "餐厅位于客厅与厨房之间": 7816,
      "通过门相连": 7817,
      "厨房北面为餐厅": 7818,
      "在客厅左上方": 7819,
      "厨房在右侧上方": 7820,
      "卧室南侧与卫生间相邻": 7821,
      "客厅左侧连接走廊": 7822,
      "另外两个卧室分别位于走廊": 7823,
      "阳台与客厅直接相通": 7824,
      "面积较大": 7825,
      "三间卧室分别位于走廊左上": 7826,
      "厨房在客厅下方并与之相邻": 7827,
      "右侧连接另一间浴室和一间卧室": 7828,
      "和中间偏下": 7829,
      "延伸出走廊": 7830,
      "走廊连接南侧主卧和东侧次卧": 7831,
      "客厅右侧是书房": 7832,
      "仅与客厅和走廊相邻": 7833,
      "纵向延伸": 7834,
      "其左侧是走廊": 7835,
      "北邻次卧": 7836,
      "其中上方卧室与浴室相邻": 7837,
      "与中间的起居室相邻": 7838,
      "西北和": 7839,
      "一个房间位于另一个房间的": 7840,
      "客厅的左侧和右侧": 7841,
      "与其他房间相连": 7842,
      "餐厅后通厨房": 7843,
      "中间由走廊连接": 7844,
      "中间浴室和右侧卧室": 7845,
      "并覆盖其": 7846,
      "餐厅北通入户门": 7847,
      "四个卧室分布在四周": 7848,
      "绿色区域的卧室": 7849,
      "所有房间通过走廊相互连通": 7850,
      "次卧室北侧与卫生间相邻": 7851,
      "南端通向次卧室": 7852,
      "上述": 7853,
      "下段": 7854,
      "下边界": 7855,
      "与浴室和厨房相邻": 7856,
      "且各自": 7857,
      "东靠": 7858,
      "也相邻": 7859,
      "仅与走廊相接": 7860,
      "仅通过走廊与其他": 7861,
      "以推拉门": 7862,
      "及卧室": 7863,
      "另两个": 7864,
      "各功能区": 7865,
      "和东侧": 7866,
      "和最下方": 7867,
      "在左": 7868,
      "在右下方": 7869,
      "块绿色卧室": 7870,
      "外部": 7871,
      "左连": 7872,
      "左连客厅": 7873,
      "平台": 7874,
      "并横向": 7875,
      "床的左侧": 7876,
      "开推拉门": 7877,
      "抵次卧": 7878,
      "无重叠": 7879,
      "正上方是": 7880,
      "正右方": 7881,
      "正下方是走廊": 7882,
      "步入": 7883,
      "比例": 7884,
      "的多个房间": 7885,
      "转折": 7886,
      "门相通": 7887,
      "卧室上方是浴室": 7888,
      "客厅南侧通向阳台": 7889,
      "客厅左侧是浴室": 7890,
      "客厅下方连接另一个卧室": 7891,
      "厨房连接着": 7892,
      "厨房北接": 7893,
      "厨房上方连接一间卧室": 7894,
      "厨房下方连接另一间浴室": 7895,
      "位于右下": 7896,
      "走廊的上方": 7897,
      "走廊右侧连接卧室": 7898,
      "走廊串联": 7899,
      "浴室再": 7900,
      "浴室下方是客厅": 7901,
      "浴室上方是客厅": 7902,
      "浴室与上方卧室相邻": 7903,
      "下方紧邻浴室": 7904,
      "下方从左至右依次为卧室": 7905,
      "卫生间与厨房之间": 7906,
      "右侧两个卧室及": 7907,
      "上方与客厅相邻": 7908,
      "餐厅西北角": 7909,
      "餐厅向南": 7910,
      "餐厅左接厨房": 7911,
      "次卧北墙开门通向": 7912,
      "厨房位于最右下角": 7913,
      "西侧通向阳台": 7914,
      "西侧靠卧室": 7915,
      "书房南面": 7916,
      "书房东墙": 7917,
      "书房北墙再": 7918,
      "一间卧室和另一间浴室": 7919,
      "与客厅和厨房相连": 7920,
      "紧邻下方": 7921,
      "紧邻上方的卧室": 7922,
      "与走廊区域": 7923,
      "与走廊左侧相邻": 7924,
      "右侧连接卫生间": 7925,
      "其中中下卧室": 7926,
      "其中右上方的卧室": 7927,
      "一个浴室和客厅": 7928,
      "另一间卧室与": 7929,
      "客厅连接入户门": 7930,
      "右下角和右上角": 7931,
      "浴室位于卧室旁边": 7932,
      "浴室位于卧室正上方": 7933,
      "两间卧室和两个浴室": 7934,
      "三间卧室和另一间浴室": 7935,
      "进入书房": 7936,
      "底部浴室相邻": 7937,
      "通过走廊连接其他区域": 7938,
      "客厅右侧依次": 7939,
      "左侧卧室在厨房上方": 7940,
      "右侧的客厅相连": 7941,
      "下方卧室右侧也": 7942,
      "两个浴室分别位于中下部": 7943,
      "两个浴室分别位于右上角和右下角": 7944,
      "位于走廊北侧": 7945,
      "走廊连接着卧室和浴室": 7946,
      "分布两个卧室": 7947,
      "浴室在其右侧": 7948,
      "卧室的正下方": 7949,
      "客厅上方与": 7950,
      "客厅上方的卧室": 7951,
      "另一卫生间": 7952,
      "并排的卧室": 7953,
      "其中一个卧室在厨房上方": 7954,
      "该浴室右侧为厨房": 7955,
      "两个卫生间分别位于左上": 7956,
      "走廊右侧紧邻客厅": 7957,
      "其右侧紧邻一间浴室": 7958,
      "走廊下方有": 7959,
      "其左侧依次连接": 7960,
      "以及上方的": 7961,
      "客厅占据底部中央": 7962,
      "三个卧室分别位于客厅右侧": 7963,
      "走廊位于中央偏上": 7964,
      "厨房北侧是卫生间": 7965,
      "共用一侧": 7966,
      "两个卧室分别位于走廊的左侧": 7967,
      "西邻次卧": 7968,
      "和左下侧": 7969,
      "客厅西侧通往书房": 7970,
      "客厅和两个浴室": 7971,
      "并连接多个房间": 7972,
      "其中左上和左中": 7973,
      "形成紧凑的": 7974,
      "与中间浴室": 7975,
      "客厅位于走廊南侧": 7976,
      "连接走廊和右侧卧室": 7977,
      "走廊上方连接两个卧室和一个浴室": 7978,
      "公卫和主卧": 7979,
      "另一个在左下角": 7980,
      "依次为一个卧室": 7981,
      "左侧与一间浴室相邻": 7982,
      "厨房及三间卧室和两间浴室": 7983,
      "下方为另一间浴室": 7984,
      "横向并列": 7985,
      "餐厅再北接厨房": 7986,
      "三间卧室分别位于走廊左侧": 7987,
      "厨房位于客厅正下方并与之相连": 7988,
      "两个浴室及右侧卧室": 7989,
      "上方连接着一个卧室": 7990,
      "上方连接着一个浴室": 7991,
      "其余卧室": 7992,
      "四个卧室分别位于左下": 7993,
      "一个房间位于另一个房间的上方": 7994,
      "围绕客厅分布": 7995,
      "门朝走廊": 7996,
      "厨房在下方中央": 7997,
      "右手边是厨房": 7998,
      "两间浴室及客厅": 7999,
      "三个卧室及两个卫生间": 8000,
      "左侧从上到下依次是卧室": 8001,
      "连接着上方的两个卧室": 8002,
      "右上及右下区域": 8003,
      "走廊北侧依次排布": 8004,
      "次卧位于主卧北侧": 8005,
      "北向开门通": 8006,
      "通过走廊与其余房间相连": 8007,
      "与右上角的": 8008,
      "与厨房和客厅相通": 8009,
      "过渡空间": 8010,
      "与生活区相邻": 8011,
      "厨房位于走廊的一侧": 8012,
      "客厅占据右上大部分区域": 8013,
      "无直接相邻房间": 8014,
      "客厅占据下方大部分区域": 8015,
      ";“": 8016,
      "与顶部": 8017,
      "且均通过走廊": 8018,
      "也有一个浴室": 8019,
      "仅与左侧": 8020,
      "仅连走廊": 8021,
      "前端": 8022,
      "并处于": 8023,
      "并横跨": 8024,
      "描述": 8025,
      "是公用卫生间": 8026,
      "这两个房间": 8027,
      "进出": 8028,
      "长条": 8029,
      "卧室连接卫生间": 8030,
      "客厅为": 8031,
      "客厅下方连接浴室": 8032,
      "客厅四周": 8033,
      "厨房左侧是卧室": 8034,
      "厨房连接走廊": 8035,
      "厨房下方连接一个浴室": 8036,
      "连接左上卧室": 8037,
      "位于厨房上方": 8038,
      "走廊下方连接另一个卧室": 8039,
      "浴室下方是走廊": 8040,
      "下方并排": 8041,
      "下方紧邻走廊": 8042,
      "下方卧室位于走廊": 8043,
      "下方还连接": 8044,
      "右侧上方的卧室": 8045,
      "右侧接走廊": 8046,
      "上方走廊": 8047,
      "上方另有一间卧室": 8048,
      "主卧旁设": 8049,
      "左侧自下而上": 8050,
      "次卧南接卫生间": 8051,
      "西侧通往卫生间": 8052,
      "西侧的主卧": 8053,
      "北侧的卫生间": 8054,
      "分别分布": 8055,
      "东侧的": 8056,
      "与厨房相接": 8057,
      "北侧连接一间卧室": 8058,
      "与走廊连通": 8059,
      "与走廊底部相邻": 8060,
      "与走廊左侧相连": 8061,
      "其中左下方": 8062,
      "设有浴室": 8063,
      "设有独立": 8064,
      "下方连接卫生间": 8065,
      "下方连接红色厨房": 8066,
      "下方是卧室和浴室": 8067,
      "中间走廊连接": 8068,
      "中间隔着餐厅": 8069,
      "厨房和浴室相连": 8070,
      "三个卧室相连": 8071,
      "左下角相接": 8072,
      "玄关直通客厅": 8073,
      "房间位于左侧": 8074,
      "起居室左侧连接一间卧室": 8075,
      "厨房在餐厅右侧": 8076,
      "左下部": 8077,
      "直接毗邻": 8078,
      "上下两个卧室及": 8079,
      "卧室与起居室": 8080,
      "两侧及下方": 8081,
      "右上侧": 8082,
      "左侧是一个卧室": 8083,
      "客厅右侧通主卧": 8084,
      "左侧卧室的下方": 8085,
      "左侧卧室上方是浴室": 8086,
      "该卧室上方是客厅": 8087,
      "两个浴室分别位于客厅左侧": 8088,
      "两个浴室分别位于左侧和右侧": 8089,
      "两个浴室分别位于左侧卧室下方": 8090,
      "两个浴室分别位于客厅左右两侧": 8091,
      "位于走廊左上方": 8092,
      "位于走廊的下方": 8093,
      "走廊连接着左侧的卧室": 8094,
      "其下方是另一个浴室": 8095,
      "主卧位于左上角": 8096,
      "厨房位于走廊南侧": 8097,
      "厨房位于走廊南端": 8098,
      "客厅左侧与餐厅连通": 8099,
      "浴室在最下方": 8100,
      "另一端": 8101,
      "其中一个卧室在走廊右侧": 8102,
      "部分遮挡": 8103,
      "中间卧室正下方": 8104,
      "该浴室下方是": 8105,
      "该浴室下方是另一间卧室": 8106,
      "两个卫生间一个在": 8107,
      "入户门开": 8108,
      "邻接厨房": 8109,
      "与右侧浴室相连": 8110,
      "其下方通过走廊连接": 8111,
      "其下方与走廊重叠": 8112,
      "其左侧紧邻浴室": 8113,
      "左中浴室": 8114,
      "绿色卧室右侧": 8115,
      "厨房与起居室相邻": 8116,
      "与走廊和一个卧室相邻": 8117,
      "其上方左侧是卧室": 8118,
      "两个卧室分别位于走廊上方和右侧": 8119,
      "和下方各连接一个卧室": 8120,
      "走廊左侧连接一个卧室和一个浴室": 8121,
      "其上方连接浴室和卧室": 8122,
      "其中左上卧室邻接": 8123,
      "和右上卧室下方": 8124,
      "右侧连接着一个卧室": 8125,
      "与右侧的浴室相连": 8126,
      "客厅东侧连主卧": 8127,
      "客厅东侧走廊向北延伸": 8128,
      "门洞相连": 8129,
      "右中卧室与": 8130,
      "一个在右下方": 8131,
      "卫生间在卧室南侧": 8132,
      "与浴室并排": 8133,
      "其中两个卧室通过走廊相连": 8134,
      "两者通过走廊相连": 8135,
      "客厅位于走廊右侧并与之相连": 8136,
      "其下方是客厅和走廊": 8137,
      "左侧的床": 8138,
      "再往上": 8139,
      "客厅后方是主卧": 8140,
      "通道相连": 8141,
      "中央黄色区域": 8142,
      "一个浴室和一个卧室相邻": 8143,
      "客厅位于走廊下方并与之相连": 8144,
      "相邻房间相连": 8145,
      "下方也有一间卧室": 8146,
      "上方和下方的卧室": 8147,
      "厨房位于走廊右侧上方": 8148,
      "共用一堵墙": 8149,
      "以及右侧的厨房": 8150,
      "其左侧连接着一个卧室": 8151,
      "与右侧的卧室和下方的浴室相邻": 8152,
      "次卧与主卧之间隔着": 8153,
      "下连浴室": 8154,
      "其右侧为另一间卧室": 8155,
      "下方紧邻另一间卧室": 8156,
      "客厅左侧是走廊": 8157,
      "还有一个独立卧室": 8158,
      "玄关位于南侧": 8159,
      "回到走廊": 8160,
      "厨房在客厅左侧并与之相邻": 8161,
      "该浴室再向右连接": 8162,
      "与右侧卧室和下方走廊相邻": 8163,
      "阳台西接厨房": 8164,
      "并向上延伸至": 8165,
      "其右侧通过走廊连接厨房": 8166,
      "卫生间南靠卧室": 8167,
      "连接上方的厨房": 8168,
      "走廊尽头正对主卧": 8169,
      "厨房另有一门通往生活阳台": 8170,
      "厨房位于起居室左侧并与之相邻": 8171,
      "阳台仅连接厨房": 8172,
      "连接左右区域": 8173,
      "与上方的起居室和下方的卧室相邻": 8174,
      "走廊尽头为客用卫生间": 8175,
      "”,": 8176,
      "上中部": 8177,
      "下浴室": 8178,
      "与北侧": 8179,
      "与两个浴室": 8180,
      "且与下方浴室相邻": 8181,
      "仅通过": 8182,
      "仅与浴室相邻": 8183,
      "其右下角": 8184,
      "内侧": 8185,
      "再向下连接": 8186,
      "右通餐厅": 8187,
      "各区域": 8188,
      "尺寸": 8189,
      "干湿": 8190,
      "床的下方": 8191,
      "最北端": 8192,
      "满足": 8193,
      "的旁边": 8194,
      "符合": 8195,
      "西连": 8196,
      "西南方向": 8197,
      "卧室处于": 8198,
      "卧室与厨房之间": 8199,
      "卧室与走廊之间": 8200,
      "客厅另一侧": 8201,
      "客厅与走廊及": 8202,
      "客厅右侧连接一个浴室": 8203,
      "厨房向北": 8204,
      "连接另一个浴室": 8205,
      "位于底部": 8206,
      "走廊右侧连接另一间卧室": 8207,
      "浴室的上方": 8208,
      "下方偏右": 8209,
      "卫生间北墙": 8210,
      "卫生间通过走廊与客厅相连": 8211,
      "右侧及右下方": 8212,
      "上方紧邻": 8213,
      "上方两间卧室": 8214,
      "主卧东邻次卧": 8215,
      "左侧蓝色浴室": 8216,
      "次卧东墙开门": 8217,
      "西侧为卧室": 8218,
      "书房与卫生间": 8219,
      "紧邻厨房和": 8220,
      "右侧连接两个浴室": 8221,
      "其中右下": 8222,
      "其中下方浴室": 8223,
      "其中右上和右下": 8224,
      "下方连接卧室和浴室": 8225,
      "南侧连接走廊": 8226,
      "另一间卧室位于走廊右侧": 8227,
      "中间和右下角": 8228,
      "中间的浴室相邻": 8229,
      "中间的浴室相连": 8230,
      "厨房和另一个卫生间": 8231,
      "厨房和多个卧室": 8232,
      "左下角卧室位于": 8233,
      "左下角卧室相邻": 8234,
      "左下角还有一个卧室": 8235,
      "区域的上方": 8236,
      "左侧连接左侧卧室": 8237,
      "连接着餐厅": 8238,
      "另一个卧室和另一个浴室": 8239,
      "起居室左下方": 8240,
      "起居室下方是厨房": 8241,
      "房屋右上角": 8242,
      "贯穿上下": 8243,
      "上下两间卧室": 8244,
      "底部还有一个卧室": 8245,
      "右下方卧室与": 8246,
      "和厨房左侧": 8247,
      "通过走廊连接各个房间": 8248,
      "另一间浴室和": 8249,
      "右侧卧室与客厅相邻": 8250,
      "与走廊相邻且": 8251,
      "客厅右侧通向走廊": 8252,
      "左侧卧室正上方": 8253,
      "该卧室上方是另一间卧室": 8254,
      "该卧室下方是另一个卧室": 8255,
      "两个浴室分别位于客厅": 8256,
      "两个浴室分别位于中上部": 8257,
      "两个浴室分别位于中间偏上": 8258,
      "位于走廊一侧": 8259,
      "客厅下方为厨房": 8260,
      "客卫与儿童房": 8261,
      "浴室在右上": 8262,
      "并排位于走廊下方": 8263,
      "其中一个卧室在厨房右侧": 8264,
      "左右两侧各": 8265,
      "部分对齐": 8266,
      "中间卧室位于走廊正下方": 8267,
      "邻接客厅": 8268,
      "另一个绿色卧室": 8269,
      "与右侧浴室和": 8270,
      "走廊下方并列": 8271,
      "其下方左侧是客厅": 8272,
      "的右侧并与之相邻": 8273,
      "四个卧室分别位于客厅": 8274,
      "四个卧室和三个浴室": 8275,
      "两个浴室分别位于走廊下方和右侧": 8276,
      "顶部和底部": 8277,
      "走廊尽头对": 8278,
      "和卧室均相邻": 8279,
      "和走廊右下方": 8280,
      "厨房与其中一间卧室相邻": 8281,
      "且与右侧卧室": 8282,
      "下方的另一个卧室": 8283,
      "次卧连接书房": 8284,
      "其上方和下方各有一个浴室": 8285,
      "上下排列着": 8286,
      "走廊贯穿中部连接各区域": 8287,
      "客厅和右侧的": 8288,
      "厨房在走廊南侧": 8289,
      "其中一间卧室与客厅相邻": 8290,
      "两间浴室分别位于左下角": 8291,
      "红色厨房左侧": 8292,
      "最上方的浴室": 8293,
      "和右上卧室": 8294,
      "其中一个浴室在": 8295,
      "与厨房和另一间卧室相邻": 8296,
      "与中间的客厅相连": 8297,
      "客厅东侧通主卧": 8298,
      "下方是另一间卧室和浴室": 8299,
      "主卧内含独立衣帽间": 8300,
      "右中和左下位置": 8301,
      "南向连阳台": 8302,
      "四间卧室分别分布在左上": 8303,
      "餐厅东侧通往玄关": 8304,
      "走廊上方连接两个卧室": 8305,
      "中上和右下": 8306,
      "客厅在右侧占据较大区域": 8307,
      "公共区域相连": 8308,
      "多个卧室和卫生间": 8309,
      "走廊呈纵向贯穿中部": 8310,
      "其中两个卧室与浴室相邻": 8311,
      "左方和右方": 8312,
      "均通过走廊或相邻": 8313,
      "整体形成以": 8314,
      "平面图的": 8315,
      "走廊从厨房": 8316,
      "连接上下左右": 8317,
      "厨房与客厅左右相邻": 8318,
      "并延伸至右下角": 8319,
      "该卧室下方又": 8320,
      "其中一个卧室在左侧": 8321,
      "厨房紧邻走廊右侧": 8322,
      "两个卫生间分别位于走廊两侧": 8323,
      "均与走廊或客厅相邻": 8324,
      "上方和下方各有一个浴室": 8325,
      "水平边界": 8326,
      "中左卧室": 8327,
      "一个卧室和两个浴室": 8328,
      "两个浴室及三间卧室": 8329,
      "其中左上卧室下方是浴室": 8330,
      "以及右侧的客厅和厨房": 8331,
      "与走廊和下方浴室相连": 8332,
      "两个浴室分别位于左上角和右上角": 8333,
      "主卧自带北向": 8334,
      "餐厅北墙设门": 8335,
      "与上方卧室和下方卧室": 8336,
      "右下卧室与下方浴室相邻": 8337,
      "开敞阳台": 8338,
      "一个房间位于另一个房间的右侧": 8339,
      "阳台位于卧室东侧": 8340,
      "客厅在厨房右下方": 8341,
      "第三间床": 8342,
      "两个卧室分别位于左上角和左下角": 8343,
      "均有接触": 8344,
      "均与走廊或卧室直接连通": 8345,
      "厨房位于浴室外侧": 8346,
      "上方接卧室": 8347,
      "通过走廊与其余房间": 8348,
      "玄关在入口处": 8349,
      "三个卧室分别分布": 8350,
      "客厅后侧": 8351,
      "设备平台": 8352,
      "一个大型": 8353,
      "起居室居中偏上": 8354,
      "拼接结构": 8355,
      "共用走廊尽头的": 8356,
      "无邻接房间": 8357,
      "干湿分离": 8358,
      "上至下": 8359,
      "与蓝色浴室相邻": 8360,
      "与其中一个浴室相邻": 8361,
      "与一个卧室相连": 8362,
      "与两个卧室和一个浴室相邻": 8363,
      "且右侧": 8364,
      "也是卧室": 8365,
      "仅连接厨房": 8366,
      "其上": 8367,
      "其底部": 8368,
      "南靠": 8369,
      "右下方是厨房": 8370,
      "和另一个卫生间": 8371,
      "围合": 8372,
      "均与客厅": 8373,
      "旁有": 8374,
      "此外": 8375,
      "西门": 8376,
      "西北侧和": 8377,
      "设公卫": 8378,
      "这两个床": 8379,
      "邻次卧": 8380,
      "隔墙": 8381,
      "客厅下方连接一个浴室": 8382,
      "厨房又": 8383,
      "厨房与左侧卧室相邻": 8384,
      "厨房上方为浴室": 8385,
      "位于右下方": 8386,
      "走廊右方": 8387,
      "走廊和客厅": 8388,
      "走廊西接餐厅": 8389,
      "浴室仅": 8390,
      "浴室右侧连接": 8391,
      "浴室在厨房": 8392,
      "浴室右边": 8393,
      "下方一个卧室": 8394,
      "下方依次": 8395,
      "下方两间卧室": 8396,
      "下方蓝色浴室": 8397,
      "下方左侧是卧室": 8398,
      "下方两个卧室及": 8399,
      "下方左侧是客厅": 8400,
      "下方另有一个卧室": 8401,
      "下方绿色卧室位于": 8402,
      "下方依次是浴室": 8403,
      "卫生间南接客厅": 8404,
      "右侧起居室": 8405,
      "右侧大部分区域": 8406,
      "上方与浴室相邻": 8407,
      "上方通过走廊与": 8408,
      "上方和左侧": 8409,
      "上方无直接连接房间": 8410,
      "餐厅位于客厅下方": 8411,
      "餐厅东接厨房": 8412,
      "主卧旁": 8413,
      "左侧通向": 8414,
      "左侧通过走廊连接": 8415,
      "左侧紧邻厨房": 8416,
      "左侧对齐": 8417,
      "中央卧室": 8418,
      "东侧连接一间卧室": 8419,
      "通向另一间卧室": 8420,
      "通向入户门": 8421,
      "书房和卫生间": 8422,
      "与客厅区域": 8423,
      "紧邻另一个卧室": 8424,
      "紧邻其下方": 8425,
      "紧邻下方浴室": 8426,
      "北侧连接卧室": 8427,
      "与走廊右侧": 8428,
      "与走廊右侧相邻": 8429,
      "与走廊右侧相连": 8430,
      "右侧连接两个卧室和一个浴室": 8431,
      "右侧连接厨房和另一个卧室": 8432,
      "其中厨房与": 8433,
      "两个浴室一个": 8434,
      "下方连接厨房和另一间卧室": 8435,
      "下方连接厨房和另一间浴室": 8436,
      "另一间卧室在走廊右侧": 8437,
      "房间的": 8438,
      "另一个卧室在厨房右侧": 8439,
      "另一个卧室与另一个浴室相邻": 8440,
      "起居室右侧连接一个卧室": 8441,
      "起居室在右侧": 8442,
      "房屋左上角": 8443,
      "并与两个卧室相邻": 8444,
      "进入主卫": 8445,
      "通过走廊连接到客厅": 8446,
      "通过走廊连接右侧的卧室": 8447,
      "右侧卧室在走廊右端": 8448,
      "右下大部分区域": 8449,
      "与上方两个卧室": 8450,
      "该卧室右侧与": 8451,
      "该卧室右侧是厨房": 8452,
      "该卧室右侧连接另一个卧室": 8453,
      "该卧室上方为浴室": 8454,
      "并与之共享": 8455,
      "两个浴室分别位于厨房左侧": 8456,
      "客厅下方偏左": 8457,
      "主卧位于房屋左上角": 8458,
      "厨房位于走廊一侧": 8459,
      "厨房位于走廊左上方": 8460,
      "浴室在客厅左侧": 8461,
      "浴室在中间偏右": 8462,
      "走廊位于两个卧室之间": 8463,
      "正对餐厅": 8464,
      "正对主卧": 8465,
      "客厅上方并列两个卧室": 8466,
      "右侧为一间浴室": 8467,
      "的上方和左侧": 8468,
      "左右两侧的浴室": 8469,
      "走廊连接浴室和卧室": 8470,
      "两个卫生间一个": 8471,
      "其下方从左至右": 8472,
      "其左侧通过走廊连接": 8473,
      "走廊左侧为": 8474,
      "最下方卧室与": 8475,
      "主卧和主卫": 8476,
      "主卧南侧带独立阳台": 8477,
      "次卧在房屋右上角": 8478,
      "其左侧连接浴室和卧室": 8479,
      "其左侧连接两个卧室和一个浴室": 8480,
      "右侧浴室与右侧卧室相邻": 8481,
      "厨房右侧紧邻": 8482,
      "另一个卫生间位于": 8483,
      "两间浴室分别位于右上": 8484,
      "上方浴室下方": 8485,
      "另一间在下方": 8486,
      "左下卧室与厨房相邻": 8487,
      "右侧的卧室相连": 8488,
      "下方连接另一间卧室和厨房": 8489,
      "右端延伸至": 8490,
      "四间卧室分别位于走廊": 8491,
      "客厅的左上": 8492,
      "客厅的左右两侧": 8493,
      "两间浴室分别位于走廊中段": 8494,
      "两间浴室分别位于走廊下方左右两侧": 8495,
      "紫色走廊相连": 8496,
      "依次排列三间卧室": 8497,
      "两间卧室分别位于右上和右下": 8498,
      "其中两个卧室上下排列": 8499,
      "北靠次卧": 8500,
      "在走廊左侧上方": 8501,
      "两者共同": 8502,
      "整体形成以走廊为": 8503,
      "向上连接走廊": 8504,
      "厨房在客厅右侧上方": 8505,
      "下方为起居室": 8506,
      "连接上下两个卧室及": 8507,
      "三个卫生间分别位于": 8508,
      "三个并排的卧室": 8509,
      "并延伸至下方": 8510,
      "另一个卧室位于客厅下方": 8511,
      "该卧室下方还有一间卧室": 8512,
      "门开在走廊": 8513,
      "走廊向右延伸连接客厅": 8514,
      "两个浴室分别在走廊": 8515,
      "客厅与厨房左右相邻": 8516,
      "并与走廊和厨房相邻": 8517,
      "其左侧紧邻蓝色浴室": 8518,
      "下方也连接一个卧室": 8519,
      "右侧也是卧室": 8520,
      "其右侧连接着厨房": 8521,
      "对应的卧室": 8522,
      "其左侧连接着一间卧室": 8523,
      "开向厨房": 8524,
      "左手边依次是厨房和卫生间": 8525,
      "左侧邻接浴室": 8526,
      "北侧开门直通厨房": 8527,
      "厨房与客厅之间隔着走廊": 8528,
      "厨房与客厅之间由推拉门": 8529,
      "其正下方是浴室": 8530,
      "左拐进入客厅": 8531,
      "与上方的卧室和右侧的走廊相邻": 8532,
      "第三个卧室位于走廊的右侧": 8533,
      "客厅处于房屋中心": 8534,
      "与下方卧室之间": 8535,
      "右侧邻接厨房": 8536,
      "均与至少": 8537,
      "厨房则处于": 8538,
      "餐厅北墙开门通厨房": 8539,
      "西南和": 8540,
      "主卧连接客厅和主卫": 8541,
      "在水平方向上": 8542,
      "客厅占据底部大部分区域": 8543,
      "四面开门": 8544,
      "厨房位于起居空间正上方": 8545,
      "同一水平线": 8546,
      "从下至上": 8547,
      "与右下": 8548,
      "与两者均相邻": 8549,
      "且该": 8550,
      "也与走廊相邻": 8551,
      "也是浴室": 8552,
      "假设": 8553,
      "分散": 8554,
      "南临": 8555,
      "及另一间浴室": 8556,
      "右下方连接厨房": 8557,
      "右连餐厅": 8558,
      "右接浴室": 8559,
      "后墙": 8560,
      "后阳台": 8561,
      "和两个卫生间": 8562,
      "四角": 8563,
      "均直接": 8564,
      "均与卧室相邻": 8565,
      "墙壁": 8566,
      "并部分": 8567,
      "旁另有一间浴室": 8568,
      "最右": 8569,
      "最底部中央": 8570,
      "最右侧浴室": 8571,
      "最右侧卧室下方": 8572,
      "此卫生间": 8573,
      "此卧室上方": 8574,
      "活动": 8575,
      "的北侧": 8576,
      "的是浴室": 8577,
      "卧室在厨房上方": 8578,
      "卧室紧邻客厅右侧": 8579,
      "客厅北侧是厨房": 8580,
      "客厅下方是另一间浴室": 8581,
      "厨房左侧连接浴室": 8582,
      "厨房与左侧浴室相邻": 8583,
      "厨房左侧是另一间卧室": 8584,
      "连接三间卧室和两间浴室": 8585,
      "走廊与客厅相连": 8586,
      "走廊左上方": 8587,
      "浴室的下方": 8588,
      "浴室右侧为走廊": 8589,
      "浴室北侧与厨房相连": 8590,
      "下方浴室位于": 8591,
      "下方左侧为": 8592,
      "下方还有一个浴室": 8593,
      "卫生间东墙再": 8594,
      "右侧厨房和": 8595,
      "右侧并与之相邻": 8596,
      "右侧通向客厅": 8597,
      "上方一个卧室": 8598,
      "上方有一个卧室": 8599,
      "上方与卧室相邻": 8600,
      "主卧前方": 8601,
      "左侧连": 8602,
      "左侧与客厅相连": 8603,
      "左侧和下方各有一个卧室": 8604,
      "左侧两个卧室上下排列": 8605,
      "次卧北靠卫生间": 8606,
      "客厅位于北侧": 8607,
      "客厅位于左下区域": 8608,
      "中央走廊连接所有房间": 8609,
      "东侧连接客厅": 8610,
      "通过一个浴室": 8611,
      "一个卧室在左下角": 8612,
      "与厨房和浴室相连": 8613,
      "与走廊和右下角": 8614,
      "右侧连接 ": 8615,
      "右侧连接一个浴室和一个卧室": 8616,
      "其中左下和右下": 8617,
      "一个浴室和一个客厅": 8618,
      "下方连接两间浴室": 8619,
      "下方连接浴室和另一间卧室": 8620,
      "靠近各自的卧室": 8621,
      "次卧室西侧紧邻": 8622,
      "另一间卧室则": 8623,
      "另一间卧室位于走廊末端": 8624,
      "中间浴室右侧": 8625,
      "和右端": 8626,
      "起居室下方连接厨房": 8627,
      "厨房在起居室右侧": 8628,
      "卧室位于厨房下方": 8629,
      "在厨房左方": 8630,
      "并与起居室": 8631,
      "并与下方浴室相邻": 8632,
      "并与上方卧室相邻": 8633,
      "并与其中一间卧室相邻": 8634,
      "右下角的卧室相邻": 8635,
      "左下和右侧": 8636,
      "左下和正下方": 8637,
      "右上角重叠": 8638,
      "浴室位于最右侧": 8639,
      "浴室位于中间偏下位置": 8640,
      "上下两个卫生间": 8641,
      "底部另有一间卧室": 8642,
      "两间卫浴": 8643,
      "右下方且与": 8644,
      "右下方和正下方": 8645,
      "客厅南侧是主卧": 8646,
      "右侧卧室在走廊右侧": 8647,
      "右侧卧室在走廊右方": 8648,
      "左侧是浴室和卧室": 8649,
      "右上方和下方": 8650,
      "右下卧室在": 8651,
      "右下卧室邻接走廊": 8652,
      "该卧室正下方": 8653,
      "下方卧室的": 8654,
      "下方卧室及右侧": 8655,
      "两个浴室分别位于右侧": 8656,
      "位于走廊中段": 8657,
      "客厅下方并列两个卧室": 8658,
      "客厅左侧与厨房相邻": 8659,
      "走廊位于客厅右侧": 8660,
      "紧邻厨房上方": 8661,
      "客厅上方连接着": 8662,
      "右侧为主卧": 8663,
      "其中一个卧室在厨房": 8664,
      "部分重合": 8665,
      "中间卧室和右侧卧室": 8666,
      "位于客厅的上方": 8667,
      "其下方为客厅": 8668,
      "卧室在客厅左侧": 8669,
      "所有房间均通过走廊或直接邻接": 8670,
      "两个卧室分别位于右上角": 8671,
      "走廊左侧依次分布着": 8672,
      "以及厨房": 8673,
      "厨房与公卫": 8674,
      "下方的卫生间相邻": 8675,
      "次卧连接卫生间": 8676,
      "连接左侧的浴室和": 8677,
      "蓝色浴室正下方": 8678,
      "客厅南侧连阳台": 8679,
      "和一个浴室相邻": 8680,
      "西邻客厅": 8681,
      "第三个卧室在左下角": 8682,
      "客厅和三间卧室": 8683,
      "走廊连接客厅和浴室": 8684,
      "其中一间卧室在走廊右上方": 8685,
      "两间浴室分别位于左中部": 8686,
      "其上方连接一条走廊": 8687,
      "客厅与阳台相连": 8688,
      "最上方还有一间卧室": 8689,
      "右侧连接着浴室": 8690,
      "紧邻客厅和走廊": 8691,
      "与中间下方的卧室相邻": 8692,
      "另一间绿色卧室": 8693,
      "右侧与另一": 8694,
      "右侧的卧室以及下方的": 8695,
      "中间偏右区域": 8696,
      "主卧内含卫生间": 8697,
      "中上卧室与": 8698,
      "紫色走廊连接": 8699,
      "另一个在右上角": 8700,
      "左侧卧室与中间": 8701,
      "卫生间在主卧与次卧之间": 8702,
      "和一个卧室相邻": 8703,
      "并排位于底部": 8704,
      "左侧与一个卧室相邻": 8705,
      "浴室位于走廊左下方": 8706,
      "在客厅右方": 8707,
      "厨房位于走廊左侧下方": 8708,
      "厨房及多个卧室和浴室": 8709,
      "下方为另一卧室": 8710,
      "厨房在右侧下方": 8711,
      "次卧和卫生间相连": 8712,
      "卧室和客厅之间": 8713,
      "其中一个卧室在左上角": 8714,
      "从上至下依次为卧室": 8715,
      "客厅后方是书房": 8716,
      "客厅后方是走廊": 8717,
      "与上方的客厅相邻": 8718,
      "厨房在客厅下方并与之相连": 8719,
      "右侧通过走廊连接三个卧室和两个浴室": 8720,
      "最左侧的浴室": 8721,
      "客厅右前方": 8722,
      "最大面积": 8723,
      "并与其共享边界": 8724,
      "其中左上卧室与厨房相邻": 8725,
      "右侧上下各有一个卧室": 8726,
      "厨房下方是起居室": 8727,
      "所有房间通过共享边": 8728,
      "浴室及客厅": 8729,
      "开向阳台": 8730,
      "上方连接一间浴室和一间卧室": 8731,
      "走廊的一侧": 8732,
      "开门通向主卧": 8733,
      "另一个床房": 8734,
      "两个浴室分别位于左上卧室右侧": 8735,
      "下方左侧为厨房": 8736,
      "其中上方卧室与上方浴室相邻": 8737,
      "厨房右侧是另一间浴室": 8738,
      "另一间在右下方": 8739,
      "各有一个": 8740,
      "整体呈不规则": 8741,
      "它们相邻": 8742,
      "所有房间均通过走廊相互连通": 8743,
      "所有房间均通过走廊直接或": 8744,
      "厨房以及三个卧室和两个浴室": 8745,
      "右侧卧室和下方浴室": 8746,
      "餐厅北通走廊": 8747,
      "绿色卧室与蓝色浴室": 8748,
      "另一个卧室在走廊的右侧": 8749,
      "连接所有卧室和卫生间": 8750,
      "且与之相连": 8751,
      "西侧通过走廊通往阳台": 8752,
      "所有房间通过相邻边直接连接": 8753,
      "与上方的浴室和右侧的走廊相邻": 8754,
      "直接或间接": 8755,
      "上方绿色卧室位于左侧": 8756,
      "即达客厅": 8757,
      "还有一间独立卧室": 8758,
      "主卧对面是次卧": 8759,
      "均通过走廊与其他空间连通": 8760,
      "餐厅在客厅东侧": 8761,
      "整体布局紧凑": 8762,
      "厨房后方是带独立卫浴的主卧": 8763,
      "  ": 8764,
      "下接客厅": 8765,
      "下接浴室": 8766,
      "与另一个卧室": 8767,
      "与两间卧室": 8768,
      "与两个卧室及": 8769,
      "与其中一间卧室相邻": 8770,
      "且略": 8771,
      "且与上方卧室相邻": 8772,
      "且不直接相连": 8773,
      "两条": 8774,
      "于左侧": 8775,
      "交错": 8776,
      "其左下角": 8777,
      "内卫": 8778,
      "另两间卧室分别位于走廊": 8779,
      "和左上": 8780,
      "和生活阳台": 8781,
      "均通过走廊与其他区域相连": 8782,
      "多房间": 8783,
      "套间": 8784,
      "或走廊相连": 8785,
      "是次卫": 8786,
      "是另一个浴室": 8787,
      "最顶部": 8788,
      "由上至下": 8789,
      "的两个卧室": 8790,
      "直通餐厅": 8791,
      "西通阳台": 8792,
      "连一间浴室": 8793,
      "通北阳台": 8794,
      "卧室前方": 8795,
      "客厅通向阳台": 8796,
      "厨房也": 8797,
      "厨房北接餐厅": 8798,
      "厨房右侧是另一个卧室": 8799,
      "连接顶部浴室": 8800,
      "位于另一间卧室": 8801,
      "位于同一侧": 8802,
      "走廊右侧连接一间浴室": 8803,
      "走廊竖直": 8804,
      "走廊上下分别连接": 8805,
      "浴室上方是": 8806,
      "浴室与走廊相邻": 8807,
      "浴室连接着走廊": 8808,
      "下方连通": 8809,
      "下方另有": 8810,
      "下方左侧是厨房": 8811,
      "下方和右方": 8812,
      "下方卧室位于走廊正下方": 8813,
      "右侧浴室和": 8814,
      "右侧走廊相邻": 8815,
      "右侧且部分覆盖": 8816,
      "上方卧室和浴室": 8817,
      "上方无连接": 8818,
      "餐厅相连": 8819,
      "左侧有一间卧室": 8820,
      "左侧还有一个卧室": 8821,
      "客厅位于浴室右侧": 8822,
      "阳台与卧室相连": 8823,
      "阳台连通客厅": 8824,
      "厨房位于中间偏右": 8825,
      "厨房位于浴室正下方": 8826,
      "厨房位于浴室正上方": 8827,
      "中央客厅": 8828,
      "分别与客厅": 8829,
      "一个卧室位于左侧": 8830,
      "东侧开门": 8831,
      "东侧通主卧": 8832,
      "与走廊和右下卧室相邻": 8833,
      "其中卧室在左": 8834,
      "一个浴室在": 8835,
      "一间浴室和两间卧室": 8836,
      "下方连接下方卧室": 8837,
      "一个起居室": 8838,
      "另一间卧室位于左下角": 8839,
      "另一间卧室与另一间浴室相邻": 8840,
      "中间下方的卧室": 8841,
      "厨房和浴室相邻": 8842,
      "厨房和第三间卧室": 8843,
      "中部右侧": 8844,
      "左下角有": 8845,
      "左上角的": 8846,
      "浴室和卧室相邻": 8847,
      "卧室和另一浴室": 8848,
      "厨房在浴室正下方": 8849,
      "厨房在最右下角": 8850,
      "卧室位于起居室左侧": 8851,
      "客厅连接阳台": 8852,
      "并与上方卧室": 8853,
      "并与二者相邻": 8854,
      "客厅位于中心偏上": 8855,
      "上方连接一条走廊": 8856,
      "上方连接厨房和一间卧室": 8857,
      "左上浴室": 8858,
      "浴室位于最下方": 8859,
      "上下两个卧室相邻": 8860,
      "底部重叠": 8861,
      "右下方和右上方": 8862,
      "其右侧依次连接厨房": 8863,
      "右侧卧室与厨房": 8864,
      "左侧卧室之间": 8865,
      "左侧卧室在走廊左下方": 8866,
      "右上方且与": 8867,
      "右下和正下方": 8868,
      "另一个浴室和厨房": 8869,
      "该卧室左侧与": 8870,
      "并与之直接相连": 8871,
      "下方卧室与客厅相邻": 8872,
      "两个浴室分别位于厨房的": 8873,
      "两个浴室分别位于中部偏右": 8874,
      "两个浴室分别位于左下角和右上角": 8875,
      "客厅下方偏右": 8876,
      "两个卧室和一个厨房": 8877,
      "浴室在客厅右下方": 8878,
      "正对卫生间": 8879,
      "绿色矩形": 8880,
      "其中一个卧室在厨房左侧": 8881,
      "部分接壤": 8882,
      "中间卧室位于": 8883,
      "该浴室上方是卧室": 8884,
      "两个卫生间和厨房": 8885,
      "另一个在厨房下方": 8886,
      "其右侧紧邻紫色走廊": 8887,
      "走廊下方还": 8888,
      "同时连接客厅": 8889,
      "同时覆盖": 8890,
      "其左侧与一间卧室相邻": 8891,
      "走廊左侧自上而下": 8892,
      "两个浴室分别位于走廊左侧和上方": 8893,
      "第三间卧室和": 8894,
      "第三间卧室在走廊下方": 8895,
      "和走廊上方": 8896,
      "客厅占据右上角区域": 8897,
      "客厅占据右半部分": 8898,
      "绿色卧室下方": 8899,
      "生活区左下方": 8900,
      "主卧内设衣帽间": 8901,
      "两个浴室和另一个卧室": 8902,
      "客厅南侧设有阳台": 8903,
      "紧邻走廊和厨房": 8904,
      "紧邻走廊右端": 8905,
      "客厅位于厨房的正前方": 8906,
      "厨房上方的浴室": 8907,
      "厨房上方和下方各有一间卧室": 8908,
      "黄色区域为客厅": 8909,
      "客厅与主卧": 8910,
      "客厅与其中一个卧室相邻": 8911,
      "形成环绕": 8912,
      "与厨房和两个卧室相邻": 8913,
      "客厅东侧开门进入主卧": 8914,
      "右中及": 8915,
      "中间浴室正下方": 8916,
      "客厅在走廊左下方": 8917,
      "客厅的左上方": 8918,
      "中上浴室": 8919,
      "三个卧室分别位于走廊的上": 8920,
      "走廊向上连接厨房": 8921,
      "通过门连接到": 8922,
      "主卧与次卧分别位于客厅两侧": 8923,
      "两间卧室分别位于浴室": 8924,
      "其中两个卧室分别": 8925,
      "左方和下方": 8926,
      "右侧紧邻一间浴室": 8927,
      "右侧连接一间卧室和厨房": 8928,
      "向上连接厨房": 8929,
      "连接上下两个浴室及": 8930,
      "与浴室和客厅": 8931,
      "还连接一间浴室": 8932,
      "下方连接另一个卧室和浴室": 8933,
      "该卧室下方为厨房": 8934,
      "两个卫生间分别位于左上角": 8935,
      "厨房位于中心偏左": 8936,
      "与走廊及浴室相邻": 8937,
      "实现互通": 8938,
      "三间卧室分别位于走廊左上方": 8939,
      "所有房间均与客厅直接连通": 8940,
      "次卧东侧与客厅相连": 8941,
      "下方连接一间浴室和厨房": 8942,
      "右侧连接另一间浴室和厨房": 8943,
      "上方与一间卧室相邻": 8944,
      "一个厨房和一个浴室": 8945,
      "相邻房间直接连通": 8946,
      "第二个浴室相邻": 8947,
      "且在其上方": 8948,
      "另一个卧室位于走廊的另一侧": 8949,
      "起居室位于中央偏上位置": 8950,
      "两个卧室并排位于左侧": 8951,
      "与卧室和厨房相邻": 8952,
      "主卧自带主卫": 8953,
      "连接上方两个卧室": 8954,
      "之间由走廊相连": 8955,
      "与左侧卧室和右侧卧室相邻": 8956,
      "下方左侧为浴室": 8957,
      "北卧室与南卧室各居二楼两端": 8958,
      "左接卧室": 8959,
      "再下方是第三个卧室": 8960,
      "客厅占据右下角最大区域": 8961,
      "直抵客厅": 8962,
      "客厅占据右下最大区域": 8963,
      "独立于其他房间": 8964,
      "浴室位于上方左侧": 8965,
      "厨房上方为另一间卧室": 8966,
      "其左侧和右侧各有一间卧室": 8967,
      "连着一间浴室": 8968,
      "与右侧卧室和下方卧室相邻": 8969,
      "并向上延伸连接": 8970,
      "与左侧卧室和下方走廊相邻": 8971,
      "连接着左侧的浴室和": 8972,
      "三间卧室和两间卫生间": 8973,
      "卫生间南靠": 8974,
      "次卧靠近北侧": 8975,
      "与厨房和客厅均相邻": 8976,
      "所有房间通过走廊相互连接": 8977,
      "紧邻左侧卧室和中间浴室": 8978,
      "三个卧室分布在走廊左侧": 8979,
      "底边对齐": 8980,
      "其中左上和左下卧室": 8981,
      "设有通往浴室的门": 8982,
      "入口位于南侧": 8983,
      "交界处": 8984,
      "厨房与客厅和餐厅相连": 8985,
      "卧室东墙设有通往浴室的门": 8986,
      "与中央的客厅相邻": 8987,
      "空白区域": 8988,
      "书房南面与阳台相通": 8989,
      "设有独立窗户": 8990,
      "上段": 8991,
      "与多个房间相连": 8992,
      "且仅": 8993,
      "且与走廊直接相连": 8994,
      "且共享一侧边界": 8995,
      "再下方是另一个卧室": 8996,
      "前通阳台": 8997,
      "及左侧": 8998,
      "和中": 8999,
      "和两个": 9000,
      "和左中卧室": 9001,
      "和东南侧": 9002,
      "基本": 9003,
      "实际": 9004,
      "小阳台": 9005,
      "带阳台": 9006,
      "开启": 9007,
      "是第三间卧室": 9008,
      "最底层": 9009,
      "横贯": 9010,
      "这两个浴室": 9011,
      "卧室分别位于走廊": 9012,
      "客厅上方连接一间卧室": 9013,
      "客厅上方是厨房": 9014,
      "客厅下方连接卧室": 9015,
      "客厅在厨房左侧": 9016,
      "厨房或": 9017,
      "厨房左侧连接一间浴室": 9018,
      "厨房通过门连接到": 9019,
      "连接关系": 9020,
      "位于中央": 9021,
      "位于左下": 9022,
      "位于右上": 9023,
      "位于最左侧": 9024,
      "走廊延伸至": 9025,
      "走廊右侧是另一间卧室": 9026,
      "走廊从上至下": 9027,
      "走廊右端连接": 9028,
      "浴室与右侧卧室相邻": 9029,
      "浴室上方是另一间卧室": 9030,
      "下方床": 9031,
      "下方并与之相连": 9032,
      "右侧卧室位于走廊": 9033,
      "右侧上方连接卧室": 9034,
      "上方相邻": 9035,
      "餐厅在客厅右侧": 9036,
      "主卧南墙开门": 9037,
      "左侧连客厅": 9038,
      "左侧绿色房间": 9039,
      "厨房位于卧室下方": 9040,
      "厨房位于上部中央": 9041,
      "西侧为卫生间": 9042,
      "通向户外": 9043,
      "书房与次卧相邻": 9044,
      "书房南墙": 9045,
      "与客厅和下方卧室相邻": 9046,
      "紧邻另一个浴室": 9047,
      "东侧通向走廊": 9048,
      "与厨房下方的浴室相邻": 9049,
      "通过走廊间接": 9050,
      "右侧连接另一浴室": 9051,
      "其中西侧": 9052,
      "其中右侧卧室与": 9053,
      "其中左上角卧室与": 9054,
      "其中左上方卧室": 9055,
      "一间浴室相连": 9056,
      "在走廊南侧": 9057,
      "另一间卧室重叠": 9058,
      "厨房和主卧": 9059,
      "厨房和两间卧室": 9060,
      "右侧是另一个卫生间": 9061,
      "中部偏上": 9062,
      "上方是一个浴室": 9063,
      "左上角有一个卧室": 9064,
      "区域的": 9065,
      "区域右侧": 9066,
      "区域连通": 9067,
      "连接着另一个浴室": 9068,
      "依次是卫生间": 9069,
      "另一个卧室和卫生间": 9070,
      "卧室和客厅相连": 9071,
      "卧室位于右上方": 9072,
      "右上角相接": 9073,
      "正下方卧室": 9074,
      "右上和右侧": 9075,
      "进入厨房": 9076,
      "卧室邻接浴室": 9077,
      "另一间浴室和两间卧室": 9078,
      "左侧是次卧": 9079,
      "客厅右侧与厨房相邻": 9080,
      "客厅右侧通过走廊连接": 9081,
      "另一个浴室位于走廊上方": 9082,
      "该卧室下方是另一个浴室": 9083,
      "下方卧室正下方": 9084,
      "上方卧室与客厅相邻": 9085,
      "西侧紧邻主卧": 9086,
      "西侧紧邻次卧室": 9087,
      "依次连接一间卧室": 9088,
      "其上方是两个卧室": 9089,
      "其上方是左侧浴室": 9090,
      "两个浴室分别位于顶部中央": 9091,
      "位于走廊正上方": 9092,
      "客厅下方通过走廊连接": 9093,
      "客厅下方为走廊": 9094,
      "其下方是浴室和走廊": 9095,
      "浴室在下": 9096,
      "浴室在右上方": 9097,
      "右侧为另一个卧室": 9098,
      "分别位于左上和右上": 9099,
      "其中一个卧室相连": 9100,
      "中间卧室和下方卧室": 9101,
      "该浴室左侧": 9102,
      "该浴室上方是另一个卧室": 9103,
      "另一个在走廊右下方": 9104,
      "走廊下方还有一间卧室": 9105,
      "卧室在客厅右上方": 9106,
      "所有房间通过走廊相连": 9107,
      "同时连接着": 9108,
      "蓝色矩形": 9109,
      "两个卧室分别位于厨房右侧": 9110,
      "两个卧室分别位于左侧上下位置": 9111,
      "卫生间位于次卧对面": 9112,
      "两个浴室分别位于走廊的上方和下方": 9113,
      "客厅占据整个": 9114,
      "厨房与客卫": 9115,
      "厨房与一间浴室相邻": 9116,
      "厨房与其中一间浴室相邻": 9117,
      "走廊横贯下方": 9118,
      "共享走廊": 9119,
      "上方的卧室和浴室": 9120,
      "上方的卧室与浴室": 9121,
      "主卧内设独立卫浴": 9122,
      "垂直边界": 9123,
      "两个卧室分别位于走廊的左上方": 9124,
      "两个卧室分别位于走廊的上下两侧": 9125,
      "厨房右侧无房间": 9126,
      "第三个卧室位于": 9127,
      "书房南侧连通厨房": 9128,
      "走廊贯穿中部并连接": 9129,
      "最右侧卧室与": 9130,
      "向下连接一间卧室": 9131,
      "右下卧室之间": 9132,
      "客厅正下方是": 9133,
      "过道左侧": 9134,
      "客厅与下方卧室": 9135,
      "其中左上的卧室": 9136,
      "最上方还有一个卧室": 9137,
      "形成一条": 9138,
      "各自仅与": 9139,
      "另一间在右下角": 9140,
      "中间偏右的": 9141,
      "客厅东侧与餐厅相连": 9142,
      "客厅在走廊右方": 9143,
      "两间浴室分别位于走廊上方": 9144,
      "一个在左下方": 9145,
      "左侧卧室与上方浴室相邻": 9146,
      "左侧卧室与中间卧室相邻": 9147,
      "和客厅右下方": 9148,
      "依次为浴室和卧室": 9149,
      "两间卧室分别位于客厅": 9150,
      "两间卧室分别位于厨房": 9151,
      "其中两个卧室各带": 9152,
      "厨房在客厅右侧并与之相连": 9153,
      "连接上下两端": 9154,
      "还有一间": 9155,
      "走廊依次连接次卧": 9156,
      "分别连接两间卧室": 9157,
      "右上角卧室旁": 9158,
      "两个卫生间分别位于走廊的": 9159,
      "次卧东侧为书房": 9160,
      "左端接厨房": 9161,
      "上方和下方各连接一个卧室": 9162,
      "上方和下方各连接一间浴室": 9163,
      "和中间区域": 9164,
      "厨房位于右侧上方": 9165,
      "两个浴室分别与": 9166,
      "起居区下方是走廊": 9167,
      "其上方为客厅": 9168,
      "客厅左下方和右下方": 9169,
      "两个并排的": 9170,
      "客厅北侧通往卫生间": 9171,
      "仅与客厅和走廊相连": 9172,
      "右侧的浴室以及下方的": 9173,
      "其左侧紧邻绿色卧室": 9174,
      "次卧北侧与卫生间相邻": 9175,
      "另一个卧室位于走廊的上方": 9176,
      "一个独立卧室": 9177,
      "向左延伸": 9178,
      "厨房后方紧邻卫生间": 9179,
      "卧室位于厨房的左侧": 9180,
      "两间浴室和一间厨房": 9181,
      "开门通向书房": 9182,
      "左手边依次是厨房和餐厅": 9183,
      "一个卧室在左上角": 9184,
      "一个卧室在右上角": 9185,
      "客厅右侧连接两个卧室": 9186,
      "走廊从客厅延伸至": 9187,
      "洗衣间": 9188,
      "四个角落": 9189,
      "整体呈阶梯状": 9190,
      "客厅占据右下大片区域": 9191,
      "与左侧卧室相连": 9192,
      "走廊东侧依次连接": 9193,
      "三间浴室分别位于左上角": 9194,
      "其左侧和右侧各有一个卧室": 9195,
      "右中和右下区域": 9196,
      "与厨房相邻且通过走廊连接": 9197,
      "下方从左至右依次为浴室": 9198,
      "两个浴室分别位于走廊上方和左侧": 9199,
      "连接所有主要房间": 9200,
      "西靠卫生间": 9201,
      "和中左位置": 9202,
      "客厅东侧开门连主卧": 9203,
      "厨房位于客厅的正上方": 9204,
      "上下两层": 9205,
      "与之相连": 9206,
      "左下浴室和中下卧室": 9207,
      "一个床位于另一个床的上方": 9208,
      "更大的卧室": 9209,
      "一个卧室位于另一个卧室的左侧": 9210,
      "厨房通过门连接到餐厅": 9211,
      "一道": 9212,
      "与西侧": 9213,
      "与两间浴室": 9214,
      "与左中": 9215,
      "与右侧卧室及": 9216,
      "与中央的客厅": 9217,
      "与另一个卧室相连": 9218,
      "且均与走廊直接相连": 9219,
      "为蓝色浴室": 9220,
      "为公共卫生间": 9221,
      "也各有一间卧室": 9222,
      "也有浴室": 9223,
      "但不": 9224,
      "但不直接相连": 9225,
      "其正上方": 9226,
      "再开一门": 9227,
      "北连卫生间": 9228,
      "及两个卧室": 9229,
      "及两间卧室": 9230,
      "可至": 9231,
      "各邻": 9232,
      "各配": 9233,
      "和左上角": 9234,
      "和上方卧室": 9235,
      "均通过": 9236,
      "对卫生间": 9237,
      "嵌套": 9238,
      "并通向厨房": 9239,
      "并紧邻客厅": 9240,
      "方形": 9241,
      "是公卫": 9242,
      "最左侧卧室": 9243,
      "节点": 9244,
      "设客卫": 9245,
      "该通道": 9246,
      "通衣帽间": 9247,
      "卧室门": 9248,
      "卧室南邻客厅": 9249,
      "客厅与右侧": 9250,
      "客厅上方连接一个卧室": 9251,
      "厨房东": 9252,
      "厨房直接相连": 9253,
      "厨房右侧连接一个卫生间": 9254,
      "走廊中间": 9255,
      "走廊左上角": 9256,
      "走廊右上角": 9257,
      "走廊上方为": 9258,
      "走廊的左侧": 9259,
      "走廊右侧为起居室": 9260,
      "走廊继续": 9261,
      "下方两侧": 9262,
      "下方与厨房相连": 9263,
      "下方和右上方": 9264,
      "下方通过走廊与客厅相连": 9265,
      "卫生间和另一间卧室": 9266,
      "右侧有一间卧室": 9267,
      "上方还有": 9268,
      "上方接浴室": 9269,
      "餐厅西墙开门": 9270,
      "餐厅北靠次卧": 9271,
      "左侧上方是浴室": 9272,
      "左侧通客厅": 9273,
      "次卧位于客厅": 9274,
      "次卧东墙": 9275,
      "次卧南墙": 9276,
      "阳台仅连接客厅": 9277,
      "阳台通过推拉门": 9278,
      "厨房位于其中一个卧室": 9279,
      "书房北向": 9280,
      "书房北墙再开一门": 9281,
      "分别连接客厅": 9282,
      "一个卧室在走廊": 9283,
      "紧邻客厅和": 9284,
[...]
