{
  "version": "1.0",
  "truncation": null,
  "padding": null,
  "added_tokens": [
    {
      "id": 0,
      "content": "<PAD>",
      "single_word": false,
      "lstrip": false,
      "rstrip": false,
      "normalized": false,
      "special": true
    },
    {
      "id": 1,
      "content": "<UNK>",
      "single_word": false,
      "lstrip": false,
      "rstrip": false,
      "normalized": false,
      "special": true
    }
  ],
  "normalizer": {
    "type": "NFKC"
  },
  "pre_tokenizer": {
    "type": "Sequence",
    "pretokenizers": [
      {
        "type": "Digits",
        "individual_digits": true
      },
      {
        "type": "UnicodeScripts"
      }
    ]
  },
  "post_processor": null,
  "decoder": null,
  "model": {
    "type": "BPE",
    "dropout": null,
    "unk_token": "<UNK>",
    "continuing_subword_prefix": null,
    "end_of_word_suffix": null,
    "fuse_unk": false,
    "byte_fallback": false,
    "ignore_merges": false,
    "vocab": {
      "<PAD>": 0,
      "<UNK>": 1,
      " ": 2,
      "\"": 3,
      "(": 4,
      ")": 5,
      "*": 6,
      "+": 7,
      ",": 8,
      "-": 9,
      "/": 10,
      "0": 11,
      "1": 12,
      "2": 13,
      "3": 14,
      "4": 15,
      "5": 16,
      "6": 17,
      "7": 18,
      "8": 19,
      "9": 20,
      ":": 21,
      ";": 22,
      "A": 23,
      "B": 24,
      "C": 25,
      "E": 26,
      "I": 27,
      "K": 28,
      "L": 29,
      "N": 30,
      "S": 31,
      "T": 32,
      "U": 33,
      "W": 34,
      "Y": 35,
      "[": 36,
      "]": 37,
      "a": 38,
      "c": 39,
      "d": 40,
      "e": 41,
      "h": 42,
      "i": 43,
      "n": 44,
      "o": 45,
      "q": 46,
      "r": 47,
      "s": 48,
      "t": 49,
      "u": 50,
      "w": 51,
      "x": 52,
      "y": 53,
      "×": 54,
      "ü": 55,
      "—": 56,
      "“": 57,
      "”": 58,
      "→": 59,
      "、": 60,
      "。": 61,
      "一": 62,
      "七": 63,
      "三": 64,
      "上": 65,
      "下": 66,
      "不": 67,
      "与": 68,
      "专": 69,
      "且": 70,
      "东": 71,
      "两": 72,
      "个": 73,
      "中": 74,
      "串": 75,
      "临": 76,
      "为": 77,
      "主": 78,
      "义": 79,
      "之": 80,
      "九": 81,
      "也": 82,
      "书": 83,
      "了": 84,
      "事": 85,
      "二": 86,
      "于": 87,
      "互": 88,
      "五": 89,
      "井": 90,
      "些": 91,
      "交": 92,
      "亦": 93,
      "产": 94,
      "享": 95,
      "人": 96,
      "仅": 97,
      "介": 98,
      "仍": 99,
      "从": 100,
      "他": 101,
      "代": 102,
      "以": 103,
      "们": 104,
      "件": 105,
      "任": 106,
      "休": 107,
      "传": 108,
      "伸": 109,
      "似": 110,
      "但": 111,
      "位": 112,
      "低": 113,
      "住": 114,
      "体": 115,
      "何": 116,
      "余": 117,
      "作": 118,
      "佣": 119,
      "使": 120,
      "例": 121,
      "供": 122,
      "依": 123,
      "侧": 124,
      "便": 125,
      "保": 126,
      "信": 127,
      "倒": 128,
      "借": 129,
      "值": 130,
      "偏": 131,
      "側": 132,
      "储": 133,
      "像": 134,
      "儿": 135,
      "元": 136,
      "充": 137,
      "入": 138,
      "全": 139,
      "八": 140,
      "公": 141,
      "六": 142,
      "共": 143,
      "关": 144,
      "其": 145,
      "具": 146,
      "兼": 147,
      "内": 148,
      "再": 149,
      "冗": 150,
      "决": 151,
      "况": 152,
      "准": 153,
      "减": 154,
      "凑": 155,
      "几": 156,
      "凸": 157,
      "出": 158,
      "分": 159,
      "划": 160,
      "列": 161,
      "则": 162,
      "初": 163,
      "判": 164,
      "利": 165,
      "别": 166,
      "到": 167,
      "制": 168,
      "刻": 169,
      "前": 170,
      "剩": 171,
      "割": 172,
      "功": 173,
      "加": 174,
      "务": 175,
      "动": 176,
      "助": 177,
      "势": 178,
      "勤": 179,
      "匀": 180,
      "包": 181,
      "化": 182,
      "北": 183,
      "区": 184,
      "十": 185,
      "升": 186,
      "半": 187,
      "单": 188,
      "南": 189,
      "占": 190,
      "卡": 191,
      "卧": 192,
      "卫": 193,
      "即": 194,
      "厅": 195,
      "压": 196,
      "厕": 197,
      "厨": 198,
      "去": 199,
      "参": 200,
      "又": 201,
      "叉": 202,
      "及": 203,
      "双": 204,
      "发": 205,
      "叠": 206,
      "口": 207,
      "另": 208,
      "只": 209,
      "可": 210,
      "台": 211,
      "右": 212,
      "号": 213,
      "各": 214,
      "合": 215,
      "同": 216,
      "名": 217,
      "后": 218,
      "向": 219,
      "吧": 220,
      "含": 221,
      "启": 222,
      "呈": 223,
      "周": 224,
      "呼": 225,
      "和": 226,
      "品": 227,
      "响": 228,
      "唯": 229,
      "四": 230,
      "回": 231,
      "因": 232,
      "团": 233,
      "围": 234,
      "固": 235,
      "图": 236,
      "在": 237,
      "地": 238,
      "场": 239,
      "均": 240,
      "坐": 241,
      "块": 242,
      "垂": 243,
      "型": 244,
      "域": 245,
      "基": 246,
      "堂": 247,
      "堆": 248,
      "堵": 249,
      "填": 250,
      "境": 251,
      "墙": 252,
      "壁": 253,
      "壤": 254,
      "处": 255,
      "备": 256,
      "复": 257,
      "外": 258,
      "多": 259,
      "大": 260,
      "天": 261,
      "央": 262,
      "头": 263,
      "夹": 264,
      "套": 265,
      "好": 266,
      "如": 267,
      "始": 268,
      "子": 269,
      "字": 270,
      "存": 271,
      "孤": 272,
      "它": 273,
      "宅": 274,
      "安": 275,
      "完": 276,
      "定": 277,
      "实": 278,
      "客": 279,
      "室": 280,
      "家": 281,
      "宽": 282,
      "密": 283,
      "寓": 284,
      "寸": 285,
      "对": 286,
      "导": 287,
      "封": 288,
      "射": 289,
      "将": 290,
      "小": 291,
      "少": 292,
      "尤": 293,
      "就": 294,
      "尺": 295,
      "尽": 296,
      "尾": 297,
      "局": 298,
      "层": 299,
      "居": 300,
      "屋": 301,
      "展": 302,
      "属": 303,
      "岔": 304,
      "嵌": 305,
      "工": 306,
      "左": 307,
      "己": 308,
      "已": 309,
      "布": 310,
      "带": 311,
      "常": 312,
      "帽": 313,
      "干": 314,
      "平": 315,
      "并": 316,
      "广": 317,
      "床": 318,
      "序": 319,
      "库": 320,
      "应": 321,
      "底": 322,
      "度": 323,
      "座": 324,
      "庭": 325,
      "廊": 326,
      "廓": 327,
      "延": 328,
      "建": 329,
      "开": 330,
      "异": 331,
      "式": 332,
      "引": 333,
      "张": 334,
      "弧": 335,
      "弹": 336,
      "强": 337,
      "归": 338,
      "当": 339,
      "形": 340,
      "影": 341,
      "彼": 342,
      "往": 343,
      "征": 344,
      "径": 345,
      "得": 346,
      "循": 347,
      "心": 348,
      "必": 349,
      "态": 350,
      "性": 351,
      "息": 352,
      "悬": 353,
      "情": 354,
      "意": 355,
      "憩": 356,
      "成": 357,
      "或": 358,
      "户": 359,
      "房": 360,
      "所": 361,
      "扇": 362,
      "手": 363,
      "才": 364,
      "扑": 365,
      "打": 366,
      "扩": 367,
      "扰": 368,
      "承": 369,
      "折": 370,
      "抬": 371,
      "抵": 372,
      "拉": 373,
      "拐": 374,
      "拓": 375,
      "拟": 376,
      "拥": 377,
      "括": 378,
      "拱": 379,
      "拼": 380,
      "持": 381,
      "指": 382,
      "按": 383,
      "挡": 384,
      "挨": 385,
      "换": 386,
      "据": 387,
      "捷": 388,
      "排": 389,
      "接": 390,
      "推": 391,
      "描": 392,
      "提": 393,
      "插": 394,
      "搭": 395,
      "撑": 396,
      "支": 397,
      "放": 398,
      "故": 399,
      "效": 400,
      "散": 401,
      "数": 402,
      "整": 403,
      "斜": 404,
      "断": 405,
      "方": 406,
      "施": 407,
      "旁": 408,
      "无": 409,
      "既": 410,
      "日": 411,
      "时": 412,
      "明": 413,
      "是": 414,
      "显": 415,
      "普": 416,
      "景": 417,
      "晰": 418,
      "暗": 419,
      "更": 420,
      "替": 421,
      "最": 422,
      "有": 423,
      "服": 424,
      "望": 425,
      "朝": 426,
      "木": 427,
      "未": 428,
      "末": 429,
      "本": 430,
      "机": 431,
      "杂": 432,
      "束": 433,
      "条": 434,
      "来": 435,
      "构": 436,
      "枢": 437,
      "架": 438,
      "某": 439,
      "柜": 440,
      "柱": 441,
      "标": 442,
      "栋": 443,
      "样": 444,
      "核": 445,
      "根": 446,
      "格": 447,
      "框": 448,
      "桌": 449,
      "梯": 450,
      "椅": 451,
      "楼": 452,
      "模": 453,
      "横": 454,
      "橙": 455,
      "橱": 456,
      "次": 457,
      "止": 458,
      "正": 459,
      "此": 460,
      "步": 461,
      "死": 462,
      "段": 463,
      "每": 464,
      "毗": 465,
      "水": 466,
      "求": 467,
      "汇": 468,
      "池": 469,
      "沙": 470,
      "沟": 471,
      "没": 472,
      "沿": 473,
      "法": 474,
      "注": 475,
      "洗": 476,
      "洞": 477,
      "活": 478,
      "流": 479,
      "浅": 480,
      "测": 481,
      "浴": 482,
      "淋": 483,
      "淡": 484,
      "深": 485,
      "混": 486,
      "清": 487,
      "渡": 488,
      "滑": 489,
      "满": 490,
      "潜": 491,
      "灰": 492,
      "点": 493,
      "烹": 494,
      "然": 495,
      "照": 496,
      "片": 497,
      "物": 498,
      "特": 499,
      "状": 500,
      "独": 501,
      "狭": 502,
      "玄": 503,
      "环": 504,
      "现": 505,
      "玻": 506,
      "理": 507,
      "璃": 508,
      "生": 509,
      "用": 510,
      "田": 511,
      "由": 512,
      "画": 513,
      "畅": 514,
      "界": 515,
      "留": 516,
      "略": 517,
      "疏": 518,
      "白": 519,
      "的": 520,
      "皆": 521,
      "盖": 522,
      "盥": 523,
      "目": 524,
      "直": 525,
      "相": 526,
      "盾": 527,
      "看": 528,
      "眠": 529,
      "着": 530,
      "睡": 531,
      "矛": 532,
      "知": 533,
      "矩": 534,
      "短": 535,
      "础": 536,
      "确": 537,
      "碍": 538,
      "示": 539,
      "离": 540,
      "私": 541,
      "种": 542,
      "积": 543,
      "称": 544,
      "移": 545,
      "程": 546,
      "稍": 547,
      "稳": 548,
      "空": 549,
      "穿": 550,
      "窄": 551,
      "窗": 552,
      "立": 553,
      "竖": 554,
      "童": 555,
      "端": 556,
      "符": 557,
      "第": 558,
      "等": 559,
      "筑": 560,
      "签": 561,
      "箭": 562,
      "簇": 563,
      "簧": 564,
      "类": 565,
      "粉": 566,
      "糊": 567,
      "系": 568,
      "素": 569,
      "紧": 570,
      "紫": 571,
      "红": 572,
      "约": 573,
      "级": 574,
      "纵": 575,
      "纽": 576,
      "线": 577,
      "组": 578,
      "织": 579,
      "终": 580,
      "经": 581,
      "结": 582,
      "绕": 583,
      "络": 584,
      "统": 585,
      "继": 586,
      "续": 587,
      "维": 588,
      "绿": 589,
      "编": 590,
      "缘": 591,
      "缝": 592,
      "缸": 593,
      "缺": 594,
      "网": 595,
      "置": 596,
      "群": 597,
      "翼": 598,
      "考": 599,
      "者": 600,
      "而": 601,
      "耸": 602,
      "联": 603,
      "聚": 604,
      "背": 605,
      "能": 606,
      "自": 607,
      "至": 608,
      "致": 609,
      "航": 610,
      "良": 611,
      "色": 612,
      "节": 613,
      "范": 614,
      "菜": 615,
      "落": 616,
      "蓝": 617,
      "藏": 618,
      "虚": 619,
      "虽": 620,
      "行": 621,
      "衔": 622,
      "衣": 623,
      "表": 624,
      "被": 625,
      "裹": 626,
      "西": 627,
      "要": 628,
      "覆": 629,
      "见": 630,
      "观": 631,
      "规": 632,
      "视": 633,
      "觉": 634,
      "角": 635,
      "触": 636,
      "言": 637,
      "计": 638,
      "记": 639,
      "设": 640,
      "识": 641,
      "该": 642,
      "语": 643,
      "误": 644,
      "说": 645,
      "调": 646,
      "象": 647,
      "贯": 648,
      "贴": 649,
      "赖": 650,
      "走": 651,
      "起": 652,
      "越": 653,
      "趋": 654,
      "足": 655,
      "距": 656,
      "跨": 657,
      "路": 658,
      "身": 659,
      "车": 660,
      "转": 661,
      "轮": 662,
      "轴": 663,
      "较": 664,
      "辅": 665,
      "辐": 666,
      "辑": 667,
      "辨": 668,
      "边": 669,
      "达": 670,
      "过": 671,
      "近": 672,
      "还": 673,
      "这": 674,
      "进": 675,
      "远": 676,
      "连": 677,
      "述": 678,
      "透": 679,
      "逐": 680,
      "递": 681,
      "途": 682,
      "通": 683,
      "逻": 684,
      "道": 685,
      "遥": 686,
      "遮": 687,
      "遵": 688,
      "那": 689,
      "邻": 690,
      "部": 691,
      "都": 692,
      "配": 693,
      "里": 694,
      "重": 695,
      "针": 696,
      "铺": 697,
      "链": 698,
      "错": 699,
      "键": 700,
      "镜": 701,
      "长": 702,
      "门": 703,
      "闭": 704,
      "间": 705,
      "阁": 706,
      "阔": 707,
      "阳": 708,
      "阶": 709,
      "阻": 710,
      "附": 711,
      "际": 712,
      "限": 713,
      "院": 714,
      "除": 715,
      "隐": 716,
      "隔": 717,
      "隙": 718,
      "集": 719,
      "需": 720,
      "静": 721,
      "非": 722,
      "靠": 723,
      "面": 724,
      "顶": 725,
      "顺": 726,
      "须": 727,
      "预": 728,
      "题": 729,
      "颜": 730,
      "额": 731,
      "飘": 732,
      "餐": 733,
      "饪": 734,
      "首": 735,
      "驳": 736,
      "高": 737,
      "黄": 738,
      "黑": 739,
      "齐": 740,
      "卧室": 741,
      "走廊": 742,
      "浴室": 743,
      "客厅": 744,
      "厨房": 745,
      "位于": 746,
      "相邻": 747,
      "连接": 748,
      "右侧": 749,
      "下方": 750,
      "上方": 751,
      "间卧室": 752,
      "通过": 753,
      "个卧室": 754,
      "左侧": 755,
      "相连": 756,
      "另一": 757,
      "连通": 758,
      "厨房位于": 759,
      "与走廊": 760,
      "房间": 761,
      "南侧": 762,
      "北侧": 763,
      "区域": 764,
      "分别": 765,
      "直接": 766,
      "通过走廊": 767,
      "与客厅": 768,
      "紧邻": 769,
      "东侧": 770,
      "卫生": 771,
      "卫生间": 772,
      "客厅位于": 773,
      "中部": 774,
      "与厨房": 775,
      "分别位于": 776,
      "其中": 777,
      "间浴室": 778,
      "西侧": 779,
      "右下": 780,
      "一个": 781,
      "布局": 782,
      "浴室相邻": 783,
      "右上": 784,
      "左上": 785,
      "卧室相邻": 786,
      "一间卧室": 787,
      "左下": 788,
      "两个卧室": 789,
      "中央": 790,
      "两个": 791,
      "房屋": 792,
      "分布": 793,
      "另一间卧室": 794,
      "卧室位于": 795,
      "整体": 796,
      "的卧室": 797,
      "位置": 798,
      "虚线": 799,
      "与走廊相邻": 800,
      "东南": 801,
      "一个卧室": 802,
      "所有": 803,
      "右下角": 804,
      "浴室和": 805,
      "整体布局": 806,
      "卧室与": 807,
      "两间卧室": 808,
      "卧室和": 809,
      "浴室位于": 810,
      "与客厅相邻": 811,
      "通过虚线": 812,
      "形成": 813,
      "左下角": 814,
      "之间": 815,
      "其右侧": 816,
      "右上角": 817,
      "所有房间": 818,
      "空间": 819,
      "贯穿": 820,
      "西南": 821,
      "左上角": 822,
      "直接相邻": 823,
      "另一个卧室": 824,
      "两个浴室": 825,
      "厨房在": 826,
      "一间浴室": 827,
      "各房间": 828,
      "东北": 829,
      "中间": 830,
      "与厨房相邻": 831,
      "三间卧室": 832,
      "占据": 833,
      "西北": 834,
      "并与": 835,
      "间接": 836,
      "中心": 837,
      "与走廊相连": 838,
      "直接连通": 839,
      "其上方": 840,
      "餐厅": 841,
      "居中": 842,
      "客厅占据": 843,
      "客厅在": 844,
      "底部": 845,
      "靠近": 846,
      "通过走廊与": 847,
      "与浴室相邻": 848,
      "三个卧室": 849,
      "依次": 850,
      "实现": 851,
      "连接厨房": 852,
      "其他": 853,
      "贯穿中部": 854,
      "两间浴室": 855,
      "同时": 856,
      "相接": 857,
      "关系": 858,
      "该卧室": 859,
      "直接相连": 860,
      "结构": 861,
      "两个卧室分别位于": 862,
      "个房间": 863,
      "中部偏": 864,
      "上下": 865,
      "边界": 866,
      "为客厅": 867,
      "另一个": 868,
      "功能": 869,
      "厨房和": 870,
      "连接客厅": 871,
      "紧邻走廊": 872,
      "为浴室": 873,
      "右上方": 874,
      "通过走廊或": 875,
      "卧室在": 876,
      "与卧室相邻": 877,
      "一个浴室": 878,
      "与卧室": 879,
      "为卧室": 880,
      "厨房位于左侧": 881,
      "右下方": 882,
      "延伸": 883,
      "东南侧": 884,
      "中央偏": 885,
      "浴室在": 886,
      "走廊相邻": 887,
      "下方是": 888,
      "书房": 889,
      "东南角": 890,
      "两侧": 891,
      "左下方": 892,
      "过道": 893,
      "通过一": 894,
      "有一间卧室": 895,
      "紧邻客厅": 896,
      "相通": 897,
      "走廊位于": 898,
      "两个浴室分别位于": 899,
      "处于": 900,
      "通道": 901,
      "的浴室": 902,
      "邻接": 903,
      "分布在": 904,
      "与浴室": 905,
      "起居": 906,
      "其左侧": 907,
      "西南侧": 908,
      "与走廊和": 909,
      "为走廊": 910,
      "西北侧": 911,
      "居中偏": 912,
      "其北侧": 913,
      "独立": 914,
      "两个卫生间": 915,
      "整体布局中": 916,
      "相互": 917,
      "西南角": 918,
      "另一间浴室": 919,
      "紧邻厨房": 920,
      "整体布局呈": 921,
      "中间偏": 922,
      "通过虚线连接": 923,
      "左上方": 924,
      "与客厅相连": 925,
      "与右侧": 926,
      "方向": 927,
      "并与之": 928,
      "与上方": 929,
      "间接连通": 930,
      "走廊连接": 931,
      "部分": 932,
      "走廊贯穿中部": 933,
      "与客厅和": 934,
      "通过走廊连接": 935,
      "卧室及": 936,
      "其他房间": 937,
      "与厨房和": 938,
      "上方是": 939,
      "下方连接": 940,
      "正下方": 941,
      "为厨房": 942,
      "客厅和": 943,
      "东北侧": 944,
      "紧邻浴室": 945,
      "客厅相邻": 946,
      "东北角": 947,
      "多个房间": 948,
      "该浴室": 949,
      "西北角": 950,
      "起居室": 951,
      "客厅右侧": 952,
      "与一间卧室": 953,
      "表示": 954,
      "与下方": 955,
      "底部中央": 956,
      "第二": 957,
      "核心": 958,
      "实现连通": 959,
      "其下方": 960,
      "两间浴室分别位于": 961,
      "厨房位于房屋": 962,
      "走廊相连": 963,
      "排列": 964,
      "分布于": 965,
      "共享": 966,
      "通向": 967,
      "次卧": 968,
      "卫生间相邻": 969,
      "卧室和浴室": 970,
      "横向": 971,
      "走廊为": 972,
      "两者": 973,
      "上部": 974,
      "第三间卧室": 975,
      "彼此": 976,
      "和右下": 977,
      "其东侧": 978,
      "左右": 979,
      "色区域": 980,
      "走廊右侧": 981,
      "有一": 982,
      "纵向": 983,
      "与左侧": 984,
      "厨房相邻": 985,
      "通过一条": 986,
      "厨房右侧": 987,
      "和浴室": 988,
      "右侧卧室": 989,
      "走廊的": 990,
      "客厅的": 991,
      "相互连通": 992,
      "连接走廊": 993,
      "其南侧": 994,
      "紧凑": 995,
      "走廊向": 996,
      "),": 997,
      "主卧室": 998,
      "中间卧室": 999,
      "客厅位于房屋": 1000,
      "功能区": 1001,
      "以走廊为": 1002,
      "另一卧室": 1003,
      "下方卧室": 1004,
      "的卧室相邻": 1005,
      "浴室及": 1006,
      "和右侧": 1007,
      "主卧": 1008,
      "其中一个卧室": 1009,
      "连通关系": 1010,
      "连接着": 1011,
      "厨房与": 1012,
      "与一间卧室相邻": 1013,
      "客厅位于左侧": 1014,
      "两个卧室和": 1015,
      "矩形": 1016,
      "北接": 1017,
      "两间卧室分别位于": 1018,
      "上方卧室": 1019,
      "卧室位于房屋": 1020,
      "连接另一间卧室": 1021,
      "客厅与": 1022,
      "走廊呈": 1023,
      "厨房位于左下角": 1024,
      "正上方": 1025,
      "包含": 1026,
      "客厅下方": 1027,
      "次卧室": 1028,
      "所有房间均": 1029,
      "存在": 1030,
      "客厅居中偏": 1031,
      "与走廊及": 1032,
      "关联": 1033,
      "左侧卧室": 1034,
      "垂直": 1035,
      "浴室相连": 1036,
      "通过走廊相连": 1037,
      "右下卧室": 1038,
      "与走廊直接相连": 1039,
      "连接浴室": 1040,
      "连接卧室": 1041,
      "围绕": 1042,
      "设有": 1043,
      "走廊左侧": 1044,
      "和下方": 1045,
      "走廊上方": 1046,
      "厨房位于左上角": 1047,
      "与另一间卧室": 1048,
      "一间": 1049,
      "紧邻卧室": 1050,
      "下位置": 1051,
      "中心偏": 1052,
      "厨房下方": 1053,
      "路径": 1054,
      "右方": 1055,
      "均通过走廊与": 1056,
      "浴室和卧室": 1057,
      "顶部": 1058,
      "一个卫生间": 1059,
      "有一个卧室": 1060,
      "扇门": 1061,
      "客厅上方": 1062,
      "其西侧": 1063,
      "和右下角": 1064,
      "其上方是": 1065,
      "两个卫生间分别位于": 1066,
      "客厅东侧": 1067,
      "走廊居中": 1068,
      "墙体": 1069,
      "中下": 1070,
      "中间浴室": 1071,
      "连接一间卧室": 1072,
      "客厅北侧": 1073,
      "右上卧室": 1074,
      "均与走廊": 1075,
      "中心位置": 1076,
      "其中左上": 1077,
      "走廊横": 1078,
      "形成一个": 1079,
      "各房间通过走廊": 1080,
      "南北": 1081,
      "卧室与浴室": 1082,
      "和一间浴室": 1083,
      "厨房的": 1084,
      "厨房上方": 1085,
      "二者": 1086,
      "客厅左侧": 1087,
      "以及": 1088,
      "的客厅": 1089,
      "走廊东侧": 1090,
      "绿色": 1091,
      "延伸至": 1092,
      "右上区域": 1093,
      "接走廊": 1094,
      "右侧是": 1095,
      "面积": 1096,
      "厨房及": 1097,
      "左中": 1098,
      "另一个浴室": 1099,
      "分别分布于": 1100,
      "明确": 1101,
      "客厅西侧": 1102,
      "各房间通过": 1103,
      "为另一间卧室": 1104,
      "的浴室相邻": 1105,
      "卧室相连": 1106,
      "与餐厅": 1107,
      "各自": 1108,
      "走廊横贯": 1109,
      "浴室与": 1110,
      "三间卧室分别位于": 1111,
      "较大": 1112,
      "共享边界": 1113,
      "左右两侧": 1114,
      "厨房位于左侧中部": 1115,
      "间接相连": 1116,
      "紧邻一间卧室": 1117,
      "卧室与浴室相邻": 1118,
      "走廊下方": 1119,
      "东南区域": 1120,
      "与卧室和": 1121,
      "通过走廊或直接": 1122,
      "最右侧": 1123,
      "相邻且": 1124,
      "另有一间卧室": 1125,
      "中上": 1126,
      "分布着": 1127,
      "主要": 1128,
      "各功能区": 1129,
      "客厅位于中央偏": 1130,
      "与北侧": 1131,
      "两个卧室及": 1132,
      "通过一扇门": 1133,
      "走廊位于房屋": 1134,
      "中心区域": 1135,
      "枢纽": 1136,
      "南部": 1137,
      "卧室与客厅": 1138,
      "不直接相邻": 1139,
      "卧室则": 1140,
      "与浴室和": 1141,
      "入口": 1142,
      "以走廊为核心": 1143,
      "向东": 1144,
      "三个卧室分别位于": 1145,
      "不相邻": 1146,
      "另一间": 1147,
      "其中一间卧室": 1148,
      "并与之相邻": 1149,
      "右中部": 1150,
      "通过虚线表示": 1151,
      "西邻": 1152,
      "整体呈": 1153,
      "和厨房": 1154,
      "走廊贯穿": 1155,
      "动线": 1156,
      "旁边": 1157,
      "厨房左侧": 1158,
      "通过走廊实现": 1159,
      "大部分": 1160,
      "走廊横贯中部": 1161,
      "卧室分布在": 1162,
      "不同": 1163,
      "多个卧室": 1164,
      "房子": 1165,
      "厨房位于左下方": 1166,
      "卫生间位于": 1167,
      "客厅南侧": 1168,
      "中间偏右": 1169,
      "接厨房": 1170,
      "邻近": 1171,
      "其他区域": 1172,
      "与走廊相接": 1173,
      "左上区域": 1174,
      "左下卧室": 1175,
      "与厨房相连": 1176,
      "作为": 1177,
      "两间": 1178,
      "上位置": 1179,
      "均与走廊相连": 1180,
      "生活": 1181,
      "厨房位于右侧": 1182,
      "卧室之间": 1183,
      "环绕": 1184,
      "居住": 1185,
      "向右": 1186,
      "卧室和厨房": 1187,
      "向南": 1188,
      "客厅位于右侧": 1189,
      "空间连通": 1190,
      "蓝色": 1191,
      "左下区域": 1192,
      "两间卧室及": 1193,
      "另一个卧室位于": 1194,
      "规则": 1195,
      "不规则": 1196,
      "平面": 1197,
      "布局的": 1198,
      "放射": 1199,
      "东西": 1200,
      "直接相通": 1201,
      "卧室与厨房": 1202,
      "的居住": 1203,
      "北部": 1204,
      "走廊西侧": 1205,
      "接壤": 1206,
      "向下": 1207,
      "客厅与厨房": 1208,
      "右中": 1209,
      "走廊连接了": 1210,
      "一条": 1211,
      "第二间卧室": 1212,
      "任何": 1213,
      "则与": 1214,
      "连接多个房间": 1215,
      "厨房位于右下角": 1216,
      "东南方向": 1217,
      "并列": 1218,
      "卧室下方": 1219,
      "分别与": 1220,
      "则位于": 1221,
      "卧室均": 1222,
      "厨房与客厅": 1223,
      "通过走廊间接连通": 1224,
      "走廊北侧": 1225,
      "客厅及": 1226,
      "中央走廊": 1227,
      "且与": 1228,
      "东邻": 1229,
      "浴室和厨房": 1230,
      "分区": 1231,
      "南端": 1232,
      "左侧中部": 1233,
      "厨房位于北侧": 1234,
      "分别分布在": 1235,
      "一个卧室相邻": 1236,
      "左邻": 1237,
      "与一间浴室": 1238,
      "包括": 1239,
      "左位置": 1240,
      "有一间浴室": 1241,
      "并排": 1242,
      "放射状": 1243,
      "其右侧紧邻": 1244,
      "连接厨房和": 1245,
      "生活区": 1246,
      "通过门": 1247,
      "西南和": 1248,
      "走廊南侧": 1249,
      "房屋的": 1250,
      "厨房东侧": 1251,
      "水平": 1252,
      "空间结构": 1253,
      "依次排列": 1254,
      "厨房位于右上角": 1255,
      "三间卧室分别分布于": 1256,
      "中部偏右": 1257,
      "其下方是": 1258,
      "第三个卧室": 1259,
      "下方浴室": 1260,
      "有一个": 1261,
      "走廊居中偏": 1262,
      "卧室位于左侧": 1263,
      "其右侧紧邻走廊": 1264,
      "是浴室": 1265,
      "左中部": 1266,
      "与另一间卧室相邻": 1267,
      "房间相邻": 1268,
      "是卧室": 1269,
      "向上": 1270,
      "无直接": 1271,
      "并连通": 1272,
      "厨房南侧": 1273,
      "厨房位于左上方": 1274,
      "相邻关系": 1275,
      "第二间浴室": 1276,
      "均有": 1277,
      "是客厅": 1278,
      "卧室右侧": 1279,
      "左上和": 1280,
      "和右下区域": 1281,
      "均相邻": 1282,
      "中上部": 1283,
      "卧室的": 1284,
      "表明": 1285,
      "浴室右侧": 1286,
      "走廊与": 1287,
      "并与之直接连通": 1288,
      "四间卧室": 1289,
      "右下区域": 1290,
      "与任何": 1291,
      "下方为": 1292,
      "通过走廊连通": 1293,
      "上层": 1294,
      "接客厅": 1295,
      "最上方": 1296,
      "大部分区域": 1297,
      "且均": 1298,
      "夹在": 1299,
      "厨房位于中央偏": 1300,
      "的布局": 1301,
      "西北和": 1302,
      "最下方": 1303,
      "右侧连接": 1304,
      "走廊及": 1305,
      "正南": 1306,
      "横向贯穿中部": 1307,
      "南连": 1308,
      "各个房间": 1309,
      "右侧浴室": 1310,
      "厨房北侧": 1311,
      "功能分区": 1312,
      "但不": 1313,
      "四个卧室": 1314,
      "通过走廊与客厅": 1315,
      "串联": 1316,
      "是厨房": 1317,
      "同时与": 1318,
      "毗邻": 1319,
      "另一间卧室位于": 1320,
      "重叠": 1321,
      "靠近厨房": 1322,
      "与浴室相连": 1323,
      "走廊和": 1324,
      "中部偏左": 1325,
      "上下排列": 1326,
      "均通过走廊或": 1327,
      "厨房与客厅相邻": 1328,
      "另一浴室": 1329,
      "三个": 1330,
      "厨房紧邻": 1331,
      "两个卧室相邻": 1332,
      "主卧室在": 1333,
      "阳台": 1334,
      "东北和": 1335,
      "两个卧室和一个浴室": 1336,
      "显示": 1337,
      "中下部": 1338,
      "多个": 1339,
      "所有房间通过": 1340,
      "通过虚线连接至": 1341,
      "客厅居中": 1342,
      "右侧为": 1343,
      "浴室分布在": 1344,
      "通过走廊或直接相邻": 1345,
      "右侧的": 1346,
      "左侧浴室": 1347,
      "浴室和客厅": 1348,
      "客厅与卧室": 1349,
      "北侧卧室": 1350,
      "东北区域": 1351,
      "一个在": 1352,
      "下部": 1353,
      "和右上角": 1354,
      "客厅与厨房相邻": 1355,
      "再往": 1356,
      "厨房正下方": 1357,
      "靠近浴室": 1358,
      "连接了": 1359,
      "上下相邻": 1360,
      "清晰": 1361,
      "上方浴室": 1362,
      "通过走廊实现连通": 1363,
      "其他房间连通": 1364,
      "连接所有房间": 1365,
      "接浴室": 1366,
      "虚线连接": 1367,
      "整体布局呈不规则": 1368,
      "各房间之间": 1369,
      "东侧卧室": 1370,
      "的卫生间": 1371,
      "中央区域": 1372,
      "方式": 1373,
      "标注": 1374,
      "右侧与": 1375,
      "标示": 1376,
      "其中西北": 1377,
      "各房间通过走廊相互连通": 1378,
      "了一个": 1379,
      "东南卧室": 1380,
      "其右侧紧邻客厅": 1381,
      "拼接": 1382,
      "南侧卧室": 1383,
      "客厅位于左下方": 1384,
      "南邻": 1385,
      "对称": 1386,
      "住宅": 1387,
      "绿色区域": 1388,
      "通过虚线连接表示": 1389,
      "纵向贯穿中部": 1390,
      "下依次": 1391,
      "内部": 1392,
      "仅与": 1393,
      "的卧室与": 1394,
      "与走廊直接连通": 1395,
      "设有一间卧室": 1396,
      "从左": 1397,
      "上方为": 1398,
      "分隔": 1399,
      "右邻": 1400,
      "整体布局紧凑": 1401,
      "通过走廊与客厅相连": 1402,
      "一个走廊": 1403,
      "北邻": 1404,
      "与走廊直接相邻": 1405,
      "过道相邻": 1406,
      "各有一间卧室": 1407,
      "通过一条短": 1408,
      "西南卧室": 1409,
      "客厅相连": 1410,
      "右侧中部": 1411,
      "至右": 1412,
      "厨房位于西南角": 1413,
      "有一个浴室": 1414,
      "左侧为": 1415,
      "厨房和浴室": 1416,
      "形分布": 1417,
      "和南侧": 1418,
      "客厅处于": 1419,
      "通过走廊或直接边界": 1420,
      "床位于": 1421,
      "客厅位于中心偏": 1422,
      "通行": 1423,
      "厨房西侧": 1424,
      "其余": 1425,
      ")、": 1426,
      "另一个在": 1427,
      "整个": 1428,
      "构成": 1429,
      "共用": 1430,
      "与客厅直接相邻": 1431,
      "形成以走廊为核心": 1432,
      "与客厅和走廊相邻": 1433,
      "四周": 1434,
      "无独立": 1435,
      "卧室位于左上角": 1436,
      "组合": 1437,
      "自上": 1438,
      "东连": 1439,
      "并与其": 1440,
      "通过一条走廊相连": 1441,
      "自上而": 1442,
      "右下角卧室": 1443,
      "组成": 1444,
      "间接连接": 1445,
      "又与": 1446,
      "相对": 1447,
      "另一个卧室在": 1448,
      "东西两侧": 1449,
      "连通客厅": 1450,
      "与客厅及": 1451,
      "各功能": 1452,
      "的客厅相邻": 1453,
      "另一个卧室相邻": 1454,
      "潜在": 1455,
      "其右侧与走廊相邻": 1456,
      "厨房位于上方": 1457,
      "厨房和客厅": 1458,
      "向北": 1459,
      "接卧室": 1460,
      "直接连接": 1461,
      "厨房位于西北角": 1462,
      "两个浴室和": 1463,
      "的浴室和": 1464,
      "走廊横向贯穿中部": 1465,
      "设有一间浴室": 1466,
      "下连": 1467,
      "不与任何": 1468,
      "和卫生间": 1469,
      "厨房位于东南角": 1470,
      "东北方向": 1471,
      "布局包含": 1472,
      "厨房在右上角": 1473,
      "并通过一扇门": 1474,
      "客厅正下方": 1475,
      "平面图": 1476,
      "功能分区明确": 1477,
      "通往": 1478,
      "和卧室": 1479,
      "东部": 1480,
      "大片": 1481,
      "中间区域": 1482,
      "十字": 1483,
      "与卧室相连": 1484,
      "第一间卧室": 1485,
      "衔接": 1486,
      "大面积": 1487,
      "客厅和厨房": 1488,
      "有一间": 1489,
      "卧室南侧": 1490,
      "走廊位于中心位置": 1491,
      "厨房在右下角": 1492,
      "与一间浴室相邻": 1493,
      "仅与走廊相邻": 1494,
      "连接一个卧室": 1495,
      "厨房位于餐厅": 1496,
      "的放射状": 1497,
      "上方的卧室": 1498,
      "其右侧紧邻浴室": 1499,
      "走廊作为": 1500,
      "和东侧": 1501,
      "从左至右": 1502,
      "无直接连通": 1503,
      "连接关系": 1504,
      "其中一个": 1505,
      "通过虚线标示": 1506,
      "均与走廊或": 1507,
      "并连接": 1508,
      "大片区域": 1509,
      "的厨房": 1510,
      "与厨房直接相邻": 1511,
      "厨房位于底部中央": 1512,
      "西侧卧室": 1513,
      "下层": 1514,
      "和一间卧室": 1515,
      "无直接相邻": 1516,
      "通过走廊间接相连": 1517,
      "均与走廊相邻": 1518,
      "对应": 1519,
      "右侧卧室相邻": 1520,
      "实现空间连通": 1521,
      "黄色区域": 1522,
      "依次连接": 1523,
      "浴室分别位于": 1524,
      "西南区域": 1525,
      "红色": 1526,
      "辐射": 1527,
      "下方的卧室": 1528,
      "右下角的卧室": 1529,
      "以矩形": 1530,
      "块状": 1531,
      "通过虚线表示的": 1532,
      "卧室和客厅": 1533,
      "一个客厅": 1534,
      "与走廊和浴室相邻": 1535,
      "示意": 1536,
      "偏右": 1537,
      "靠近走廊": 1538,
      "另一个卫生间": 1539,
      "为核心": 1540,
      "仅通过走廊与": 1541,
      "正北": 1542,
      "形成以": 1543,
      "为卫生间": 1544,
      "右上角的卧室": 1545,
      "接触": 1546,
      "相邻卧室": 1547,
      "客厅位于布局": 1548,
      "绿色卧室": 1549,
      "的连通": 1550,
      "还有一间卧室": 1551,
      "左侧与": 1552,
      "中央偏右": 1553,
      "形成一个紧凑": 1554,
      "隔开": 1555,
      "厨房处于": 1556,
      "左侧卧室与": 1557,
      "客厅位于底部中央": 1558,
      "东北卧室": 1559,
      "同样": 1560,
      "与右侧卧室相邻": 1561,
      "此卧室": 1562,
      "下方与": 1563,
      "中部偏南": 1564,
      "相互连接": 1565,
      "房子的": 1566,
      "右侧的卧室": 1567,
      "下方是客厅": 1568,
      "西连": 1569,
      "门洞": 1570,
      "客厅位于入口": 1571,
      "西侧与": 1572,
      "厨房与浴室": 1573,
      "纵向贯穿": 1574,
      "垂直相邻": 1575,
      "中间偏右位置": 1576,
      "走廊连接着": 1577,
      "厨房位于中心偏": 1578,
      "和右上": 1579,
      "浴室下方": 1580,
      "客厅位于左上角": 1581,
      "和一个浴室": 1582,
      "此外": 1583,
      "客厅位于左上方": 1584,
      "之间有一": 1585,
      "中部偏东": 1586,
      "不直接相连": 1587,
      "一个厨房": 1588,
      "三个卧室分别分布在": 1589,
      "连接一间浴室": 1590,
      "厨房紧邻餐厅": 1591,
      "黄色": 1592,
      "下方卧室相邻": 1593,
      "东侧与": 1594,
      "一个浴室相邻": 1595,
      "东南和": 1596,
      "各区域": 1597,
      "并与走廊相连": 1598,
      "与上方卧室相邻": 1599,
      "与其他房间": 1600,
      "连接上下": 1601,
      "卧室不": 1602,
      "虚线表示": 1603,
      "蓝色区域": 1604,
      "该卫生间": 1605,
      "与客厅相接": 1606,
      "依次为": 1607,
      "走廊向上": 1608,
      "右侧为客厅": 1609,
      "三个卧室分别位于左上": 1610,
      "的空间结构": 1611,
      "右侧浴室相邻": 1612,
      "卫生间处于": 1613,
      "矩形区域": 1614,
      "和右下方": 1615,
      "多房间": 1616,
      "卧室北侧": 1617,
      "厨房位于西北侧": 1618,
      "靠近客厅": 1619,
      "其中左上卧室": 1620,
      "客厅右上方": 1621,
      "厨房位于左上区域": 1622,
      "客厅占据右侧": 1623,
      "下方浴室相邻": 1624,
      "左上卧室": 1625,
      "右端": 1626,
      "下方则": 1627,
      "主卧室位于": 1628,
      "最南端": 1629,
      "餐厅东侧": 1630,
      "客厅位于左下角": 1631,
      "其中两个卧室": 1632,
      "其中一间": 1633,
      "左侧的卧室": 1634,
      "其他功能区": 1635,
      "则处于": 1636,
      "分别连接": 1637,
      "通过一条走廊": 1638,
      "与上方卧室": 1639,
      "与厨房和走廊相邻": 1640,
      "形成连通": 1641,
      "紧邻一个卧室": 1642,
      "中部偏北": 1643,
      "上方是客厅": 1644,
      "并与之相连": 1645,
      "该空间": 1646,
      "下方的": 1647,
      "厨房正上方": 1648,
      "走廊两侧": 1649,
      "客厅右下方": 1650,
      "是另一个卧室": 1651,
      "厨房位于东北角": 1652,
      "依次排列着": 1653,
      "与之": 1654,
      "浴室的": 1655,
      "”,": 1656,
      "与东侧": 1657,
      "北端": 1658,
      "空间关联": 1659,
      "另有一间浴室": 1660,
      "浴室处于": 1661,
      "其右侧紧邻厨房": 1662,
      "中间浴室相邻": 1663,
      "卧室和厨房之间": 1664,
      "东端": 1665,
      "与厨房及": 1666,
      "两个浴室及": 1667,
      "中部偏西": 1668,
      "且连通": 1669,
      "两间浴室及": 1670,
      "各有一个卧室": 1671,
      "右上角卧室": 1672,
      "均不": 1673,
      "还有一个卧室": 1674,
      "和走廊": 1675,
      "是餐厅": 1676,
      "其中左上角": 1677,
      "另一个位于": 1678,
      "起居空间": 1679,
      "客厅正": 1680,
      "客厅位于左侧中部": 1681,
      "其他区域连通": 1682,
      "最大": 1683,
      "所有主要": 1684,
      "独立于": 1685,
      "彼此相邻": 1686,
      "顶部中央": 1687,
      "客厅位于入口右侧": 1688,
      "客厅正上方": 1689,
      "右上和": 1690,
      "第四间卧室": 1691,
      "卧室上方": 1692,
      "厨房相连": 1693,
      "中间偏下位置": 1694,
      "条状": 1695,
      "直接或": 1696,
      "浴室和走廊": 1697,
      "厨房位于西南侧": 1698,
      "一个位于": 1699,
      "是卫生间": 1700,
      "是走廊": 1701,
      "走廊右上方": 1702,
      "相邻浴室": 1703,
      "中间偏左": 1704,
      "与下方卧室相邻": 1705,
      "左下角和右下角": 1706,
      "中部偏下": 1707,
      "三间卧室分别位于左上": 1708,
      "客厅与卧室相邻": 1709,
      "南侧与": 1710,
      "两间卧室和一间浴室": 1711,
      "通向客厅": 1712,
      "和东南角": 1713,
      "浴室上方": 1714,
      "下方是浴室": 1715,
      "均通过虚线": 1716,
      "连接另一个卧室": 1717,
      "的布局结构": 1718,
      "走廊右下方": 1719,
      "右侧与客厅相邻": 1720,
      "整体布局呈现": 1721,
      "对面": 1722,
      ");": 1723,
      "北接走廊": 1724,
      "均通过走廊连接": 1725,
      "上方卧室与": 1726,
      "形成以走廊为": 1727,
      "右侧则": 1728,
      "三间浴室": 1729,
      "北侧与": 1730,
      "该卧室下方": 1731,
      "仅与走廊相连": 1732,
      "物理": 1733,
      "直接邻接": 1734,
      "客厅位于中心位置": 1735,
      "下方连接走廊": 1736,
      "它们": 1737,
      "实线": 1738,
      "式布局": 1739,
      "其上方是卧室": 1740,
      "的卧室位于": 1741,
      "另一间卧室及": 1742,
      "后方": 1743,
      "连接另一间浴室": 1744,
      "一个卧室位于": 1745,
      "各房间通过走廊实现连通": 1746,
      "右连": 1747,
      "客厅占据右上区域": 1748,
      "均与": 1749,
      "开放": 1750,
      "斜向": 1751,
      "上方是卧室": 1752,
      "右上和右下": 1753,
      "相邻或": 1754,
      "客厅北侧是餐厅": 1755,
      "和左下角": 1756,
      "该卧室右侧": 1757,
      "形成紧凑": 1758,
      "南北两侧": 1759,
      "紫色": 1760,
      "视觉": 1761,
      "该图": 1762,
      "长条状": 1763,
      "通过虚线示意": 1764,
      "客厅占据东南区域": 1765,
      "非对称": 1766,
      "连接左侧": 1767,
      "走廊连接了厨房": 1768,
      "浴室则": 1769,
      "与客厅直接相连": 1770,
      "走廊向北": 1771,
      "其中一个卧室位于": 1772,
      "连通厨房": 1773,
      "所有房间通过走廊或直接边界": 1774,
      " 卧室": 1775,
      "和上方": 1776,
      "两个卧室之间": 1777,
      "右上角和右下角": 1778,
      "三者": 1779,
      "红色区域": 1780,
      "边缘": 1781,
      "卫生间相连": 1782,
      "分布的": 1783,
      "其他空间": 1784,
      "客厅房间": 1785,
      "右上和右下区域": 1786,
      "该卧室上方": 1787,
      "客厅居中偏下": 1788,
      "自上而下依次": 1789,
      "卧室与客厅相邻": 1790,
      "依次分布着": 1791,
      "向西": 1792,
      "有两个": 1793,
      "走廊或": 1794,
      "走廊连接客厅": 1795,
      "公共": 1796,
      "相邻房间": 1797,
      "蓝色浴室": 1798,
      "的放射状布局": 1799,
      "其中两个卧室分别位于": 1800,
      "两间卧室相邻": 1801,
      "该卧室的": 1802,
      "和客厅": 1803,
      "和右中部": 1804,
      "仅与走廊和": 1805,
      "紧邻另一间卧室": 1806,
      "的浴室相连": 1807,
      "上方是浴室": 1808,
      "水平相邻": 1809,
      "区域相邻": 1810,
      " 相邻": 1811,
      "独立浴室": 1812,
      "无重叠": 1813,
      "另一卧室相邻": 1814,
      "第二个": 1815,
      "走廊向右": 1816,
      "对齐": 1817,
      "有两个卧室": 1818,
      "厨房位于东南侧": 1819,
      "紧邻一间浴室": 1820,
      "部分重叠": 1821,
      "以矩形块状": 1822,
      "走廊正下方": 1823,
      "下方中央": 1824,
      "西南方向": 1825,
      "上接": 1826,
      "和底部中央": 1827,
      "连接北侧": 1828,
      "厨房位于南侧": 1829,
      "与左侧卧室": 1830,
      "主卧位于": 1831,
      "北向南": 1832,
      "南侧为": 1833,
      "的卧室相连": 1834,
      "形成连通关系": 1835,
      "其中一间卧室位于": 1836,
      "走廊居中偏右": 1837,
      "的走廊": 1838,
      "其他房间相连": 1839,
      "均与走廊直接连通": 1840,
      "不同区域": 1841,
      "卧室东侧": 1842,
      "客厅在餐厅": 1843,
      "三个卧室和": 1844,
      "另外": 1845,
      "是另一间卧室": 1846,
      "一个浴室和": 1847,
      "另一间浴室相邻": 1848,
      "阶梯": 1849,
      "左下角卧室": 1850,
      "所有房间通过走廊或直接相邻": 1851,
      "北侧并与之直接连通": 1852,
      "所有卧室均": 1853,
      "卧室和走廊": 1854,
      "封闭": 1855,
      "并与走廊": 1856,
      "东侧为": 1857,
      "两间卧室之间": 1858,
      "通过虚线相连": 1859,
      "厨房在左下角": 1860,
      "西北区域": 1861,
      "一条走廊": 1862,
      "与一个卧室相邻": 1863,
      "由走廊": 1864,
      "走廊纵向贯穿中部": 1865,
      "上方浴室相邻": 1866,
      "和两间浴室": 1867,
      "西边": 1868,
      "西向东": 1869,
      "通过走廊相互连通": 1870,
      "延伸连接": 1871,
      "一间在": 1872,
      "部分房间": 1873,
      "其中左上卧室与": 1874,
      "上至": 1875,
      "中央偏下位置": 1876,
      "中间卧室相邻": 1877,
      "并与走廊相邻": 1878,
      "并通过": 1879,
      "与餐厅相连": 1880,
      "左方": 1881,
      "床铺": 1882,
      "西端": 1883,
      "左侧为浴室": 1884,
      "独立卧室": 1885,
      "下方连接浴室": 1886,
      "中右": 1887,
      "介于": 1888,
      "另设": 1889,
      "南面": 1890,
      "次卧室在": 1891,
      "厨房居中偏": 1892,
      "各房间通过走廊或": 1893,
      "另有一": 1894,
      "核心通道": 1895,
      "彼此不直接相连": 1896,
      "整个布局": 1897,
      "与客厅相通": 1898,
      "左下和": 1899,
      "无独立封闭": 1900,
      "布置": 1901,
      "门相通": 1902,
      "通过走廊与厨房": 1903,
      "其上方为": 1904,
      "通过走廊连接至": 1905,
      "另一间在": 1906,
      "自北向南": 1907,
      "左右相邻": 1908,
      "及下方": 1909,
      "厨房与卧室相邻": 1910,
      "所有房间通过虚线表示的": 1911,
      "与厨房相邻且": 1912,
      "过渡": 1913,
      "浴室位于房屋": 1914,
      "通过一扇": 1915,
      "与左侧卧室相邻": 1916,
      "联系": 1917,
      "还有一个": 1918,
      "厨房房间": 1919,
      "实现空间": 1920,
      "起居区": 1921,
      "较大区域": 1922,
      "走廊相接": 1923,
      "中间偏左位置": 1924,
      "走廊贯穿南北": 1925,
      "厨房紧邻餐厅左侧": 1926,
      "北连": 1927,
      "均位于": 1928,
      "右侧连接另一间卧室": 1929,
      "另一个卧室相连": 1930,
      "底部卧室": 1931,
      "下方是走廊": 1932,
      "且功能分区明确": 1933,
      "彼此相邻且": 1934,
      "形成一个紧凑的居住": 1935,
      "共同": 1936,
      "上方与": 1937,
      "客厅位于西北侧": 1938,
      "客厅与餐厅": 1939,
      "浴室房间": 1940,
      "上方为卧室": 1941,
      "其右侧紧邻卧室": 1942,
      "厨房在客厅西侧": 1943,
      "通道相连": 1944,
      "所有房间均通过走廊实现": 1945,
      "两个浴室相邻": 1946,
      "直接或间接": 1947,
      "上方为客厅": 1948,
      "左上角和右下角": 1949,
      "下方连接另一间卧室": 1950,
      "两者通过一条走廊相连": 1951,
      "的方式": 1952,
      "走廊位于中心区域": 1953,
      "通道相互连通": 1954,
      "客厅占据右侧大部分区域": 1955,
      "和另一间卧室": 1956,
      "客厅与走廊": 1957,
      "厨房和走廊": 1958,
      "均通过走廊与其他房间连通": 1959,
      "另一间位于": 1960,
      "竖直": 1961,
      "左下和右下": 1962,
      "完整": 1963,
      "右上及": 1964,
      "另一间卧室在": 1965,
      "所有房间通过走廊或": 1966,
      "个房间和": 1967,
      "形状": 1968,
      "形贯穿中部": 1969,
      "厨房与浴室相邻": 1970,
      "形成了一个": 1971,
      "间接关联": 1972,
      "延伸出": 1973,
      "邻接关系": 1974,
      "两个卧室和两个浴室": 1975,
      " 浴室": 1976,
      "南接": 1977,
      "浴室直接相邻": 1978,
      "浴室与卧室": 1979,
      "客厅位于西南侧": 1980,
      "其中一个卧室相邻": 1981,
      "垂直排列": 1982,
      "两间卫生间": 1983,
      "边线": 1984,
      "中部偏上": 1985,
      "厨房和卧室": 1986,
      "较大的": 1987,
      "但不直接连通": 1988,
      "仅与客厅相邻": 1989,
      "及浴室": 1990,
      "浴室与厨房": 1991,
      "客厅与走廊相邻": 1992,
      "厨房位于布局": 1993,
      "右下卧室相邻": 1994,
      "形成围绕": 1995,
      "其上方为浴室": 1996,
      "第二个卧室": 1997,
      "其上方是浴室": 1998,
      "其正": 1999,
      "隔墙": 2000,
      "靠近卧室": 2001,
      "起居室相邻": 2002,
      "自西向东": 2003,
      "右侧相邻": 2004,
      "上方和下方": 2005,
      "其中一": 2006,
      "两个卧室分别位于左上和": 2007,
      "下方是另一个卧室": 2008,
      "其上方是走廊": 2009,
      "连接一间卧室和一间浴室": 2010,
      "上侧": 2011,
      "与次卧": 2012,
      "和东南侧": 2013,
      "网络": 2014,
      "卧室与厨房相邻": 2015,
      "整体布局清晰": 2016,
      "其左侧与一间卧室相邻": 2017,
      "中间偏下": 2018,
      "三个卧室分布在": 2019,
      "卧室位于房屋西侧": 2020,
      "与另一间卧室相连": 2021,
      "床的": 2022,
      "连接餐厅": 2023,
      "连接各个房间": 2024,
      "连通结构": 2025,
      "客厅位于上方": 2026,
      "整体布局以走廊为核心": 2027,
      "西北方向": 2028,
      "为一间卧室": 2029,
      "走廊同时": 2030,
      "其右侧为走廊": 2031,
      "与走廊和卧室相邻": 2032,
      "连通路径": 2033,
      "上方是另一个卧室": 2034,
      "且不": 2035,
      "互通": 2036,
      "厨房与卧室": 2037,
      "左侧为卧室": 2038,
      "客厅位于北侧": 2039,
      "右上卧室与": 2040,
      "且与客厅": 2041,
      "再向右": 2042,
      "环形": 2043,
      "右侧与走廊相邻": 2044,
      "之间有": 2045,
      "所有房间均通过": 2046,
      "仅与客厅和": 2047,
      "一间卧室相邻": 2048,
      "整体布局呈十字": 2049,
      "其正下方": 2050,
      "依次为卧室": 2051,
      "上下两": 2052,
      "方向上": 2053,
      "走廊呈纵向贯穿中部": 2054,
      "与中间": 2055,
      "是一个": 2056,
      "贯通": 2057,
      "右侧为走廊": 2058,
      "客厅位于东南侧": 2059,
      "客厅位于中心区域": 2060,
      "西侧与客厅相邻": 2061,
      "浴室位于右侧": 2062,
      "与走廊和客厅相邻": 2063,
      "起居室位于": 2064,
      "该图显示": 2065,
      "底层": 2066,
      "右侧与厨房相邻": 2067,
      "上方卧室相邻": 2068,
      "整体布局的": 2069,
      "上方是走廊": 2070,
      "床相邻": 2071,
      "客厅为核心": 2072,
      "区域包含": 2073,
      "紧邻一个浴室": 2074,
      "左下角的卧室": 2075,
      "走廊向西": 2076,
      "并与客厅": 2077,
      "连接两个卧室": 2078,
      "左侧和右侧": 2079,
      "浴室和另一间卧室": 2080,
      "独立卫生间": 2081,
      "右下卧室则": 2082,
      "阶梯状": 2083,
      "东接": 2084,
      "以中央": 2085,
      "并通过走廊与": 2086,
      "玄关": 2087,
      "厨房紧邻客厅": 2088,
      "右侧卧室及": 2089,
      "下方为浴室": 2090,
      "北接客厅": 2091,
      "客厅居中偏上": 2092,
      "的居住空间结构": 2093,
      "最东侧": 2094,
      "北侧为": 2095,
      "通过虚线与": 2096,
      "通过一条短走廊相连": 2097,
      "上的": 2098,
      "东边": 2099,
      "及厨房": 2100,
      "及右侧": 2101,
      "卧室西侧": 2102,
      "走廊在": 2103,
      "左侧与一间卧室相邻": 2104,
      "另一间卧室相邻": 2105,
      "客厅东侧并与之直接连通": 2106,
      "整体布局呈不规则形状": 2107,
      "中左": 2108,
      "所有房间通过走廊实现": 2109,
      "厨房位于房屋西侧": 2110,
      "与卧室和走廊相邻": 2111,
      "客厅与卧室通过走廊相连": 2112,
      "卫生间东侧": 2113,
      "客厅位于右下角": 2114,
      "其上方为卧室": 2115,
      "客厅在左下角": 2116,
      "书房位于": 2117,
      "上部中央": 2118,
      "两个卧室和一个卫生间": 2119,
      "一面": 2120,
      "以虚线": 2121,
      "形环绕": 2122,
      "走廊正上方": 2123,
      "下方是卧室": 2124,
      "所有主要房间": 2125,
      "与卫生间相邻": 2126,
      "并通向": 2127,
      "相望": 2128,
      "东南部": 2129,
      "各房间通过虚线标示": 2130,
      "左中和": 2131,
      "再往右": 2132,
      "浴室东侧": 2133,
      "客厅居中偏南": 2134,
      "为餐厅": 2135,
      "并延伸至": 2136,
      "上方为浴室": 2137,
      "分布两间卧室": 2138,
      "三个卧室分别分布于": 2139,
      "其中西北卧室": 2140,
      "尽头": 2141,
      "次卧室和厨房之间": 2142,
      "连接卫生间": 2143,
      "通过走廊与厨房相连": 2144,
      "客厅位于下方": 2145,
      "通过门洞": 2146,
      "并通过走廊连接": 2147,
      "浴室与客厅": 2148,
      "邻接走廊": 2149,
      "通过走廊间接": 2150,
      "并直接连通": 2151,
      "或走廊": 2152,
      "进入": 2153,
      "卧室位于北侧": 2154,
      "走廊呈横向": 2155,
      "客厅居中偏右": 2156,
      "上邻": 2157,
      "西侧为": 2158,
      "一个客厅和": 2159,
      "与客厅相邻且": 2160,
      "三间卧室分别分布在": 2161,
      "通过门相连": 2162,
      "客厅位于中央": 2163,
      "左上角卧室": 2164,
      "另一个浴室相邻": 2165,
      "与浴室和走廊相邻": 2166,
      "拼接结构": 2167,
      "分散": 2168,
      "夹于": 2169,
      "并通过虚线连接": 2170,
      "下方为客厅": 2171,
      "走廊居中连接": 2172,
      "各功能房间": 2173,
      "与多个房间": 2174,
      "中央走廊连接": 2175,
      "北接厨房": 2176,
      "大部分空间": 2177,
      "表明存在": 2178,
      "一面墙": 2179,
      "南接走廊": 2180,
      "堆叠": 2181,
      "紫色区域": 2182,
      "卧室位于左下角": 2183,
      "卧室位于西南侧": 2184,
      "左上角和右上角": 2185,
      "其上方紧邻客厅": 2186,
      "两间卧室及一间浴室": 2187,
      "主卧室在客厅正": 2188,
      "且两者": 2189,
      "四个": 2190,
      "均通过": 2191,
      "次卧室相邻": 2192,
      "其他空间连通": 2193,
      "通过走廊连接客厅": 2194,
      "与南侧": 2195,
      "上方和右侧": 2196,
      "右上部": 2197,
      "下侧": 2198,
      "的客厅和": 2199,
      "卧室分别位于": 2200,
      "右侧连接客厅": 2201,
      "与客厅或": 2202,
      "东侧为客厅": 2203,
      "其中一个浴室": 2204,
      "客厅占据右下": 2205,
      "三间卧室分别分布于左上": 2206,
      "左端": 2207,
      "或功能": 2208,
      "的房间": 2209,
      "厨房位于东侧": 2210,
      "客厅位于南侧": 2211,
      "厨房在东南角": 2212,
      "各房间通过走廊相连": 2213,
      "各房间通过虚线连接表示": 2214,
      "该卧室左侧": 2215,
      "次卧室在主卧室": 2216,
      " 与": 2217,
      "隔走廊": 2218,
      "上方连接": 2219,
      "厨房位于东北侧": 2220,
      "分别与两者": 2221,
      "长条状贯穿中部": 2222,
      "右侧卧室与": 2223,
      "一个厨房和": 2224,
      "走廊位于中央": 2225,
      "厨房位于房屋南侧": 2226,
      "另有一个卧室": 2227,
      "的连通关系": 2228,
      "直线": 2229,
      "两个卧室相连": 2230,
      "标记": 2231,
      "分别靠近": 2232,
      "左下卧室与": 2233,
      "其右侧为": 2234,
      "三个卧室分布于": 2235,
      "中上和": 2236,
      "它们之间": 2237,
      "上至下依次": 2238,
      "主卧室与": 2239,
      "此浴室": 2240,
      "东侧则": 2241,
      "次卧室之间": 2242,
      "右侧是客厅": 2243,
      "厨房位于餐厅北侧并与之直接连通": 2244,
      "以矩形块状分布": 2245,
      "该布局包含": 2246,
      "通过走廊间接连接": 2247,
      "房屋北侧": 2248,
      "其上方是客厅": 2249,
      "无直接相邻房间": 2250,
      "开放式": 2251,
      "和底部": 2252,
      "走廊尽头": 2253,
      "其右侧与客厅相邻": 2254,
      "厨房在东北角": 2255,
      "中间位置": 2256,
      "三间卧室及": 2257,
      "邻接厨房": 2258,
      "厨房位于上方中央": 2259,
      "并与厨房": 2260,
      "或通道": 2261,
      "卧室与走廊": 2262,
      "客厅与浴室": 2263,
      "客厅位于右上角": 2264,
      "与浴室相邻且": 2265,
      "客厅和浴室": 2266,
      "自上而下": 2267,
      "该空间由": 2268,
      "东面": 2269,
      "方位": 2270,
      "右侧紧邻客厅": 2271,
      "一个卫生间相邻": 2272,
      "浴室位于左侧": 2273,
      "客厅占据右上": 2274,
      "中间偏上": 2275,
      "中间偏上位置": 2276,
      "与厨房和浴室相邻": 2277,
      "个房间和一个走廊": 2278,
      "右侧为卧室": 2279,
      "厨房位于西侧": 2280,
      "直接边界": 2281,
      "空间布局": 2282,
      "其下方紧邻走廊": 2283,
      "与左侧卧室和": 2284,
      "各功能空间": 2285,
      "一侧": 2286,
      "与西侧": 2287,
      "浴室紧邻": 2288,
      "厨房位于中心位置": 2289,
      "客厅位于左下区域": 2290,
      "其上方紧邻走廊": 2291,
      "三间卧室分别分布于西北": 2292,
      "门相连": 2293,
      "右侧连接厨房": 2294,
      "左侧为客厅": 2295,
      "房屋布局": 2296,
      "与右侧卧室": 2297,
      "三间卧室分别位于西北": 2298,
      "其他区域相连": 2299,
      "单元": 2300,
      "推拉": 2301,
      "右侧为浴室": 2302,
      "厨房在左上角": 2303,
      "与客厅和浴室相邻": 2304,
      "之间有一条": 2305,
      "可达": 2306,
      "走廊分布": 2307,
      "厨房右上方": 2308,
      "南侧连接": 2309,
      "客厅居中偏北": 2310,
      "厨房位于走廊": 2311,
      "与走廊连通": 2312,
      "西侧连接": 2313,
      "客厅在右侧": 2314,
      "卧室及浴室": 2315,
      "三间": 2316,
      "依次是": 2317,
      "该卧室东侧": 2318,
      "客厅和卧室": 2319,
      "其南侧紧邻走廊": 2320,
      "其中一个卧室与浴室相邻": 2321,
      "通行路径": 2322,
      "——": 2323,
      "处在": 2324,
      "客厅区域": 2325,
      "连通的": 2326,
      "其上方为走廊": 2327,
      "主卧室和": 2328,
      "下方卧室与": 2329,
      "其中一间浴室": 2330,
      "上下两侧": 2331,
      "与下方卧室": 2332,
      "上方的": 2333,
      "卫生间及": 2334,
      "卧室位于右侧": 2335,
      "所有房间围绕": 2336,
      "客厅在右上角": 2337,
      "形成一个完整": 2338,
      "通过一条短走廊": 2339,
      "实线边界": 2340,
      "东接走廊": 2341,
      "厨房与走廊相邻": 2342,
      "紧邻卫生间": 2343,
      "依次相邻": 2344,
      "中央偏下": 2345,
      "邻接浴室": 2346,
      "与右侧的卧室相邻": 2347,
      "客厅位于中央偏上位置": 2348,
      "客厅同时": 2349,
      "厨房位于左上": 2350,
      "房屋中部": 2351,
      "浴室和两个卧室": 2352,
      "之间由": 2353,
      "各房间通过走廊或直接相邻": 2354,
      "东北部": 2355,
      "间接或": 2356,
      "客厅占据房屋": 2357,
      "或客厅": 2358,
      "设置": 2359,
      "左侧浴室相邻": 2360,
      "客厅位于左上区域": 2361,
      "其中左下卧室": 2362,
      "走廊向南": 2363,
      "形成一个整体": 2364,
      "多个卧室和浴室": 2365,
      "其余房间": 2366,
      "走廊向右延伸": 2367,
      "南侧为客厅": 2368,
      "其北侧与走廊相邻": 2369,
      "其中一个卧室在": 2370,
      "均通过走廊与其他区域连通": 2371,
      "较大面积": 2372,
      "客厅位于中央偏左": 2373,
      "的居住空间": 2374,
      "走廊居中偏下": 2375,
      "下邻": 2376,
      "与一个卧室": 2377,
      "向左": 2378,
      "四个房间": 2379,
      "分别连通": 2380,
      "的卧室则": 2381,
      "东南卧室则": 2382,
      "功能空间": 2383,
      "厨房和卧室之间": 2384,
      "第一间浴室": 2385,
      "位于左侧": 2386,
      "右侧为厨房": 2387,
      "南侧的": 2388,
      "另一间卧室相连": 2389,
      "卧室位于西北侧": 2390,
      "与走廊和厨房相邻": 2391,
      "两卧室": 2392,
      "附近": 2393,
      "卧室处于": 2394,
      "连接卧室和浴室": 2395,
      "与厨房相接": 2396,
      "其中上方卧室": 2397,
      "另一个浴室位于": 2398,
      "以走廊为中心": 2399,
      "走廊向上延伸": 2400,
      "矩形区域组成": 2401,
      "该图显示了一个": 2402,
      "通过通道": 2403,
      "三间卧室和两间浴室": 2404,
      "下方连接着": 2405,
      "厨房位于房屋北侧": 2406,
      "三个卧室分别分布在左上": 2407,
      "的东侧": 2408,
      "右侧与走廊相连": 2409,
      "下方连接厨房": 2410,
      "厨房在客厅": 2411,
      "通过走廊或通道": 2412,
      ";“": 2413,
      "不直接": 2414,
      "与过道": 2415,
      "的右侧": 2416,
      "卧室房间": 2417,
      "浴室均": 2418,
      "厨房右下方": 2419,
      "紧邻主卧室": 2420,
      "其右侧为浴室": 2421,
      "厨房在西南角": 2422,
      "客厅占据右下区域": 2423,
      "卧室位于房屋西南侧": 2424,
      "通过走廊或直接墙体": 2425,
      "串联起": 2426,
      "上接厨房": 2427,
      "与两个卧室相邻": 2428,
      "被走廊": 2429,
      "北侧浴室": 2430,
      "东侧的": 2431,
      "卧室位于东南侧": 2432,
      "与上方的卧室": 2433,
      "通过走廊连接其他房间": 2434,
      "围绕其": 2435,
      "正南方": 2436,
      "多个位置": 2437,
      "且通过一条走廊": 2438,
      "划分": 2439,
      "西接走廊": 2440,
      "整体形成": 2441,
      "该浴室又": 2442,
      "厨房位于房屋西北侧": 2443,
      "走廊呈竖直": 2444,
      "与北侧卧室": 2445,
      "向下连接": 2446,
      "大面积区域": 2447,
      "与卫生间": 2448,
      "且与厨房": 2449,
      "并与客厅相邻": 2450,
      "厨房位于客厅右侧": 2451,
      "客厅位于左下": 2452,
      "其中左侧卧室": 2453,
      "依次分布": 2454,
      "与厨房和走廊相连": 2455,
      "厨房位于房屋西南侧": 2456,
      "连接了多个房间": 2457,
      "两间卫生间分别位于": 2458,
      "交叉": 2459,
      "末端": 2460,
      "西接": 2461,
      "下方为卧室": 2462,
      "卫生间则": 2463,
      "卫生间则处于": 2464,
      "与走廊相邻且": 2465,
      "左下角和右上角": 2466,
      "中央偏上位置": 2467,
      "有一条": 2468,
      "各自邻近": 2469,
      "为另一个卧室": 2470,
      "为另一卧室": 2471,
      "偏左": 2472,
      "右边": 2473,
      "浴室左侧": 2474,
      "客厅为": 2475,
      "占据了": 2476,
      "厨房和卫生间": 2477,
      "两者通过一扇": 2478,
      "卧室位于房屋东侧": 2479,
      "旁边是浴室": 2480,
      "三个卧室和两个浴室": 2481,
      "浴室与厨房相邻": 2482,
      "所有房间均通过走廊实现连通": 2483,
      "存在连通关系": 2484,
      "展示": 2485,
      "连续": 2486,
      "浴室居中偏": 2487,
      "与走廊相通": 2488,
      "通过走廊连接厨房": 2489,
      "其中左侧": 2490,
      "西侧则": 2491,
      "右上卧室相邻": 2492,
      "房屋西侧": 2493,
      "直接相邻或": 2494,
      "通过走廊与其他房间连通": 2495,
      "下方连接一间卧室": 2496,
      "面积最大": 2497,
      "不同位置": 2498,
      "走廊作为中心": 2499,
      "无直接连通房间": 2500,
      "多间卧室": 2501,
      "与走廊直接相通": 2502,
      "区域由": 2503,
      "两个卧室分别": 2504,
      "其右侧紧邻一个卧室": 2505,
      "主卧室在客厅正后方": 2506,
      "没有": 2507,
      "的西侧": 2508,
      "西部": 2509,
      "客厅位于东侧": 2510,
      "所有房间通过虚线表示": 2511,
      "各房间通过虚线表示": 2512,
      "上下分布": 2513,
      "纵向排列": 2514,
      "与卧室和浴室相邻": 2515,
      "与卧室和走廊相连": 2516,
      " 过道": 2517,
      "及卫生间": 2518,
      "和西侧": 2519,
      "均与卧室": 2520,
      "的连接": 2521,
      "右侧卧室位于": 2522,
      "右侧与浴室相邻": 2523,
      "右侧和下方": 2524,
      "左侧连接": 2525,
      "厨房位于客厅": 2526,
      "客厅位于西侧": 2527,
      "其中客厅": 2528,
      "底部浴室": 2529,
      "中央偏左": 2530,
      "面积较大": 2531,
      ",“": 2532,
      "形布局": 2533,
      "连接左侧卧室": 2534,
      "左侧的": 2535,
      "厨房位于左下": 2536,
      "一个浴室位于": 2537,
      "通过虚线连通": 2538,
      "三间卧室分布于": 2539,
      "客厅占据东北区域": 2540,
      "彼此不直接相邻": 2541,
      "且与之": 2542,
      "交错": 2543,
      "左连": 2544,
      "的位置": 2545,
      "卧室左侧": 2546,
      "走廊处于": 2547,
      "浴室与卧室相邻": 2548,
      "客厅位于布局的": 2549,
      "直接连通关系": 2550,
      "依次连通": 2551,
      "下方是厨房": 2552,
      "横向贯穿": 2553,
      "走廊向东": 2554,
      "客厅位于中央偏上": 2555,
      "形成以走廊为核心的放射状布局": 2556,
      "右接": 2557,
      "最南侧": 2558,
      "非直接相邻": 2559,
      "右侧连通": 2560,
      "中部区域": 2561,
      "其中厨房": 2562,
      "其中两间": 2563,
      "浴室位于走廊": 2564,
      "与一间卧室相连": 2565,
      "之间有一扇门": 2566,
      "及走廊相邻": 2567,
      "无其他房间": 2568,
      "浴室夹在": 2569,
      "东侧连接": 2570,
      "左上和右下": 2571,
      "中央为客厅": 2572,
      "其下方紧邻客厅": 2573,
      "过渡空间": 2574,
      "以虚线表示": 2575,
      "图中": 2576,
      "这是一个": 2577,
      "其中西侧": 2578,
      "所有房间通过走廊实现连通": 2579,
      "整体布局呈阶梯状": 2580,
      "不与任何浴室直接相邻": 2581,
      "该空间布局包含": 2582,
      "视觉关联": 2583,
      "的上方": 2584,
      "客厅则": 2585,
      "下方卧室及": 2586,
      "南侧卧室相邻": 2587,
      "依次为浴室": 2588,
      "厨房位于房屋东南侧": 2589,
      "其东侧紧邻浴室": 2590,
      "客厅位于房屋南侧": 2591,
      "下接": 2592,
      "夹着": 2593,
      "第一个卧室": 2594,
      "南侧连通": 2595,
      "与厨房直接相连": 2596,
      "各房间通过虚线连接": 2597,
      "边界清晰": 2598,
      "卧室位于房屋北侧": 2599,
      "客厅北侧连接餐厅": 2600,
      "北面": 2601,
      "右位置": 2602,
      "还有一间": 2603,
      "集中": 2604,
      "卧室直接相邻": 2605,
      "走廊连接厨房": 2606,
      "下方相邻": 2607,
      "右下和": 2608,
      "右下浴室": 2609,
      "卧室位于厨房左侧": 2610,
      "其南侧与走廊相邻": 2611,
      "客厅居中偏左": 2612,
      "一间位于": 2613,
      "其下方是走廊": 2614,
      "但存在": 2615,
      "有两间卧室": 2616,
      "浅绿色区域": 2617,
      "的区域": 2618,
      "厨房与走廊": 2619,
      "左侧与客厅相邻": 2620,
      "两个卫生间及": 2621,
      "西南和东南区域": 2622,
      "主卧室位于客厅东侧并与之直接连通": 2623,
      "分布的结构": 2624,
      "推拉门": 2625,
      "东通": 2626,
      "为一个卧室": 2627,
      "其右上方": 2628,
      "走廊与客厅": 2629,
      "走廊东西两侧": 2630,
      "下方的浴室": 2631,
      "厨房位于左下区域": 2632,
      "东南位置": 2633,
      "浴室和另一个卧室": 2634,
      "两个浴室分别": 2635,
      "同时与客厅": 2636,
      "两个卧室分别位于走廊的": 2637,
      "客厅位于房屋西北侧": 2638,
      "从上至下依次": 2639,
      "带状": 2640,
      "厨房均": 2641,
      "左侧与卧室相邻": 2642,
      "南侧连接厨房": 2643,
      "东侧浴室": 2644,
      "分别位于左上": 2645,
      "左下和右下区域": 2646,
      "浴室在左下角": 2647,
      "矩形组合": 2648,
      "北接浴室": 2649,
      "客厅位于中央偏下位置": 2650,
      "与书房": 2651,
      "上方卧室位于": 2652,
      "上方与浴室相邻": 2653,
      "南侧则": 2654,
      "东侧与厨房相邻": 2655,
      "东南及": 2656,
      "卧室和卫生间": 2657,
      "客厅占据右下角": 2658,
      "通过走廊与其他房间": 2659,
      "与右侧的卧室": 2660,
      "厨房位于房屋东北侧": 2661,
      "次卧位于": 2662,
      "走廊位于房屋中部": 2663,
      "两卧室之间": 2664,
      "连接各房间": 2665,
      "右侧与卧室相邻": 2666,
      "下方与浴室相邻": 2667,
      "上方卫生间": 2668,
      "厨房位于左中部": 2669,
      "浴室位于右下角": 2670,
      "其右侧与厨房相邻": 2671,
      "其左侧与走廊相邻": 2672,
      "与右侧的浴室相邻": 2673,
      "通过一条走廊与": 2674,
      "垂直方向上": 2675,
      "并排位于": 2676,
      "整个布局的": 2677,
      "或功能关联": 2678,
      "均与走廊直接相连": 2679,
      "下方为厨房": 2680,
      "客厅在右下角": 2681,
      "与下方浴室相邻": 2682,
      "次卧在": 2683,
      "红色厨房": 2684,
      "形成以走廊为枢纽": 2685,
      "北靠": 2686,
      "孤立": 2687,
      "通达": 2688,
      "分别邻接": 2689,
      "卫生间则位于": 2690,
      "右下角卧室相邻": 2691,
      "卧室和浴室相邻": 2692,
      "西北卧室": 2693,
      "其上方紧邻一间卧室": 2694,
      "北接卧室": 2695,
      "形成连通布局": 2696,
      "不与厨房直接相邻": 2697,
      "该卧室与": 2698,
      "相邻的卧室": 2699,
      "左侧与走廊相邻": 2700,
      "另一侧": 2701,
      "厨房位于底部": 2702,
      "厨房位于布局的": 2703,
      "东侧为厨房": 2704,
      "通过虚线与客厅相连": 2705,
      "客厅占据东南": 2706,
      "和右侧中部": 2707,
      "平面布局": 2708,
      "相邻或连通关系": 2709,
      "第二个浴室": 2710,
      "以中央走廊为": 2711,
      "与其他功能区": 2712,
      "展开": 2713,
      "右侧紧邻走廊": 2714,
      "左侧卧室在": 2715,
      "客厅位于左中部": 2716,
      "右下卧室与": 2717,
      "左上角卧室与": 2718,
      "通道连接": 2719,
      "该浴室又与": 2720,
      "通向厨房": 2721,
      "西邻走廊": 2722,
      "无直接连接": 2723,
      "内部连通": 2724,
      "且与走廊相邻": 2725,
      "及客厅": 2726,
      "呈不规则": 2727,
      "隔断": 2728,
      "相邻并": 2729,
      "右侧紧邻厨房": 2730,
      "下方为走廊": 2731,
      "上方为走廊": 2732,
      "东侧连接另一间卧室": 2733,
      "客厅位于左上": 2734,
      "中部偏下位置": 2735,
      "其东侧紧邻走廊": 2736,
      "厨房与餐厅": 2737,
      "各自独立": 2738,
      "下而": 2739,
      "两端": 2740,
      "左侧卧室相邻": 2741,
      "厨房位于客厅下方": 2742,
      "分布三间卧室": 2743,
      "卧室在右上角": 2744,
      "相互关联": 2745,
      "其下方紧邻浴室": 2746,
      "厨房位于房屋东侧": 2747,
      "均通过走廊与其他功能区": 2748,
      "向上连接": 2749,
      "的南侧": 2750,
      "自下而": 2751,
      "浴室则位于": 2752,
      "右侧上方": 2753,
      "下方卧室位于": 2754,
      "上方与一间卧室相邻": 2755,
      "其中北侧": 2756,
      "左下角和": 2757,
      "所有房间以矩形块状分布": 2758,
      "下方连接卧室": 2759,
      "下方连接一个卧室": 2760,
      "动线结构": 2761,
      "右中位置": 2762,
      "其右侧紧邻一个浴室": 2763,
      "自下而上": 2764,
      "有三个卧室": 2765,
      "右侧区域": 2766,
      "右下及": 2767,
      "两个卧室和浴室": 2768,
      "纵向延伸": 2769,
      "以走廊为枢纽": 2770,
      "卧室位于房屋西北侧": 2771,
      "右侧是走廊": 2772,
      "三个浴室": 2773,
      "之相连": 2774,
      "和右上方": 2775,
      "对角": 2776,
      "并与厨房相邻": 2777,
      "下方与客厅相邻": 2778,
      "浴室位于左下角": 2779,
      "浴室位于左上角": 2780,
      "左上角的卧室": 2781,
      "通过走廊与卧室相连": 2782,
      "浴室在左上角": 2783,
      "其北侧紧邻走廊": 2784,
      "第三间卧室位于": 2785,
      "所有房间通过走廊或直接边界实现连通": 2786,
      "储物": 2787,
      "具体": 2788,
      "嵌套": 2789,
      "的北侧": 2790,
      "浴室有两个": 2791,
      "右侧的客厅": 2792,
      "下方连接客厅": 2793,
      "东侧卧室相邻": 2794,
      "其中西南卧室": 2795,
      "两间卧室分别": 2796,
      "浴室位于厨房右侧": 2797,
      "两个卧室分别位于西北和": 2798,
      "通道或": 2799,
      "间接连通关系": 2800,
      "均有连接": 2801,
      "通过门洞连通": 2802,
      "再向东": 2803,
      "呈横向": 2804,
      "或厨房": 2805,
      "挨着": 2806,
      "南侧浴室": 2807,
      "通过走廊与厨房和": 2808,
      "客厅位于中心": 2809,
      "其中两个": 2810,
      "所有房间通过虚线连接表示": 2811,
      "该卧室南侧": 2812,
      "浴室在右下角": 2813,
      "两个卫生间和": 2814,
      "卧室和浴室相连": 2815,
      "与北侧卧室和": 2816,
      "形成以走廊为中心": 2817,
      "是一个卧室": 2818,
      "有卧室": 2819,
      "卫生间和": 2820,
      "浴室位于右上角": 2821,
      "浴室位于厨房下方": 2822,
      "与上方卧室和": 2823,
      "与厨房和客厅相邻": 2824,
      "其东侧与走廊相邻": 2825,
      "两个卧室及一个浴室": 2826,
      "卧室与厨房不相邻": 2827,
      "厨房位于中央偏上位置": 2828,
      "形成以客厅为核心": 2829,
      "公共区域": 2830,
      "隔走廊相对": 2831,
      "这是一个包含": 2832,
      "到达": 2833,
      "和浴室相邻": 2834,
      "浅绿色": 2835,
      "走廊与厨房": 2836,
      "上方是另一间卧室": 2837,
      "第三间卧室相邻": 2838,
      "有一门相通": 2839,
      "客厅北侧为餐厅": 2840,
      "南北向": 2841,
      "走廊贯穿房屋中部": 2842,
      "上层卧室": 2843,
      "最上方的卧室": 2844,
      "且客厅": 2845,
      "且通过一扇门": 2846,
      "在右下角": 2847,
      "均通过走廊实现": 2848,
      "多向": 2849,
      "下方也": 2850,
      "左侧和下方": 2851,
      "紧邻一个卫生间": 2852,
      "其北侧与客厅相邻": 2853,
      "其北侧紧邻一间卧室": 2854,
      "与左侧的卧室": 2855,
      "客厅位于房屋东侧": 2856,
      "均通过走廊与其他房间相连": 2857,
      "各房间之间通过": 2858,
      "走廊作为核心通道": 2859,
      "均与走廊或卧室相邻": 2860,
      "隔墙相望": 2861,
      "储物间": 2862,
      "形结构": 2863,
      "无孤立": 2864,
      "东侧与餐厅": 2865,
      "中部浴室": 2866,
      "西侧浴室": 2867,
      "另一个卧室和浴室": 2868,
      "餐厅西侧与客厅相邻": 2869,
      "另一间浴室位于": 2870,
      "走廊贯穿中部偏右": 2871,
      "与下方的": 2872,
      "其东侧紧邻厨房": 2873,
      "墙体分隔": 2874,
      "走廊横跨": 2875,
      "左中卧室": 2876,
      "客厅位于右侧中部": 2877,
      "卧室北侧为厨房": 2878,
      "连通的整体": 2879,
      "两者通过一扇宽": 2880,
      "与主卧室": 2881,
      "且通过走廊与": 2882,
      "外部": 2883,
      "最左侧": 2884,
      "连接两间卧室": 2885,
      "上方连接走廊": 2886,
      "左侧相邻": 2887,
      "客厅位于东北侧": 2888,
      "卧室位于房子的": 2889,
      "所有房间通过虚线标示": 2890,
      "共享墙体": 2891,
      "卧室位于房屋东北侧": 2892,
      "各房间通过走廊实现": 2893,
      "与浴室和客厅相邻": 2894,
      "部分房间间": 2895,
      "五个房间": 2896,
      "和左侧": 2897,
      "和西南角": 2898,
      "厨房正": 2899,
      "厨房居中": 2900,
      "连接所有主要房间": 2901,
      "连通卧室": 2902,
      "右上浴室": 2903,
      "依次为厨房": 2904,
      "紧邻厨房南侧": 2905,
      "上方是厨房": 2906,
      "走廊的右侧": 2907,
      "中上卧室": 2908,
      "无独立封闭区域": 2909,
      "形成一个整体的居住空间结构": 2910,
      "主卫": 2911,
      "和南部": 2912,
      "实际": 2913,
      "有浴室": 2914,
      "下方与走廊相连": 2915,
      "东侧相邻": 2916,
      "客厅位于中部偏右": 2917,
      "其中西南": 2918,
      "其中东北": 2919,
      "该卧室西侧": 2920,
      "浴室在右上角": 2921,
      "主卧与次卧": 2922,
      "相邻且连通": 2923,
      "仅通过": 2924,
      "可通过走廊": 2925,
      "西靠": 2926,
      "卧室旁边": 2927,
      "连通浴室": 2928,
      "东侧连接厨房": 2929,
      "其右侧与卧室相邻": 2930,
      "两间浴室和": 2931,
      "其北侧紧邻客厅": 2932,
      "并与之连通": 2933,
      "与上方的卧室相邻": 2934,
      "客厅位于中央偏下": 2935,
      "向右延伸": 2936,
      "均不直接": 2937,
      "一个浴室和一个卧室": 2938,
      "一浴室": 2939,
      "上连": 2940,
      "其正上方": 2941,
      "和右方": 2942,
      "第三间浴室": 2943,
      "该房屋": 2944,
      "卧室分布于": 2945,
      "右侧的浴室": 2946,
      "右侧连接走廊": 2947,
      "下方则与": 2948,
      "北侧与卧室相邻": 2949,
      "与客厅直接连通": 2950,
      "东侧与客厅相邻": 2951,
      "东侧与走廊相连": 2952,
      "中部卧室": 2953,
      "走廊位于中心": 2954,
      "与客厅和厨房相邻": 2955,
      "的客厅相连": 2956,
      "右侧是浴室": 2957,
      "通过走廊与客厅间接连通": 2958,
      "整体布局紧凑且功能分区明确": 2959,
      "并通过一个": 2960,
      "三间卧室及两间浴室": 2961,
      ")。": 2962,
      "上述": 2963,
      "南边": 2964,
      "有一个卫生间": 2965,
      "经走廊": 2966,
      "设有一间": 2967,
      "下方与客厅相连": 2968,
      "左侧和": 2969,
      "直接通道": 2970,
      "客厅位于右上方": 2971,
      "其中左侧卧室与": 2972,
      "所有房间通过走廊或直接": 2973,
      "两个卧室分别位于右上角和右下角": 2974,
      "右上方的卧室": 2975,
      "卧室在右下角": 2976,
      "另一间浴室及": 2977,
      "厨房位于右侧中部": 2978,
      "无直接相邻关系": 2979,
      "整个布局中": 2980,
      "包围": 2981,
      "可能": 2982,
      "门连通": 2983,
      "走廊东端": 2984,
      "浴室与客厅相邻": 2985,
      "下方卫生间": 2986,
      "厨房位于客厅的": 2987,
      "北侧为走廊": 2988,
      "客厅位于西南角": 2989,
      "其中上方卧室与": 2990,
      "一间卧室和一间浴室": 2991,
      "左下侧": 2992,
      "左下角卧室与": 2993,
      "右上角区域": 2994,
      "并与浴室相邻": 2995,
      "两个卧室分别位于左下角和右下角": 2996,
      "另一间浴室相连": 2997,
      "共享一条": 2998,
      "均通过走廊与其他房间": 2999,
      "西邻厨房": 3000,
      "中央走廊纵向贯穿": 3001,
      "辐射式布局": 3002,
      " 卧室 ": 3003,
      "与中央": 3004,
      "与一个浴室相邻": 3005,
      "交通": 3006,
      "横跨": 3007,
      "通路": 3008,
      "走廊东南侧": 3009,
      "走廊左下方": 3010,
      "客厅左上方": 3011,
      "下方与厨房相邻": 3012,
      "左侧与浴室相邻": 3013,
      "北侧的卧室": 3014,
      "其右侧为客厅": 3015,
      "三间卧室中": 3016,
      "浴室在卧室": 3017,
      "与右侧的客厅相邻": 3018,
      "与餐厅通过一条走廊相连": 3019,
      "表明它们之间": 3020,
      "正南方向": 3021,
      "三个房间": 3022,
      "客厅左下方": 3023,
      "右侧浴室及": 3024,
      "右侧与另一间卧室相邻": 3025,
      "连通另一间卧室": 3026,
      "厨房位于右下方": 3027,
      "东侧为走廊": 3028,
      "左下浴室": 3029,
      "与走廊相邻并": 3030,
      "其右侧与走廊相连": 3031,
      "下方是另一间卧室": 3032,
      "走廊居中贯穿": 3033,
      "东西向": 3034,
      "东邻厨房": 3035,
      "通过门连通": 3036,
      "厨房位于中央偏左": 3037,
      "平面图的": 3038,
      "整体布局以走廊为核心枢纽": 3039,
      "一栋": 3040,
      "不与厨房相邻": 3041,
      "且该卧室": 3042,
      "分列": 3043,
      "南位置": 3044,
      "周围": 3045,
      "连接左右两侧": 3046,
      "下方通过走廊连接": 3047,
      "厨房位于下方": 3048,
      "东侧连接客厅": 3049,
      "东侧与卧室相邻": 3050,
      "其中客厅与": 3051,
      "西侧的卧室": 3052,
      "所有其他房间": 3053,
      "其上方紧邻卧室": 3054,
      "客厅占据底部中央": 3055,
      "通过走廊与浴室相连": 3056,
      "第三间卧室及": 3057,
      "客厅位于房屋西侧": 3058,
      "所有房间均围绕": 3059,
      "西邻浴室": 3060,
      "连接厨房和另一间卧室": 3061,
      "连接了厨房": 3062,
      "偏东": 3063,
      "前述": 3064,
      "有虚线连接": 3065,
      "顶层": 3066,
      "卧室区域": 3067,
      "走廊左上方": 3068,
      "上方的浴室": 3069,
      "连通或": 3070,
      "房屋南侧": 3071,
      "整体结构": 3072,
      "客厅在厨房": 3073,
      "边界接触": 3074,
      "与右侧浴室相邻": 3075,
      "形成一个连通的整体": 3076,
      "其中西北卧室与": 3077,
      "其余空间": 3078,
      "围绕其分布": 3079,
      "”(": 3080,
      "且位于": 3081,
      "无明确": 3082,
      "次卫": 3083,
      "正对": 3084,
      "下方的卧室相邻": 3085,
      "上方卧室及": 3086,
      "左侧连接厨房": 3087,
      "右下侧": 3088,
      "形成整体布局": 3089,
      "西南及": 3090,
      "三个卧室及": 3091,
      "厨房位于房屋西南角": 3092,
      "卧室位于房屋南侧": 3093,
      "卧室位于房屋东南侧": 3094,
      "客厅居中偏东": 3095,
      "左邻走廊": 3096,
      "较大的面积": 3097,
      "大卧室": 3098,
      "无走廊或": 3099,
      "次卧室位于": 3100,
      "西面": 3101,
      "其中右上角": 3102,
      "卧室位于东北侧": 3103,
      "其右侧紧邻一间卧室": 3104,
      "西南部": 3105,
      "直接连通客厅": 3106,
      "同时连接": 3107,
      "与右侧的": 3108,
      "与客厅和卧室相邻": 3109,
      "下方连接另一个卧室": 3110,
      "其南侧紧邻浴室": 3111,
      "其中一间卧室在": 3112,
      "其下方是客厅": 3113,
      "无重叠或": 3114,
      "共同构成": 3115,
      "整体布局呈阶梯状分布": 3116,
      "不与客厅直接相邻": 3117,
      "接入": 3118,
      "服务": 3119,
      "的结构": 3120,
      "南侧相邻": 3121,
      "南侧与走廊相连": 3122,
      "西侧与厨房相邻": 3123,
      "厨房在客厅正下方": 3124,
      "靠近各自": 3125,
      "书房与客厅": 3126,
      "邻接客厅": 3127,
      "与浴室直接相邻": 3128,
      "其北侧紧邻厨房": 3129,
      "与客厅和走廊相连": 3130,
      "连接走廊和": 3131,
      "一间卫生间": 3132,
      "均与走廊连通": 3133,
      "均与走廊相通": 3134,
      "与浴室和卧室相邻": 3135,
      "东北和东南区域": 3136,
      "和右上部": 3137,
      "还有一个独立": 3138,
      "东接厨房": 3139,
      "中段": 3140,
      "偏西": 3141,
      "各有一个浴室": 3142,
      "后者": 3143,
      "的左侧": 3144,
      "视线": 3145,
      "右侧连接浴室": 3146,
      "直接通往": 3147,
      "左上角和": 3148,
      "中间的卧室": 3149,
      "其上方紧邻厨房": 3150,
      "同时与厨房": 3151,
      "并与之直接相连": 3152,
      "走廊贯穿中部区域": 3153,
      "整体呈不规则": 3154,
      "与主卧": 3155,
      "浅绿色卧室": 3156,
      "通客厅": 3157,
      "其中两间卧室": 3158,
      "左下卧室相邻": 3159,
      "整体构成": 3160,
      "浴室位于北侧": 3161,
      "厨房在右侧": 3162,
      "该卧室又": 3163,
      "与上方卧室及": 3164,
      "厨房位于房屋东南角": 3165,
      "通向另一间卧室": 3166,
      "垂直对齐": 3167,
      "其西侧与走廊相邻": 3168,
      "与餐厅通过一条短走廊相连": 3169,
      "最右侧的卧室": 3170,
      "以走廊为核心枢纽": 3171,
      "走廊连接了多个房间": 3172,
      "建筑": 3173,
      "还有一间浴室": 3174,
      "连接各区域": 3175,
      "左侧上下": 3176,
      "另一浴室相邻": 3177,
      "厨房位于房子": 3178,
      "右下角的": 3179,
      "独立设置": 3180,
      "与右侧卧室和": 3181,
      "与下方的浴室相邻": 3182,
      "和右下部": 3183,
      "各功能区通过": 3184,
      "不与任何浴室相邻": 3185,
      "正北方向": 3186,
      "客厅在餐厅南侧": 3187,
      "其中一卧室": 3188,
      "堵墙": 3189,
      "并与客厅相连": 3190,
      "最北端": 3191,
      "第四个卧室": 3192,
      "门厅": 3193,
      "浴室分布于": 3194,
      "客厅两侧": 3195,
      "厨房仅": 3196,
      "东侧浴室相邻": 3197,
      "客厅位于底部": 3198,
      "左上卧室与": 3199,
      "左下及": 3200,
      "与上方浴室": 3201,
      "纵向分布": 3202,
      "中央走廊分布": 3203,
      "东邻走廊": 3204,
      "卧室不与厨房相邻": 3205,
      "其中两个卧室位于": 3206,
      "与之相邻": 3207,
      "物理连通": 3208,
      "为另一间浴室": 3209,
      "则是": 3210,
      "南接客厅": 3211,
      "形态": 3212,
      "的住宅": 3213,
      "间房间": 3214,
      "右侧卫生间": 3215,
      "西侧与卧室相邻": 3216,
      "房屋东侧": 3217,
      "右下角浴室": 3218,
      "与上方浴室相邻": 3219,
      "旁边是": 3220,
      "再往下": 3221,
      "潜在动线": 3222,
      "走廊向北延伸": 3223,
      "形成了一个紧凑": 3224,
      "北向": 3225,
      "均通过走廊连通": 3226,
      "的下方": 3227,
      "厨房紧邻走廊": 3228,
      "厨房以及": 3229,
      "下方与卧室相邻": 3230,
      "其中上方": 3231,
      "客厅占据左下区域": 3232,
      "客厅在厨房正下方": 3233,
      "共享一面墙": 3234,
      "彼此不": 3235,
      "客厅位于房屋北侧": 3236,
      "各房间通过边界": 3237,
      "与北侧卧室相邻": 3238,
      "西邻客厅": 3239,
      "左邻卧室": 3240,
      "客厅位于中心偏下位置": 3241,
      "共用墙体": 3242,
      "直接连接的方式": 3243,
      "中央偏右位置": 3244,
      "一堵墙": 3245,
      "不与客厅相邻": 3246,
      "的门": 3247,
      "与厨房之间": 3248,
      "该卧室再": 3249,
      "厨房和次卧室之间": 3250,
      "两者相邻": 3251,
      "连接着客厅": 3252,
      "所有房间均通过走廊或": 3253,
      "与另一间卧室及": 3254,
      "主要通道": 3255,
      "卧室与客厅及": 3256,
      "不同卧室": 3257,
      "对应卧室": 3258,
      "以矩形块": 3259,
      "最大区域": 3260,
      "彼此相邻且均": 3261,
      "间接或直接连通": 3262,
      "上接客厅": 3263,
      "且靠近": 3264,
      "其右下方": 3265,
      "北侧为客厅": 3266,
      "西侧的": 3267,
      "西侧为卧室": 3268,
      "西侧和南侧": 3269,
      "虚线相连": 3270,
      "其右侧与浴室相邻": 3271,
      "客厅占据东侧": 3272,
      "该浴室上方": 3273,
      "次卧室紧邻主卧室": 3274,
      "墙体边界": 3275,
      "右侧是厨房": 3276,
      "厨房在客厅西侧并": 3277,
      "直接或间接的连接": 3278,
      "形成一个完整的居住空间": 3279,
      "从客厅": 3280,
      "北边": 3281,
      "嵌入": 3282,
      "最北侧": 3283,
      "南侧与客厅相邻": 3284,
      "南侧通过走廊连接": 3285,
      "北侧为卧室": 3286,
      "两个卧室均": 3287,
      "右下角的浴室": 3288,
      "浴室和走廊相邻": 3289,
      "浴室位于厨房上方": 3290,
      "厨房在右上方": 3291,
      "西北部": 3292,
      "直接连通走廊": 3293,
      "客厅占据西南区域": 3294,
      "客厅在右上方": 3295,
      "功能区域": 3296,
      "书房相邻": 3297,
      "与浴室相接": 3298,
      "其左侧与客厅相邻": 3299,
      "有一扇门": 3300,
      "中下卧室": 3301,
      "西邻卧室": 3302,
      "方式连通": 3303,
      "卧室不与客厅相邻": 3304,
      "所有房间通过走廊或直接相邻实现连通": 3305,
      "客厅为中心": 3306,
      "上接走廊": 3307,
      "且相邻": 3308,
      "分处": 3309,
      "和另一间浴室": 3310,
      "户型": 3311,
      "该卧室位于": 3312,
      "该住宅": 3313,
      "该平面图": 3314,
      "走廊南端": 3315,
      "上方与走廊相连": 3316,
      "上方为厨房": 3317,
      "左侧卧室位于": 3318,
      "左侧与厨房相邻": 3319,
      "区域相连": 3320,
      "西侧与走廊相邻": 3321,
      "右下位置": 3322,
      "房屋西南侧": 3323,
      "右下角卧室则": 3324,
      "其上方为客厅": 3325,
      "该卧室又与": 3326,
      "东南侧卧室": 3327,
      "整体布局呈非对称": 3328,
      "与下方的卧室相邻": 3329,
      "与左侧浴室": 3330,
      "厨房的上方": 3331,
      "两个卧室及浴室": 3332,
      "放射状分布": 3333,
      "均有虚线连接": 3334,
      "厨房位于中心偏左": 3335,
      "餐厅东侧紧邻厨房": 3336,
      "其他空间相连": 3337,
      "另有一卧室": 3338,
      "展示了一个": 3339,
      "上接卧室": 3340,
      "与另一个卧室相邻": 3341,
      "且彼此相邻": 3342,
      "和次卧": 3343,
      "厨房均相邻": 3344,
      "上方与厨房相邻": 3345,
      "上方与卧室相邻": 3346,
      "厨房位于客厅上方": 3347,
      "北侧连接": 3348,
      "紧邻次卧室": 3349,
      "客厅位于西北角": 3350,
      "左下位置": 3351,
      "厨房在客厅右侧": 3352,
      "一间浴室相邻": 3353,
      "书房则": 3354,
      "其左侧与": 3355,
      "主卧室之间": 3356,
      "两间卧室分别位于左上和": 3357,
      "向下延伸至": 3358,
      "其下方是浴室": 3359,
      "北邻厨房": 3360,
      "共用一面墙": 3361,
      "两个浴室和三个卧室": 3362,
      "卧室南侧与客厅相邻": 3363,
      "客厅位于布局中央偏下位置": 3364,
      "卧室西侧为走廊": 3365,
      "且与走廊相连": 3366,
      "仅与客厅": 3367,
      "同一": 3368,
      "和左下方": 3369,
      "客厅右方": 3370,
      "卫生间介于": 3371,
      "其中右上角的卧室": 3372,
      "形成连续": 3373,
      "客厅在左上角": 3374,
      "走廊位于中部": 3375,
      "其左侧紧邻一间卧室": 3376,
      "与厨房和客厅": 3377,
      "客厅位于房屋中央偏": 3378,
      "厨房与卫生间": 3379,
      "并排的卧室": 3380,
      "两个浴室和一个卧室": 3381,
      "连接上下区域": 3382,
      "形成紧凑的": 3383,
      "形成一个紧凑的居住区域": 3384,
      "一个厨房和一个客厅": 3385,
      "与两个卧室和": 3386,
      "半部分": 3387,
      "各有一间浴室": 3388,
      "此卧室右侧": 3389,
      "的房屋": 3390,
      "厨房区域": 3391,
      "下方浴室及": 3392,
      "上方中央": 3393,
      "上方连接卧室": 3394,
      "通过浴室": 3395,
      "北侧为浴室": 3396,
      "直接接壤": 3397,
      "西侧相邻": 3398,
      "一个走廊的": 3399,
      "其右侧为卧室": 3400,
      "其上方紧邻浴室": 3401,
      "依次连接厨房": 3402,
      "两个卧室分别位于西南和": 3403,
      "客厅和走廊": 3404,
      "纵向走廊": 3405,
      "走廊的左侧": 3406,
      "包含三个卧室": 3407,
      "明确的": 3408,
      "多房间围绕": 3409,
      "占据了较大的面积": 3410,
      "且与客厅相邻": 3411,
      "共有": 3412,
      "北位置": 3413,
      "另有一间": 3414,
      "和北侧": 3415,
      "左接": 3416,
      "相隔": 3417,
      "第五": 3418,
      "连接各功能区": 3419,
      "右侧客厅": 3420,
      "右侧紧邻": 3421,
      "厨房位于中部偏左": 3422,
      "厨房位于整体布局的": 3423,
      "客厅位于中部偏左": 3424,
      "另一间卧室和浴室": 3425,
      "各房间通过虚线表示的": 3426,
      "客厅占据左上区域": 3427,
      "其北侧与一间卧室相邻": 3428,
      "与厨房和卧室相邻": 3429,
      "其东侧紧邻客厅": 3430,
      "其南侧紧邻客厅": 3431,
      "各自与": 3432,
      "连接厨房和卧室": 3433,
      "走廊呈横向带状": 3434,
      "下接走廊": 3435,
      "且与厨房相邻": 3436,
      "且通过走廊连通": 3437,
      "仅与厨房相邻": 3438,
      "无房间": 3439,
      "是主卧室": 3440,
      "的浴室位于": 3441,
      "左侧的浴室": 3442,
      "东侧的卧室": 3443,
      "各房间通过走廊或直接边界": 3444,
      "餐厅北侧": 3445,
      "客厅在左侧": 3446,
      "邻接卧室": 3447,
      "与上方的": 3448,
      "西北角和东南角": 3449,
      "均通过走廊与其他空间连通": 3450,
      "走廊居中连接客厅": 3451,
      "右侧是卧室": 3452,
      "南部中央": 3453,
      "向右延伸至": 3454,
      "走廊连接了客厅": 3455,
      "清晰的": 3456,
      "中部偏南位置": 3457,
      "客厅在餐厅西侧": 3458,
      "上下方": 3459,
      "主卧室相邻": 3460,
      "居于": 3461,
      "式分布": 3462,
      "连走廊": 3463,
      "客厅与走廊相连": 3464,
      "下方客厅": 3465,
      "南侧的卧室": 3466,
      "南侧与厨房相邻": 3467,
      "其中右上卧室": 3468,
      "西侧与一间卧室相邻": 3469,
      "浴室和厨房相邻": 3470,
      "厨房在右下方": 3471,
      "其上方紧邻": 3472,
      "中部偏上位置": 3473,
      "上下左右": 3474,
      "整体呈围绕": 3475,
      "作为核心通道": 3476,
      "左邻厨房": 3477,
      "均与走廊或卧室": 3478,
      "多房间环绕": 3479,
      "整体布局呈现出": 3480,
      "右上及右下区域": 3481,
      "一个客厅和一个厨房": 3482,
      "与其中一个卧室相邻": 3483,
      "两处": 3484,
      "客厅上方是": 3485,
      "右侧与客厅相连": 3486,
      "右侧与一间卧室相邻": 3487,
      "上方相邻": 3488,
      "南侧为厨房": 3489,
      "北侧卧室相邻": 3490,
      "其中上部": 3491,
      "一个卧室相连": 3492,
      "之间存在": 3493,
      "厨房在右上": 3494,
      "占据较大面积": 3495,
      "书房紧邻卧室": 3496,
      "其北侧与厨房相邻": 3497,
      "卧室及走廊相邻": 3498,
      "该浴室再": 3499,
      "与下方卧室和": 3500,
      "两间浴室分别位于走廊": 3501,
      "均通过走廊与其他区域相连": 3502,
      "形成以走廊为核心的": 3503,
      "的连通结构": 3504,
      "一卧室": 3505,
      "各卧室": 3506,
      "均与走廊及": 3507,
      "建立": 3508,
      "经由走廊": 3509,
      "走廊连通": 3510,
      "厨房则": 3511,
      "连接北侧卧室": 3512,
      "左侧接厨房": 3513,
      "厨房位于右上方": 3514,
      "南侧与卧室相邻": 3515,
      "通过走廊与客厅和": 3516,
      "东侧客厅": 3517,
      "东侧为卧室": 3518,
      "一个卧室在": 3519,
      "整体布局通过走廊实现": 3520,
      "卧室与卫生间": 3521,
      "两间卧室分别位于西北和": 3522,
      "顶部卧室": 3523,
      "其中左上卧室与浴室相邻": 3524,
      "二者垂直相邻": 3525,
      "客厅与厨房通过门相连": 3526,
      "独立于其他房间": 3527,
      "走廊呈竖直长条状贯穿中部": 3528,
      "走廊横跨中部": 3529,
      "服务于": 3530,
      " 厨房": 3531,
      "为第三间卧室": 3532,
      "和西南侧": 3533,
      "南侧浴室相邻": 3534,
      "南侧连接另一间卧室": 3535,
      "东侧与浴室相邻": 3536,
      "东侧和南侧": 3537,
      "客厅位于厨房右侧": 3538,
      "布局中": 3539,
      "中间夹着": 3540,
      "两间浴室均位于": 3541,
      "与卧室相接": 3542,
      "两者之间": 3543,
      "客厅的右侧": 3544,
      "较大空间": 3545,
      "向东连接": 3546,
      "和厨房之间": 3547,
      "卧室的东侧": 3548,
      "主卧室与次卧室相邻": 3549,
      "之间有一扇门相通": 3550,
      "卫浴": 3551,
      "和东部": 3552,
      "是第三间卧室": 3553,
      "相邻墙体": 3554,
      "通过短": 3555,
      "客厅位于东南角": 3556,
      "其中东北卧室": 3557,
      "西侧中部": 3558,
      "一个卧室和": 3559,
      "各房间以": 3560,
      "两间浴室分别": 3561,
      "过道房间": 3562,
      "其左侧与卧室相邻": 3563,
      "两个卫生间相邻": 3564,
      "连接走廊和厨房": 3565,
      "浴室及厨房": 3566,
      "连接着多个房间": 3567,
      "走廊位于房屋东侧": 3568,
      "整体呈非对称": 3569,
      "北部中央": 3570,
      "紫色走廊": 3571,
      "了一栋": 3572,
      "和中部": 3573,
      "和东北角": 3574,
      "左接走廊": 3575,
      "邻浴室": 3576,
      "隔着": 3577,
      "另一条": 3578,
      "与走廊或": 3579,
      "紧邻浴室和走廊": 3580,
      "浴室位于东南角": 3581,
      "间接路径": 3582,
      "客厅在左侧中部": 3583,
      "通过走廊与其他房间相连": 3584,
      "两个卧室分别位于客厅的": 3585,
      "两个浴室分别位于中上部": 3586,
      "右侧卧室相连": 3587,
      "走廊左侧连接": 3588,
      "走廊贯穿中央": 3589,
      "卧室均相邻": 3590,
      "并与其相邻": 3591,
      "各区域通过": 3592,
      "上下两端": 3593,
      " 客厅": 3594,
      "到右": 3595,
      "前方": 3596,
      "呈现": 3597,
      "或动线": 3598,
      "浴室正上方": 3599,
      "客厅东南侧": 3600,
      "下方为另一间卧室": 3601,
      "左侧为厨房": 3602,
      "紧邻浴室和卧室": 3603,
      "东侧紧邻厨房": 3604,
      "卫生间在": 3605,
      "客厅位于右下方": 3606,
      "形成中心": 3607,
      "右上角和左下角": 3608,
      "客厅在厨房下方": 3609,
      "以及右侧的": 3610,
      "各房间通过直线": 3611,
      "南邻厨房": 3612,
      "从左到右": 3613,
      "右邻走廊": 3614,
      "从左至右依次为": 3615,
      "中央偏右区域": 3616,
      "实现空间衔接": 3617,
      "三个卧室分别分布于左上": 3618,
      "通过一条走廊与之相连": 3619,
      "七个房间和一个走廊": 3620,
      "与次卧室": 3621,
      "且通过虚线连接至": 3622,
      "左边": 3623,
      "每个卧室": 3624,
      "走向": 3625,
      "连接一个浴室": 3626,
      "下方亦": 3627,
      "上方的卧室相邻": 3628,
      "左侧为走廊": 3629,
      "南侧通向": 3630,
      "左上角和左下角": 3631,
      "客厅在厨房右侧": 3632,
      "客厅在右侧中部": 3633,
      "三个卧室中": 3634,
      "右下方卧室": 3635,
      "两个浴室分别位于左上和": 3636,
      "其左侧为浴室": 3637,
      "第二间": 3638,
      "走廊居中连接所有房间": 3639,
      "东邻浴室": 3640,
      "最下方的卧室": 3641,
      "其余空间连通": 3642,
      "并通过一扇门与之": 3643,
      "西连走廊": 3644,
      "卧室北侧为卫生间": 3645,
      "形成围绕中心": 3646,
      "以中央走廊为核心": 3647,
      "也有一间卧室": 3648,
      "储藏": 3649,
      "并在": 3650,
      "或虚线": 3651,
      "格局": 3652,
      "走廊东北侧": 3653,
      "厨房下方是": 3654,
      "下方与一间卧室相邻": 3655,
      "上方与客厅相邻": 3656,
      "通过开放式": 3657,
      "南侧与浴室相邻": 3658,
      "紧邻厨房和走廊": 3659,
      "东侧为浴室": 3660,
      "客厅位于住宅": 3661,
      "其中左下角": 3662,
      "西侧区域": 3663,
      "右下部": 3664,
      "一个房屋的": 3665,
      "中央为走廊": 3666,
      "两间卧室均": 3667,
      "东北及": 3668,
      "客厅占据左下角": 3669,
      "浴室在厨房右侧": 3670,
      "其左侧为": 3671,
      "与一间卧室和一间浴室": 3672,
      "走廊呈横向贯穿中部": 3673,
      "右侧是另一个卧室": 3674,
      "各功能区围绕": 3675,
      "卧室与厨房之间": 3676,
      "卧室的右侧": 3677,
      "厨房位于中央偏上": 3678,
      "走廊和卧室": 3679,
      "多个区域": 3680,
      "各功能区域": 3681,
      "标记为": 3682,
      "部分房间间以虚线表示": 3683,
      "与两间浴室": 3684,
      "且通过虚线": 3685,
      "东墙": 3686,
      "则通向": 3687,
      "和中部偏右": 3688,
      "处位于": 3689,
      "无其他": 3690,
      "的走廊相邻": 3691,
      "浴室紧邻厨房": 3692,
      "右侧厨房": 3693,
      "左侧是浴室": 3694,
      "北侧与厨房相邻": 3695,
      "左下和右上": 3696,
      "整体空间": 3697,
      "一个卧室和一个浴室": 3698,
      "浴室位于东北角": 3699,
      "右上角卧室与": 3700,
      "左邻浴室": 3701,
      "偏右位置": 3702,
      "黄色客厅": 3703,
      "餐厅东侧是厨房": 3704,
      "其中左上角卧室与": 3705,
      "该图显示了一个有": 3706,
      "交叉结构": 3707,
      "下端": 3708,
      "下通": 3709,
      "且通过虚线连接": 3710,
      "中南部": 3711,
      "五个": 3712,
      "是书房": 3713,
      "浅蓝色": 3714,
      "浴室均相邻": 3715,
      "客厅下方是": 3716,
      "厨房上方是": 3717,
      "上方连接浴室": 3718,
      "左侧区域": 3719,
      "左侧是卧室": 3720,
      "与厨房或": 3721,
      "两间卧室和": 3722,
      "形成主要": 3723,
      "一间浴室和一间卧室": 3724,
      "中间由": 3725,
      "客厅在东侧": 3726,
      "连接客厅和": 3727,
      "两个浴室分别位于西北和": 3728,
      "客厅的南侧": 3729,
      "主卧室北侧": 3730,
      "卧室与客厅之间": 3731,
      "向南连接": 3732,
      "右中卧室": 3733,
      "南连厨房": 3734,
      "各个房间通过走廊相互连通": 3735,
      "标注为": 3736,
      "但通过": 3737,
      "的空间": 3738,
      "线条": 3739,
      "错落": 3740,
      "下方和右侧": 3741,
      "下方另有一间卧室": 3742,
      "直接毗邻": 3743,
      "与客厅连通": 3744,
      "东侧与客厅相连": 3745,
      "西侧与走廊相连": 3746,
      "西侧为浴室": 3747,
      "整体布局显示": 3748,
      "形成清晰的": 3749,
      "厨房在右下": 3750,
      "通过走廊与其他区域连通": 3751,
      "的浴室与": 3752,
      "相互衔接": 3753,
      "彼此通过": 3754,
      "客厅的北侧": 3755,
      "包含两个卧室": 3756,
      "右侧连接另一个卧室": 3757,
      "潜在连通或": 3758,
      "黄色区域的": 3759,
      "与其他房间相连": 3760,
      "形成连通网络": 3761,
      "客厅占据右下大片区域": 3762,
      "客厅占据东南大片区域": 3763,
      "储藏室": 3764,
      "北墙": 3765,
      "在垂直方向上": 3766,
      "床房": 3767,
      "环状": 3768,
      "轴心": 3769,
      "轴线": 3770,
      "浴室靠近": 3771,
      "浴室相接": 3772,
      "客厅则位于": 3773,
      "上方则": 3774,
      "左侧与走廊相连": 3775,
      "相连通": 3776,
      "卫生间与": 3777,
      "客厅位于厨房的": 3778,
      "西侧为客厅": 3779,
      "左上与": 3780,
      "右下角卧室与": 3781,
      "浴室位于客厅右侧": 3782,
      "厨房在底部中央": 3783,
      "客厅占据左下": 3784,
      "该卧室同时": 3785,
      "右上方和右下方": 3786,
      "与厨房和走廊": 3787,
      "共享边": 3788,
      "和右下位置": 3789,
      "客厅与过道相邻": 3790,
      "路径关联": 3791,
      "走廊位于房屋北侧": 3792,
      "各个房间通过": 3793,
      "该图展示了一个": 3794,
      "各房间通过走廊或墙体": 3795,
      "走廊向南延伸": 3796,
      "嵌套结构": 3797,
      "两者通过一扇宽门相连": 3798,
      "仅与客厅相连": 3799,
      "南向": 3800,
      "各个": 3801,
      "均存在": 3802,
      "并分别": 3803,
      "开口": 3804,
      "正东": 3805,
      "厨房右方": 3806,
      "其中西北角": 3807,
      "所有房间通过走廊相互连通": 3808,
      "客厅占据中下部": 3809,
      "其北侧为走廊": 3810,
      "走廊连接多个房间": 3811,
      "卧室及厨房": 3812,
      "其东侧紧邻卧室": 3813,
      "右侧卧室则": 3814,
      "两间卧室分别位于走廊": 3815,
      "与卧室和客厅相邻": 3816,
      "与卧室和厨房相邻": 3817,
      "客厅南侧并": 3818,
      "环绕分布": 3819,
      "主卧室在客厅正后方并与": 3820,
      "一下": 3821,
      "上端": 3822,
      "上一下": 3823,
      "体现": 3824,
      "南靠": 3825,
      "和右侧卧室": 3826,
      "四房间": 3827,
      "有两个浴室": 3828,
      "覆盖": 3829,
      "卧室正下方": 3830,
      "位于左上角": 3831,
      "右侧也": 3832,
      "下方连通": 3833,
      "下方区域": 3834,
      "房间的": 3835,
      "与客厅之间": 3836,
      "紧邻书房": 3837,
      "客厅位于正": 3838,
      "中央的": 3839,
      "所有卧室": 3840,
      "通过虚线与走廊相连": 3841,
      "厨房在客厅下方": 3842,
      "客厅占据右中部": 3843,
      "客厅在右上": 3844,
      "该卧室北侧": 3845,
      "上下位置": 3846,
      "的浴室及": 3847,
      "厨房右侧为客厅": 3848,
      "客厅位于中央偏右": 3849,
      "第二间卧室相邻": 3850,
      "厨房位于北侧中央": 3851,
      "均通过走廊或墙体": 3852,
      "潜在连通路径": 3853,
      "所有房间通过虚线表示的通道相互连通": 3854,
      "形成一个紧凑的居住单元": 3855,
      "两个卧室分别位于左上和右上区域": 3856,
      "无走廊或过渡空间": 3857,
      "且这": 3858,
      "且均与走廊相连": 3859,
      "东接客厅": 3860,
      "为书房": 3861,
      "并共享边界": 3862,
      "第三个": 3863,
      "南侧连接客厅": 3864,
      "北侧浴室相邻": 3865,
      "客厅位于餐厅": 3866,
      "房屋东南侧": 3867,
      "西南位置": 3868,
      "并与卧室": 3869,
      "紧邻客厅和走廊": 3870,
      "其左侧与一间浴室相邻": 3871,
      "与客厅和走廊": 3872,
      "与下方的卧室": 3873,
      "客厅的上方": 3874,
      "垂直堆叠": 3875,
      "右上卧室则": 3876,
      "走廊位于房屋西南侧": 3877,
      "厨房南侧与卫生间相邻": 3878,
      "通过走廊与客厅间接相连": 3879,
      "上下排列的卧室": 3880,
      "的卧室与中间": 3881,
      "中右部": 3882,
      "无独立封闭空间": 3883,
      "两个卧室分别位于左上和右上": 3884,
      "且与之相邻": 3885,
      "一上一下": 3886,
      "上卧": 3887,
      "东接浴室": 3888,
      "两浴室": 3889,
      "向四周": 3890,
      "跨区": 3891,
      "连接西侧": 3892,
      "右侧的卧室相邻": 3893,
      "右侧厨房及": 3894,
      "下方与走廊相邻": 3895,
      "南侧为走廊": 3896,
      "其中卧室在": 3897,
      "左上和右下区域": 3898,
      "两个房间": 3899,
      "房屋西南角": 3900,
      "分布有": 3901,
      "分布结构": 3902,
      "卧室位于南侧": 3903,
      "卧室位于东侧": 3904,
      "卧室位于右上角": 3905,
      "卧室位于房子": 3906,
      "右下角的卧室相邻": 3907,
      "浴室位于床的": 3908,
      "各房间通过虚线示意": 3909,
      "另一个浴室相连": 3910,
      "书房之间": 3911,
      "两个浴室分别位于走廊": 3912,
      "与浴室及": 3913,
      "其左侧为卧室": 3914,
      "其北侧紧邻浴室": 3915,
      "整体布局中各房间通过": 3916,
      "左上方卧室": 3917,
      "卧室及客厅": 3918,
      "其下方为": 3919,
      "其下方为浴室": 3920,
      "其下方为走廊": 3921,
      "其下方紧邻厨房": 3922,
      "走廊的上方": 3923,
      "其南侧紧邻一间卧室": 3924,
      "浴室及客厅": 3925,
      "厨房北侧为卫生间": 3926,
      "通过虚线连接至客厅": 3927,
      "北邻浴室": 3928,
      "两个浴室和两个卧室": 3929,
      "中部偏东位置": 3930,
      "另设一间卧室": 3931,
      "整体布局呈十字形分布": 3932,
      "通过走廊间接与": 3933,
      "走廊贯穿中部偏右区域": 3934,
      "客厅位于住宅中央": 3935,
      "”;": 3936,
      "与起居室": 3937,
      "中下位置": 3938,
      "仅与客厅和走廊相邻": 3939,
      "南接厨房": 3940,
      "和东北侧": 3941,
      "设有一": 3942,
      "门廊": 3943,
      "门连接": 3944,
      "浴室与走廊相邻": 3945,
      "浴室正下方": 3946,
      "右侧客厅相邻": 3947,
      "上方连接厨房": 3948,
      "通过一个": 3949,
      "左侧是": 3950,
      "另一卫生间": 3951,
      "北侧紧邻走廊": 3952,
      "客厅位于东北角": 3953,
      "西侧与浴室相邻": 3954,
      "浴室位于走廊右侧": 3955,
      "通过走廊与其余房间": 3956,
      "两间浴室和一间卧室": 3957,
      "厨房和主卧室之间": 3958,
      "东南角卧室": 3959,
      "邻接一间卧室": 3960,
      "两个卫生间分别": 3961,
      "整体布局呈分散": 3962,
      "通向阳台": 3963,
      "两者通过走廊相连": 3964,
      "走廊向下": 3965,
      "其西侧紧邻厨房": 3966,
      "再往上": 3967,
      "南邻浴室": 3968,
      "客厅位于中心偏左位置": 3969,
      "另一个卧室在右下角": 3970,
      "其中一个位于": 3971,
      "形成以客厅为中心": 3972,
      "分别连接两个卧室": 3973,
      " 卧室 相邻": 3974,
      "上至下": 3975,
      "走廊呈横向带状贯穿中部": 3976,
      "上接浴室": 3977,
      "东靠": 3978,
      "并与走廊及": 3979,
      "并分别与两者": 3980,
      "有连接": 3981,
      "的卫生间相邻": 3982,
      "连线": 3983,
      "非直接": 3984,
      "浴室北侧": 3985,
      "浴室间接连通": 3986,
      "厨房则位于": 3987,
      "上方连接一间卧室": 3988,
      "厨房位于走廊北侧": 3989,
      "南侧连接走廊": 3990,
      "北侧区域": 3991,
      "紧邻厨房和": 3992,
      "客厅位于走廊右侧": 3993,
      "其中卧室": 3994,
      "右下浴室相邻": 3995,
      "一个由": 3996,
      "浴室位于东南侧": 3997,
      "形成三": 3998,
      "形成多向": 3999,
      "右上角卧室相邻": 4000,
      "所有房间通过走廊相连": 4001,
      "厨房在东侧": 4002,
      "底部区域": 4003,
      "中央偏上": 4004,
      "过道及": 4005,
      "客厅位于房屋中央": 4006,
      "客厅位于房屋东南侧": 4007,
      "所有房间均通过走廊或直接相邻": 4008,
      "设有通往": 4009,
      "与北侧的卧室": 4010,
      "整体呈十字": 4011,
      "东邻客厅": 4012,
      "卧室位于左侧和下方": 4013,
      "厨房位于中央偏下位置": 4014,
      "南连客厅": 4015,
      "通过走廊与客厅相通": 4016,
      "整体布局呈不规则块状": 4017,
      "卫生间处于次卧室和厨房之间": 4018,
      "形成连通结构": 4019,
      " 浴室 相邻": 4020,
      "走廊呈横向长条状贯穿中部": 4021,
      "与两个卧室": 4022,
      "且厨房": 4023,
      "且与卧室": 4024,
      "以虚线连接": 4025,
      "但均": 4026,
      "则靠近": 4027,
      "和走廊相邻": 4028,
      "左至右": 4029,
      "并靠近": 4030,
      "并与走廊直接相连": 4031,
      "最下方卧室": 4032,
      "节点": 4033,
      "邻走廊": 4034,
      "客厅东南角": 4035,
      "位于右侧": 4036,
      "位于右下角": 4037,
      "连接第三间卧室": 4038,
      "连接所有主要": 4039,
      "连接南北两侧": 4040,
      "上方卫生间相邻": 4041,
      "厨房位于右下区域": 4042,
      "北侧和东侧": 4043,
      "分别通向": 4044,
      "紧邻另一间浴室": 4045,
      "左上卧室相邻": 4046,
      "与走廊相邻并连通": 4047,
      "右上角和": 4048,
      "功能房间": 4049,
      "右下方卧室相邻": 4050,
      "厨房与卫生间相邻": 4051,
      "卧室位于房屋的": 4052,
      "与浴室和厨房相邻": 4053,
      "作为核心": 4054,
      "卧室与厨房不直接相邻": 4055,
      "无直接通道": 4056,
      "另一间卧室及卫生间": 4057,
      "右上和右下位置": 4058,
      "该空间由多个": 4059,
      "与中间卧室": 4060,
      "南接浴室": 4061,
      "另有一个": 4062,
      "右半部分": 4063,
      "所示": 4064,
      "最右侧卧室": 4065,
      "标有": 4066,
      "角落": 4067,
      "位于左下角": 4068,
      "相邻厨房": 4069,
      "连接起居室": 4070,
      "连接两个卧室和一个浴室": 4071,
      "右侧则与": 4072,
      "下方的客厅": 4073,
      "北侧和南侧": 4074,
      "东侧并": 4075,
      "客厅位于中部偏下": 4076,
      "其中浴室在": 4077,
      "西侧通向": 4078,
      "西侧连接另一间卧室": 4079,
      "卧室位于东南角": 4080,
      "的卧室与浴室相邻": 4081,
      "直接相邻关系": 4082,
      "其北侧为浴室": 4083,
      "其北侧为卧室": 4084,
      "客厅和两个卧室": 4085,
      "横向延伸": 4086,
      "其南侧紧邻厨房": 4087,
      "主卧和次卧": 4088,
      "与另一间卧室相接": 4089,
      "走廊位于房屋东北侧": 4090,
      "多个卧室及浴室": 4091,
      "西南和东南": 4092,
      "东北和东南角": 4093,
      "厨房位于餐厅左侧": 4094,
      "从左至右依次为卧室": 4095,
      "主卧位于客厅东侧并与之直接连通": 4096,
      "客厅占据右上大片区域": 4097,
      "东侧与餐厅直接相连": 4098,
      "客厅占据底部中央区域": 4099,
      "视线关系": 4100,
      "偏左位置": 4101,
      "其西北侧": 4102,
      "另两间": 4103,
      "的通道": 4104,
      "西接客厅": 4105,
      "客厅与浴室相邻": 4106,
      "厨房或": 4107,
      "厨房左上方": 4108,
      "右侧通过走廊连接": 4109,
      "右侧延伸至": 4110,
      "上方连接客厅": 4111,
      "厨房位于走廊右侧": 4112,
      "厨房位于房子的": 4113,
      "厨房位于客厅正上方": 4114,
      "东侧与一间卧室相邻": 4115,
      "一个较大的": 4116,
      "卧室位于左上方": 4117,
      "卧室位于厨房上方": 4118,
      "餐厅紧邻厨房南侧": 4119,
      "客厅在底部中央": 4120,
      "通过走廊与多个房间": 4121,
      "另一个卫生间相邻": 4122,
      "卧室在左上角": 4123,
      "与走廊和卧室相连": 4124,
      "东北角和东南角": 4125,
      "该浴室同时": 4126,
      "其东侧与客厅相邻": 4127,
      "与左侧的": 4128,
      "客厅位于房屋西南侧": 4129,
      "主卧在": 4130,
      "所有房间均通过走廊或直接边界": 4131,
      "垂直边界": 4132,
      "各房间通过走廊和": 4133,
      "卧室与浴室之间": 4134,
      "生活区域": 4135,
      "连接厨房和一间卧室": 4136,
      "西南和东南角": 4137,
      "第二间浴室相邻": 4138,
      "客厅处于中心位置": 4139,
      "客厅位于中心偏左": 4140,
      "连接一间浴室和一间卧室": 4141,
      "中部偏北和": 4142,
      "三间浴室分别位于": 4143,
      "仅与厨房和": 4144,
      "可通过": 4145,
      "狭长": 4146,
      "确保": 4147,
      "还有一个浴室": 4148,
      "连接浴室和卧室": 4149,
      "右侧卧室在": 4150,
      "下方与走廊相接": 4151,
      "上方浴室及": 4152,
      "通过斜向": 4153,
      "北侧与走廊相连": 4154,
      "通过走廊相互连接": 4155,
      "西侧连接一间卧室": 4156,
      "左上浴室": 4157,
      "中央为": 4158,
      "浴室位于客厅下方": 4159,
      "通过虚线与厨房": 4160,
      "所有房间中": 4161,
      "客厅占据西北区域": 4162,
      "客厅在下方": 4163,
      "卧室在左下角": 4164,
      "卧室在右上方": 4165,
      "厨房位于房屋西北角": 4166,
      "次卧相邻": 4167,
      "均与走廊直接相通": 4168,
      "厨房的左侧": 4169,
      "水平方向上": 4170,
      "向上延伸至": 4171,
      "所有房间通过边界": 4172,
      "所有房间通过走廊或直接边界实现空间连通": 4173,
      "所有卧室均不直接": 4174,
      " 浴室 ": 4175,
      "一个客厅和一个走廊": 4176,
      "三间卧室分别分布在左上": 4177,
      "该布局包含三个卧室": 4178,
      "七个房间": 4179,
      "上边界": 4180,
      "出入口": 4181,
      "各连接一间卧室": 4182,
      "楼梯": 4183,
      "经由": 4184,
      "至少": 4185,
      "该布局": 4186,
      "走廊西北侧": 4187,
      "浴室西侧": 4188,
      "右侧连": 4189,
      "上方连接另一间卧室": 4190,
      "南侧为卧室": 4191,
      "东侧与走廊相邻": 4192,
      "中部和右侧": 4193,
      "左下与": 4194,
      "房屋东南角": 4195,
      "房屋西北侧": 4196,
      "卧室位于客厅": 4197,
      "卧室位于客厅右侧": 4198,
      "卧室位于左上区域": 4199,
      "的卧室与客厅相邻": 4200,
      "右上角的浴室": 4201,
      "所有房间通过虚线连接": 4202,
      "西南卧室则": 4203,
      "另一个卧室和": 4204,
      "间接相邻": 4205,
      "其上方和下方": 4206,
      "客厅在下方中央": 4207,
      "两个卧室分别位于左上角和右上角": 4208,
      "左下方卧室": 4209,
      "两个浴室分别位于走廊的": 4210,
      "其左侧与厨房相邻": 4211,
      "紧邻厨房北侧": 4212,
      "部分相邻": 4213,
      "横向排列": 4214,
      "紧凑布局": 4215,
      "顶部浴室": 4216,
      "与餐厅通过开放式": 4217,
      "邻近卧室": 4218,
      "厨房位于中央偏右": 4219,
      "但不与任何": 4220,
      "浴室分布在多个位置": 4221,
      "客厅与卧室相连": 4222,
      "大面积客厅": 4223,
      "主卧室和次卧室": 4224,
      "其中一间浴室位于": 4225,
      "客厅占据右下角区域": 4226,
      "一在": 4227,
      "且与餐厅": 4228,
      "且各自": 4229,
      "及南侧": 4230,
      "呈十字": 4231,
      "左接厨房": 4232,
      "最东端": 4233,
      "的另一个卧室": 4234,
      "西接厨房": 4235,
      "长方": 4236,
      "走廊西南侧": 4237,
      "走廊和厨房": 4238,
      "浴室直接相连": 4239,
      "厨房旁边": 4240,
      "右侧通向": 4241,
      "右侧卫生间相邻": 4242,
      "通过走廊连接厨房和": 4243,
      "与厨房房间相邻": 4244,
      "其中厨房与": 4245,
      "其中西侧卧室": 4246,
      "西侧和东侧": 4247,
      "卧室位于右下角": 4248,
      "卧室位于西北角": 4249,
      "形成核心": 4250,
      "左下角的浴室": 4251,
      "并与餐厅": 4252,
      "靠近其中一个卧室": 4253,
      "书房则位于": 4254,
      "两个浴室分别位于左侧中部": 4255,
      "其下方紧邻卧室": 4256,
      "两间浴室分别位于中上部": 4257,
      "二者之间": 4258,
      "明确分隔": 4259,
      "三间卧室分别位于左下": 4260,
      "向右连接": 4261,
      "向南延伸至": 4262,
      "放射式布局": 4263,
      "水平边界": 4264,
      "下方为另一个卧室": 4265,
      "三个浴室分别位于": 4266,
      "右邻浴室": 4267,
      "下连厨房": 4268,
      "自上而下依次为卧室": 4269,
      "左下和右上区域": 4270,
      "主卧室与次卧室": 4271,
      "与一间卧室和一间浴室相邻": 4272,
      "下卧": 4273,
      "但未": 4274,
      "前者": 4275,
      "和一个卧室": 4276,
      "式结构": 4277,
      "或门洞": 4278,
      "排布": 4279,
      "还连接着": 4280,
      "走廊右端": 4281,
      "客厅或": 4282,
      "客厅间接连通": 4283,
      "右侧上部": 4284,
      "右侧与走廊相接": 4285,
      "左侧有": 4286,
      "左侧连接浴室": 4287,
      "厨房位于中心": 4288,
      "厨房位于右上区域": 4289,
      "厨房位于走廊下方": 4290,
      "南侧设有": 4291,
      "客厅位于走廊东侧": 4292,
      "房屋包含": 4293,
      "卧室位于上方": 4294,
      "卧室位于走廊上方": 4295,
      "与客厅相邻并通过走廊连接": 4296,
      "厨房在客厅正上方": 4297,
      "客厅在西南角": 4298,
      "通过走廊与主": 4299,
      "同时与上方": 4300,
      "同时与客厅和": 4301,
      "两个卧室分别位于左上和右下": 4302,
      "与卧室直接相邻": 4303,
      "与走廊和浴室相连": 4304,
      "其北侧与走廊相连": 4305,
      "走廊连接各个房间": 4306,
      "与左侧浴室相邻": 4307,
      "走廊向左": 4308,
      "存在视觉": 4309,
      "卧室分布在多个位置": 4310,
      "两间卧室及浴室": 4311,
      "东邻卧室": 4312,
      "其下方是卧室": 4313,
      "向上延伸": 4314,
      "表明其": 4315,
      "四间卧室分别分布于": 4316,
      "南邻走廊": 4317,
      "东连客厅": 4318,
      "两间浴室及三间卧室": 4319,
      "并与走廊相通": 4320,
      "交错分布": 4321,
      "走廊处于中心位置": 4322,
      "一扇门": 4323,
      "且与走廊": 4324,
      "且面积最大": 4325,
      "右边界": 4326,
      "和另一个卧室": 4327,
      "未与其他房间": 4328,
      "次卧室与": 4329,
      "第三间": 4330,
      "门道": 4331,
      "卧室占据": 4332,
      "浴室又": 4333,
      "上方卧室和": 4334,
      "连通多个房间": 4335,
      "北侧的": 4336,
      "北侧自西向东": 4337,
      "浴室和一间卧室": 4338,
      "两间卧室与一间浴室": 4339,
      "浴室位于客厅": 4340,
      "浴室位于走廊下方": 4341,
      "中间卫生间": 4342,
      "西北与": 4343,
      "客厅占据中心偏": 4344,
      "通过走廊与卧室": 4345,
      "第三间卧室在": 4346,
      "客厅的左侧": 4347,
      "另一卧室相连": 4348,
      "下方卧室相连": 4349,
      "客厅居中偏西": 4350,
      "中间浴室及": 4351,
      "通过一扇门直接连通": 4352,
      "卧室分布在不同区域": 4353,
      "向下延伸": 4354,
      "厨房东侧连接卫生间": 4355,
      "三间卧室分别分布于西南": 4356,
      "左上和右上": 4357,
      "主卧室在客厅右侧": 4358,
      "拼接布局": 4359,
      "对称分布": 4360,
      "通过虚线连接表示连通关系": 4361,
      "通过一条短走廊与": 4362,
      "下层卧室": 4363,
      "右下角的卧室则": 4364,
      "另设一间浴室": 4365,
      "走廊居中连接各区域": 4366,
      "隔走廊相望": 4367,
      "这是一个包含客厅": 4368,
      "] ": 4369,
      "以实线": 4370,
      "其右方": 4371,
      "悬空": 4372,
      "标识": 4373,
      "短走廊": 4374,
      "竖向": 4375,
      "西墙": 4376,
      "这些": 4377,
      "高度": 4378,
      "连接左侧浴室": 4379,
      "右侧紧邻浴室": 4380,
      "厨房位于中心区域": 4381,
      "与客厅直接相通": 4382,
      "东侧连通": 4383,
      "东侧紧邻客厅": 4384,
      "客厅位于厨房下方": 4385,
      "客厅位于下方中央": 4386,
      "其中左下卧室与": 4387,
      "西侧浴室相邻": 4388,
      "浴室和另一卧室": 4389,
      "卧室与卫生间相邻": 4390,
      "厨房在西北角": 4391,
      "其上方连接走廊": 4392,
      "客厅占据了": 4393,
      "客厅在厨房上方": 4394,
      "客厅在厨房正上方": 4395,
      "依次连接浴室": 4396,
      "实现相互连通": 4397,
      "连接厨房和浴室": 4398,
      "厨房和另一间卧室": 4399,
      "浴室在厨房正下方": 4400,
      "相互邻接": 4401,
      "走廊连接卧室": 4402,
      "走廊连接所有房间": 4403,
      "卧室及走廊": 4404,
      "与厨房和浴室相连": 4405,
      "与厨房和卧室相连": 4406,
      "下方连接另一间浴室": 4407,
      "和浴室相连": 4408,
      "走廊居中纵向贯穿": 4409,
      "形成一个环形": 4410,
      "厨房的右侧": 4411,
      "卧室分布在房屋的": 4412,
      "包括两个卧室": 4413,
      "走廊居中偏上": 4414,
      "东北和东南": 4415,
      "北邻客厅": 4416,
      "通行关系": 4417,
      "另一个在右下角": 4418,
      "的连通路径": 4419,
      "主卧室位于客厅东侧": 4420,
      "其中一间位于": 4421,
      "卫生间东侧连接卧室": 4422,
      "集中在": 4423,
      "无孤立空间": 4424,
      "且二者": 4425,
      "交汇": 4426,
      "南墙": 4427,
      "和下部": 4428,
      "和东南部": 4429,
      "均与客厅或": 4430,
      "最右下角": 4431,
      "的空间布局": 4432,
      "紧密": 4433,
      "西接卧室": 4434,
      "通走廊": 4435,
      "浴室紧邻卧室": 4436,
      "右侧连接卧室": 4437,
      "左侧卧室和": 4438,
      "厨房位于走廊上方": 4439,
      "卫生间相接": 4440,
      "左下部": 4441,
      "的卧室与厨房相邻": 4442,
      "左下角浴室": 4443,
      "其上方与卧室相邻": 4444,
      "客厅在走廊右侧": 4445,
      "独立的卧室": 4446,
      "客厅的右上方": 4447,
      "浴室及卧室": 4448,
      "矩形房间": 4449,
      "一间厨房": 4450,
      "另一个卧室位于右侧": 4451,
      "向下连通": 4452,
      "并列于": 4453,
      "厨房与客厅之间": 4454,
      "走廊居中偏左": 4455,
      "最上方的卧室位于": 4456,
      "客厅和厨房之间": 4457,
      "与多个房间相连": 4458,
      "中上和右上区域": 4459,
      "与走廊相邻并通过门连通": 4460,
      "线条连接": 4461,
      "长方形": 4462,
      "不与浴室相邻": 4463,
      "与其": 4464,
      "且彼此": 4465,
      "主浴室": 4466,
      "之上": 4467,
      "亦有一间卧室": 4468,
      "及右下角": 4469,
      "并通过虚线": 4470,
      "形贯穿": 4471,
      "设于": 4472,
      "邻客厅": 4473,
      "浴室连通": 4474,
      "右侧通向客厅": 4475,
      "南侧卧室及": 4476,
      "北侧与浴室相邻": 4477,
      "北侧设有": 4478,
      "区域连通": 4479,
      "分别与厨房": 4480,
      "西侧为走廊": 4481,
      "一个房屋": 4482,
      "两间卧室相连": 4483,
      "各房间的连通": 4484,
      "客厅占据上部": 4485,
      "客厅在右下方": 4486,
      "客厅在左下方": 4487,
      "两个卧室分别位于厨房的": 4488,
      "上下叠": 4489,
      "上下堆叠": 4490,
      "厨房和两个卧室": 4491,
      "两者通过一条短走廊相连": 4492,
      "与左侧的浴室和": 4493,
      "其西侧与客厅相邻": 4494,
      "走廊居中连接厨房": 4495,
      "其中左上和": 4496,
      "两个卧室及两个浴室": 4497,
      "走廊位于房屋南侧": 4498,
      "走廊位于房屋中心区域": 4499,
      "与浴室和走廊相连": 4500,
      "邻近关系": 4501,
      "并列分布": 4502,
      "放射状布局": 4503,
      "夹在两个卧室之间": 4504,
      "走廊和客厅": 4505,
      "所有房间通过中央走廊": 4506,
      "整体布局呈不规则拼接": 4507,
      "北邻走廊": 4508,
      "与之相连": 4509,
      "斜向相对": 4510,
      "均通过走廊与其他功能区连通": 4511,
      "一个房屋的平面图": 4512,
      "东位置": 4513,
      "但不直接相邻": 4514,
      "其左上方": 4515,
      "其上侧": 4516,
      "分层": 4517,
      "各主要": 4518,
      "均直接相邻": 4519,
      "或视觉关联": 4520,
      "有卫生间": 4521,
      "浴厕": 4522,
      "由一条": 4523,
      "至客厅": 4524,
      "连贯": 4525,
      "面向": 4526,
      "卧室相接": 4527,
      "客厅上方是走廊": 4528,
      "左侧连接客厅": 4529,
      "南侧与客厅相连": 4530,
      "紧邻另一个卧室": 4531,
      "东侧区域": 4532,
      "西侧并": 4533,
      "房屋以中央": 4534,
      "浴室位于卧室下方": 4535,
      "形成环绕": 4536,
      "厨房在客厅右上方": 4537,
      "东北卧室则": 4538,
      "并与卧室相邻": 4539,
      "其左侧与浴室相邻": 4540,
      "其下方紧邻一间卧室": 4541,
      "厨房位于房屋东北角": 4542,
      "走廊的下方": 4543,
      "连接着厨房": 4544,
      "两个卧室和两个卫生间": 4545,
      "南北走向": 4546,
      "并列分布着": 4547,
      "房间相邻连通": 4548,
      "东连走廊": 4549,
      "门洞相互连通": 4550,
      "另一间卧室及浴室": 4551,
      "所有房间均通过走廊实现相互连通": 4552,
      "走廊东端连接厨房": 4553,
      "客厅位于餐厅北侧并与之直接连通": 4554,
      "且与浴室相邻": 4555,
      "为一间浴室": 4556,
      "其左上角": 4557,
      "均与卧室相邻": 4558,
      "均通过走廊或直接": 4559,
      "均不直接相邻": 4560,
      "最西侧": 4561,
      "的连接关系": 4562,
      "西接浴室": 4563,
      "卧室与走廊相邻": 4564,
      "客厅居于": 4565,
      "厨房紧邻卧室": 4566,
      "厨房左右两侧": 4567,
      "下方浴室相连": 4568,
      "左侧接": 4569,
      "连通走廊": 4570,
      "厨房位于最右侧": 4571,
      "北侧为厨房": 4572,
      "分别连接卧室": 4573,
      "紧邻一个": 4574,
      "东侧则与": 4575,
      "分别位于走廊的": 4576,
      "其中一个卫生间": 4577,
      "西侧卧室相邻": 4578,
      "卧室位于左下方": 4579,
      "浴室和多个卧室": 4580,
      "卧室和走廊相邻": 4581,
      "浴室位于走廊上方": 4582,
      "另一个卧室则": 4583,
      "并与浴室相连": 4584,
      "两个卧室分别位于左上角和右下角": 4585,
      "中部偏左位置": 4586,
      "上下两间卧室": 4587,
      "右下方的卧室": 4588,
      "浴室在卧室右侧": 4589,
      "两个浴室分别位于左中和": 4590,
      "两个浴室分别位于中上和": 4591,
      "卧室及南侧": 4592,
      "下方连接一个浴室": 4593,
      "与一间卧室相接": 4594,
      "其东侧紧邻一间卧室": 4595,
      "中间卧室与": 4596,
      "各房间通过直接连接": 4597,
      "各房间通过直接边界": 4598,
      "走廊位于房屋西侧": 4599,
      "厨房南侧为餐厅": 4600,
      "正南位置": 4601,
      "但不直接相连": 4602,
      "连接了客厅": 4603,
      "另一个卧室在右上角": 4604,
      "客厅在餐厅的西侧": 4605,
      "且功能分区明确的空间结构": 4606,
      "所有房间均通过中央走廊": 4607,
      "整体布局呈十字交叉结构": 4608,
      "”、": 4609,
      "与生活区": 4610,
      "且通过走廊相连": 4611,
      "中层": 4612,
      "帽间": 4613,
      "并相邻": 4614,
      "浅蓝色区域": 4615,
      "系统": 4616,
      "衣帽间": 4617,
      "通厨房": 4618,
      "右侧为另一间卧室": 4619,
      "下方的浴室相邻": 4620,
      "左侧连接一间卧室": 4621,
      "北侧卧室与": 4622,
      "北侧与客厅相邻": 4623,
      "与客厅共享边界": 4624,
      "客厅位于厨房上方": 4625,
      "其中东北角": 4626,
      "其中北部": 4627,
      "卧室相邻于": 4628,
      "中央浴室": 4629,
      "中央客厅": 4630,
      "房屋东北角": 4631,
      "卧室位于客厅南侧": 4632,
      "厨房在餐厅东侧": 4633,
      "各房间通过虚线": 4634,
      "中间的": 4635,
      "两个卧室分别位于左下角和右上角": 4636,
      "过道为核心": 4637,
      "两间浴室分别位于西北和": 4638,
      "矩形拼接结构": 4639,
      "垂直相连": 4640,
      "围绕走廊分布": 4641,
      "浴室和卧室相连": 4642,
      "的客厅区域": 4643,
      "与北侧的浴室和": 4644,
      "另一间卫生间": 4645,
      "不同的卧室": 4646,
      "生活区位于": 4647,
      "走廊和卧室相邻": 4648,
      "并连接至": 4649,
      "对应的卧室": 4650,
      "并通向走廊": 4651,
      "被走廊环绕": 4652,
      " 过道 相邻": 4653,
      "均与卧室或": 4654,
      "通过走廊与其他房间间接连通": 4655,
      "无重叠或悬空": 4656,
      "向四周辐射": 4657,
      "西侧通向主卧": 4658,
      "上浴室": 4659,
      "中北": 4660,
      "南接卧室": 4661,
      "右接走廊": 4662,
      "呈放射状分布": 4663,
      "和两个浴室": 4664,
      "均通过走廊": 4665,
      "均通过走廊实现连通": 4666,
      "活动": 4667,
      "邻厨房": 4668,
      "浴室南侧": 4669,
      "厨房左下方": 4670,
      "右侧及": 4671,
      "下方走廊相邻": 4672,
      "上方与走廊相接": 4673,
      "连通一间卧室": 4674,
      "厨房位于最上方": 4675,
      "南侧为浴室": 4676,
      "北侧相邻": 4677,
      "东侧连接浴室": 4678,
      "其中浴室位于": 4679,
      "整体布局以走廊为": 4680,
      "东北位置": 4681,
      "中间的浴室": 4682,
      "并与多个房间": 4683,
      "客厅占据右上角区域": 4684,
      "客厅在北侧": 4685,
      "依次连接卧室": 4686,
      "同时客厅": 4687,
      "两个卧室分别位于房屋的": 4688,
      "上下相邻且": 4689,
      "厨房和另一个卧室": 4690,
      "浴室在厨房下方": 4691,
      "下方是卫生间": 4692,
      "书房与卧室": 4693,
      "其左侧为走廊": 4694,
      "整体布局呈横向": 4695,
      "部分区域": 4696,
      "东北侧卧室": 4697,
      "与下方浴室": 4698,
      "其东侧与卧室相邻": 4699,
      "其南侧与走廊相连": 4700,
      "其南侧为走廊": 4701,
      "下方卧室则": 4702,
      "连接着走廊": 4703,
      "一间客厅": 4704,
      "的客厅直接相邻": 4705,
      "三个卧室分别位于左下": 4706,
      "作为主要通道": 4707,
      "蓝色浴室相邻": 4708,
      "无直接跨区": 4709,
      "四个卧室分别分布在": 4710,
      "通过走廊与客厅连接": 4711,
      "串联各功能空间": 4712,
      "均通过走廊或与其他房间": 4713,
      "所有房间通过直接边界": 4714,
      "床位于左侧": 4715,
      "厨房位于中心偏下位置": 4716,
      "形成紧凑布局": 4717,
      "中左部": 4718,
      "以虚线相连": 4719,
      "各房间通过走廊或直接相邻实现连通": 4720,
      "走廊作为中心通道": 4721,
      "该房屋布局包含": 4722,
      "其中一卧室靠近浴室": 4723,
      "下卧室": 4724,
      "且与卧室相邻": 4725,
      "中北部": 4726,
      "为中心": 4727,
      "保持": 4728,
      "分为": 4729,
      "和走廊右侧": 4730,
      "或虚线表示": 4731,
      "是一间卧室": 4732,
      "暗示": 4733,
      "未与任何": 4734,
      "较小": 4735,
      "还连接": 4736,
      "这间卧室": 4737,
      "客厅紧邻走廊": 4738,
      "连接上方卧室": 4739,
      "上方与客厅相连": 4740,
      "左侧有两个卧室": 4741,
      "厨房位于客厅左侧": 4742,
      "厨房位于最南端": 4743,
      "厨房位于顶部中央": 4744,
      "南侧区域": 4745,
      "南侧与一间卧室相邻": 4746,
      "东侧浴室及": 4747,
      "其中靠": 4748,
      "其中北侧卧室": 4749,
      "西侧自北向南": 4750,
      "中央走廊相邻": 4751,
      "中央走廊呈": 4752,
      "房屋西北角": 4753,
      "整体布局以走廊为枢纽": 4754,
      "厨房在客厅上方": 4755,
      "客厅占据东北": 4756,
      "客厅占据东部": 4757,
      "实现物理连通": 4758,
      "上下两个卧室": 4759,
      "一个浴室相连": 4760,
      "其北侧为": 4761,
      "与右侧浴室": 4762,
      "与上方的浴室相邻": 4763,
      "客厅的西侧": 4764,
      "连接走廊和卧室": 4765,
      "主卧北侧": 4766,
      "垂直方向": 4767,
      "厨房下方为客厅": 4768,
      "其西侧紧邻走廊": 4769,
      "走廊居中分布": 4770,
      "均与走廊直接相邻": 4771,
      "各房间通过走廊相互连接": 4772,
      "两个卧室及一个卫生间": 4773,
      "卧室与客厅不直接相邻": 4774,
      "三个卧室分别位于西北": 4775,
      "整体呈紧凑": 4776,
      "左邻客厅": 4777,
      "包括卧室": 4778,
      "右侧为另一个卧室": 4779,
      "其中西北卧室与浴室相邻": 4780,
      "共用一堵墙": 4781,
      "形成以走廊为核心的放射状": 4782,
      "并通过一扇门与客厅相通": 4783,
      "厨房与浴室不相邻": 4784,
      "餐厅东侧为厨房": 4785,
      "以虚线标示": 4786,
      "均通过走廊与其他房间连接": 4787,
      "围绕其分布并": 4788,
      "客厅占据东侧大部分区域": 4789,
      "第二间卫生间": 4790,
      "该空间由多个矩形区域组成": 4791,
      "与两者": 4792,
      "且通过走廊连接": 4793,
      "也与": 4794,
      "区块": 4795,
      "各与一个卧室": 4796,
      "和正下方": 4797,
      "大区域": 4798,
      "实体": 4799,
      "接一间卧室": 4800,
      "的两个卧室": 4801,
      "的正下方": 4802,
      "连客厅": 4803,
      "走廊上方是": 4804,
      "厨房居": 4805,
      "连接另一卧室": 4806,
      "连接南北": 4807,
      "右侧卧室和": 4808,
      "与走廊之间": 4809,
      "南侧则与": 4810,
      "区域与": 4811,
      "分别与卧室": 4812,
      "紧邻其中一个卧室": 4813,
      "东侧与另一间卧室相邻": 4814,
      "卧室位于厨房右侧": 4815,
      "左上角浴室": 4816,
      "通过走廊或墙体": 4817,
      "书房和卧室": 4818,
      "东南角的卧室": 4819,
      "邻接房间": 4820,
      "与客厅和浴室相连": 4821,
      "其下方紧邻": 4822,
      "与左侧的浴室相邻": 4823,
      "客厅下方为": 4824,
      "设有浴室": 4825,
      "中心偏下位置": 4826,
      "中心偏右位置": 4827,
      "客厅左侧与": 4828,
      "各房间通过直接或间接的连接": 4829,
      "走廊位于房屋西北侧": 4830,
      "旁边是卧室": 4831,
      "客厅与厨房之间": 4832,
      "一条走廊的": 4833,
      "一条纵向走廊": 4834,
      "厨房与客厅不相邻": 4835,
      "各房间之间通过走廊实现连通": 4836,
      "内部通道": 4837,
      "客厅位于入口正": 4838,
      "公共空间": 4839,
      "有一条走廊": 4840,
      "楼梯间": 4841,
      "该布局由": 4842,
      "与另一卧室": 4843,
      "主卫生间": 4844,
      "和一个卫生间": 4845,
      "并共享": 4846,
      "并通过走廊连通": 4847,
      "最大面积": 4848,
      "该户型": 4849,
      "还有": 4850,
      "浴室同时": 4851,
      "连接至": 4852,
      "左侧有一个卧室": 4853,
      "连通所有房间": 4854,
      "厨房位于右下": 4855,
      "厨房位于客厅正下方": 4856,
      "南侧连接浴室": 4857,
      "北侧有": 4858,
      "北侧连接走廊": 4859,
      "东侧的客厅": 4860,
      "卫生间处在": 4861,
      "分别位于走廊": 4862,
      "西侧卧室与": 4863,
      "另一间卧室和卫生间": 4864,
      "浴室位于卧室": 4865,
      "浴室位于东侧": 4866,
      "中间卫生间相邻": 4867,
      "其上方与客厅相邻": 4868,
      "过道相连": 4869,
      "过道与客厅": 4870,
      "整体布局呈紧凑": 4871,
      "该浴室左侧": 4872,
      "通向走廊": 4873,
      "其东侧与厨房相邻": 4874,
      "厨房右侧为浴室": 4875,
      "主卧室紧邻客厅": 4876,
      "存在空间关联": 4877,
      "中间浴室相连": 4878,
      "共享边界实现连通": 4879,
      "各功能区通过走廊实现": 4880,
      "南部卧室": 4881,
      "卧室与客厅不相邻": 4882,
      "其中一间卧室与浴室相邻": 4883,
      "厨房与客厅不直接相邻": 4884,
      "右侧连接另一间浴室": 4885,
      "南邻客厅": 4886,
      "右邻卧室": 4887,
      "右邻厨房": 4888,
      "组合布局": 4889,
      "厨房和客厅之间": 4890,
      "厨房位于餐厅的东侧": 4891,
      "的连通性": 4892,
      "所有房间通过走廊或直接相邻方式连通": 4893,
      "各房间通过虚线连接表示相邻关系": 4894,
      "靠近各自的卧室": 4895,
      "潜在连通或视线关系": 4896,
      "与两个卧室及": 4897,
      "仅与走廊": 4898,
      "各邻": 4899,
      "在左下角": 4900,
      "均与浴室相邻": 4901,
      "是一个浴室": 4902,
      "的平面布局": 4903,
      "隔离": 4904,
      "非物理": 4905,
      "卧室同时": 4906,
      "走廊纵向贯穿": 4907,
      "客厅西北侧": 4908,
      "右侧有一个卧室": 4909,
      "右侧有一个": 4910,
      "下方厨房": 4911,
      "上方区域": 4912,
      "左侧卫生间": 4913,
      "北侧连接厨房": 4914,
      "分别与客厅": 4915,
      "紧邻第三间卧室": 4916,
      "客厅位于中部": 4917,
      "与厨房不直接相邻": 4918,
      "其中左下角卧室": 4919,
      "两个卧室位于": 4920,
      "中央走廊贯穿南北": 4921,
      "东南浴室": 4922,
      "浴室位于西南角": 4923,
      "西南卧室与": 4924,
      "直接连通主卧室": 4925,
      "其上方紧邻一个卧室": 4926,
      "两个卧室分别位于走廊": 4927,
      "浴室在卧室下方": 4928,
      "与走廊和另一个卧室相邻": 4929,
      "独立的浴室": 4930,
      "走廊右侧为客厅": 4931,
      "所有房间均通过走廊或直接墙体": 4932,
      "路径相连": 4933,
      "客厅上方和右侧": 4934,
      "左中和右下": 4935,
      "三间卧室分别位于东北": 4936,
      "中上和右上": 4937,
      "走廊位于房屋东南侧": 4938,
      "通过走廊间接连通其他区域": 4939,
      "向上连通": 4940,
      "下方为另一卧室": 4941,
      "南连走廊": 4942,
      "两个浴室和一个走廊": 4943,
      "不与任何卧室直接相邻": 4944,
      "卧室和客厅之间": 4945,
      "客厅占据右侧大部分空间": 4946,
      "通过一条走廊与餐厅相连": 4947,
      "依次排列着卧室": 4948,
      "两个浴室及三个卧室": 4949,
      "相邻或直接连接的方式": 4950,
      "另外两间卧室": 4951,
      "上的关联": 4952,
      "次卧室在主卧室北侧": 4953,
      "直接相邻或间接连通": 4954,
      "表明它们之间存在连通关系": 4955,
      "形成清晰的动线结构": 4956,
      "形成三角": 4957,
      "”)": 4958,
      "与床": 4959,
      "与起居室相邻": 4960,
      "代表": 4961,
      "另有一个浴室": 4962,
      "周边": 4963,
      "并连接所有房间": 4964,
      "张床": 4965,
      "或路径关联": 4966,
      "无隔断": 4967,
      "而言": 4968,
      "连浴室": 4969,
      "连厨房": 4970,
      "走廊正": 4971,
      "客厅分布": 4972,
      "客厅东南方向": 4973,
      "厨房下方是客厅": 4974,
      "连接一个卫生间": 4975,
      "下方与厨房相连": 4976,
      "左侧连接卧室": 4977,
      "另一卧室和浴室": 4978,
      "厨房位于厨房位于": 4979,
      "厨房位于顶部": 4980,
      "南侧连接卧室": 4981,
      "南侧连接一间卧室": 4982,
      "南侧与走廊相接": 4983,
      "东侧卧室与": 4984,
      "卫生间西侧": 4985,
      "与厨房共享边界": 4986,
      "其中客厅在": 4987,
      "西侧连接客厅": 4988,
      "房屋呈不规则": 4989,
      "卧室位于走廊左侧": 4990,
      "之间的": 4991,
      "之间通过": 4992,
      "右上角和右中部": 4993,
      "所有房间以矩形块状": 4994,
      "空间的": 4995,
      "两个浴室相连": 4996,
      "各房间通过走廊或直接墙体": 4997,
      "客厅占据右上角": 4998,
      "右上方卧室": 4999,
      "书房紧邻次卧室": 5000,
      "客厅右侧连接走廊": 5001,
      "走廊右侧连接客厅": 5002,
      "其南侧与客厅相邻": 5003,
      "中间卧室及": 5004,
      "连接着另一个卧室": 5005,
      "卧室位于房屋左侧": 5006,
      "与走廊及浴室相邻": 5007,
      "路径相互连通": 5008,
      "客厅上方为浴室": 5009,
      "其西侧与": 5010,
      "其西侧紧邻浴室": 5011,
      "分布着两间卧室": 5012,
      "入口门": 5013,
      "不同高度": 5014,
      "卧室下方为浴室": 5015,
      "中央走廊横向贯穿": 5016,
      "与一间浴室相连": 5017,
      "四间卧室分布于": 5018,
      "上层卧室相邻": 5019,
      "串联各功能区": 5020,
      "下部卧室": 5021,
      "各房间之间的": 5022,
      "东连厨房": 5023,
      "黄色区域为客厅": 5024,
      "相邻房间包括": 5025,
      "走廊向右延伸连接": 5026,
      "厨房居中偏右": 5027,
      "西侧连接主卧": 5028,
      "具体而言": 5029,
      "无孤立区域": 5030,
      "上边": 5031,
      "与床相邻": 5032,
      "且与走廊直接相连": 5033,
      "仅与走廊直接相连": 5034,
      "六个": 5035,
      "其左下方": 5036,
      "及另一间卧室": 5037,
      "后院": 5038,
      "和厨房相邻": 5039,
      "均直接相连": 5040,
      "均通过走廊相连": 5041,
      "未直接": 5042,
      "的右上方": 5043,
      "还分布着": 5044,
      "邻卧室": 5045,
      "走廊北端": 5046,
      "厨房东南方向": 5047,
      "右侧依次": 5048,
      "右侧自上而下": 5049,
      "下方卧室在": 5050,
      "厨房位于中部偏右": 5051,
      "其中右上角卧室": 5052,
      "卧室位于西南角": 5053,
      "东南卧室与": 5054,
      "所有区域": 5055,
      "浴室和卧室相邻": 5056,
      "浴室位于西北角": 5057,
      "通过虚线与客厅": 5058,
      "其右侧与一间卧室相邻": 5059,
      "各房间通过走廊或直接": 5060,
      "并与书房": 5061,
      "客厅占据南部": 5062,
      "客厅占据右半部分": 5063,
      "两个卧室分别位于布局的": 5064,
      "书房东侧": 5065,
      "书房介于": 5066,
      "其左侧紧邻": 5067,
      "西南角卧室": 5068,
      "与右侧卧室及": 5069,
      "与右侧卧室相连": 5070,
      "部分卧室": 5071,
      "客厅右侧为走廊": 5072,
      "表示相邻关系": 5073,
      "与下方卧室及": 5074,
      "其下方为客厅": 5075,
      "横向走廊": 5076,
      "第三间卧室相接": 5077,
      "中间卧室相连": 5078,
      "所有房间均通过走廊": 5079,
      "均通过走廊与其他区域": 5080,
      "墙体或门洞": 5081,
      "与浴室和客厅": 5082,
      "走廊贯穿中央区域": 5083,
      "不同方位": 5084,
      "第二间卧室位于": 5085,
      "第三个卧室位于": 5086,
      "一个在左上角": 5087,
      "西连客厅": 5088,
      "右端延伸至": 5089,
      "两间浴室及一间卧室": 5090,
      "红色区域的": 5091,
      "边线接触": 5092,
      "卫生间东侧为厨房": 5093,
      "走廊居中连接各房间": 5094,
      "第五间卧室": 5095,
      "整体布局呈不规则块状拼接": 5096,
      "这些房间": 5097,
      "上到": 5098,
      "且不直接相邻": 5099,
      "之隔": 5100,
      "从上到": 5101,
      "但客厅": 5102,
      "偏下": 5103,
      "六个房间": 5104,
      "其下": 5105,
      "各与": 5106,
      "接通": 5107,
      "的相邻关系": 5108,
      "第三": 5109,
      "紧挨着": 5110,
      "线性": 5111,
      "间房": 5112,
      "卧室环绕": 5113,
      "厨房占据": 5114,
      "相邻客厅": 5115,
      "连接结构": 5116,
      "右侧与一间浴室相邻": 5117,
      "下方客厅相邻": 5118,
      "下方卫生间相邻": 5119,
      "下方与客厅相接": 5120,
      "厨房位于上部中央": 5121,
      "北侧与走廊相邻": 5122,
      "分别通过走廊与": 5123,
      "东侧自北向南": 5124,
      "西侧则与": 5125,
      "中央位置": 5126,
      "卧室位于右上方": 5127,
      "卧室位于东北角": 5128,
      "左下角另有一间卧室": 5129,
      "其右侧为厨房": 5130,
      "所有房间通过走廊": 5131,
      "所有房间以矩形块": 5132,
      "空间关系": 5133,
      "中间层": 5134,
      "其上方为厨房": 5135,
      "其上方紧邻一个浴室": 5136,
      "客厅在东北角": 5137,
      "同时与走廊": 5138,
      "该卧室正": 5139,
      "浴室在最右侧": 5140,
      "西南角和东南角": 5141,
      "与右侧的浴室和": 5142,
      "卧室及卫生间": 5143,
      "起居室占据": 5144,
      "共享边线": 5145,
      "第三间卧室相连": 5146,
      "其东侧与浴室相邻": 5147,
      "其东侧为浴室": 5148,
      "与左侧卧室及": 5149,
      "客厅的左上方": 5150,
      "与走廊及客厅相邻": 5151,
      "与走廊及厨房相邻": 5152,
      "其中左上卧室与厨房": 5153,
      "向东延伸至": 5154,
      "邻近浴室": 5155,
      "邻近房间": 5156,
      "通过走廊与客厅连通": 5157,
      "主卧室在客厅东侧": 5158,
      "各房间之间有": 5159,
      "无独立通道": 5160,
      "一个卧室位于房子的": 5161,
      "三个卧室和两个卫生间": 5162,
      "之间由一条": 5163,
      "与其他功能区相连": 5164,
      "走廊居中贯穿南北": 5165,
      "其余空间相连": 5166,
      "两者通过一扇宽门相连通": 5167,
      "与其他房间连通": 5168,
      "与一条走廊": 5169,
      "与两个浴室相邻": 5170,
      "北通": 5171,
      "南卧": 5172,
      "和连通关系": 5173,
      "和东南区域": 5174,
      "外墙": 5175,
      "小卧室": 5176,
      "并与走廊相接": 5177,
      "斜线": 5178,
      "最底部": 5179,
      "短走廊连接": 5180,
      "该浴室位于": 5181,
      "走廊上方是客厅": 5182,
      "浴室仅": 5183,
      "浴室再": 5184,
      "客厅通过走廊与": 5185,
      "客厅上方是卧室": 5186,
      "厨房不与任何浴室直接相邻": 5187,
      "右侧接": 5188,
      "右侧上方为": 5189,
      "左侧卧室及": 5190,
      "左侧与走廊相接": 5191,
      "厨房位于西边": 5192,
      "直接接触": 5193,
      "东侧中部": 5194,
      "其中客厅与厨房": 5195,
      "其中客厅与厨房相邻": 5196,
      "布局呈": 5197,
      "房屋呈": 5198,
      "一间浴室和另一间卧室": 5199,
      "并与主卧室": 5200,
      "中心走廊": 5201,
      "其上方和右侧": 5202,
      "三个卧室和一个浴室": 5203,
      "同时通过走廊与": 5204,
      "两个卧室分别位于右上角和左下角": 5205,
      "下方是另一个浴室": 5206,
      "其左侧紧邻浴室": 5207,
      "与走廊和客厅": 5208,
      "左上方的卧室": 5209,
      "部分接壤": 5210,
      "与厨房和客厅相连": 5211,
      "客厅和另一个卧室": 5212,
      "两间浴室分别位于房屋": 5213,
      "横向连通": 5214,
      "横向并列": 5215,
      "两者相连": 5216,
      "彼此通过走廊或": 5217,
      "包含四个卧室": 5218,
      "与走廊及右侧卧室相邻": 5219,
      "左侧卧室下方": 5220,
      "厨房的东侧": 5221,
      "厨房的右上方": 5222,
      "左中浴室": 5223,
      "与餐厅相通": 5224,
      "客厅位于中央偏左位置": 5225,
      "通过一扇门与餐厅相连": 5226,
      "厨房位于右侧下方": 5227,
      "两间卧室及两间浴室": 5228,
      "依次排列卧室": 5229,
      "且均与走廊相邻": 5230,
      "厨房位于中央偏左位置": 5231,
      "客厅位于中心偏右": 5232,
      "第一间卧室相邻": 5233,
      "客厅位于布局中央偏下": 5234,
      "厨房紧邻餐厅并在": 5235,
      "彼此不直接连通": 5236,
      "该平面图显示": 5237,
      "上中": 5238,
      "与两间卧室相邻": 5239,
      "与卧室和浴室相连": 5240,
      "且仅": 5241,
      "且各自邻近": 5242,
      "则在": 5243,
      "及走廊": 5244,
      "及走廊相连": 5245,
      "和下方卧室": 5246,
      "四角": 5247,
      "图的": 5248,
      "室一": 5249,
      "左边界": 5250,
      "延展": 5251,
      "是两间卧室": 5252,
      "自左至右": 5253,
      "西通": 5254,
      "西位置": 5255,
      "连至": 5256,
      "走廊和浴室": 5257,
      "浴室则处于": 5258,
      "位于南侧": 5259,
      "右侧厨房相邻": 5260,
      "上方为另一间卧室": 5261,
      "通过边界": 5262,
      "厨房位于北部": 5263,
      "分别为": 5264,
      "分别在": 5265,
      "东侧为另一间卧室": 5266,
      "卫生间靠近": 5267,
      "客厅位于走廊": 5268,
      "客厅位于右上区域": 5269,
      "客厅位于右中部": 5270,
      "其中东侧": 5271,
      "布局紧凑": 5272,
      "右上浴室相邻": 5273,
      "左下浴室相邻": 5274,
      "浴室和客厅相邻": 5275,
      "空间上": 5276,
      "与浴室相邻并通过走廊连接": 5277,
      "两个卧室分别位于右侧": 5278,
      "卧室在右侧": 5279,
      "书房北侧": 5280,
      "与走廊和厨房相连": 5281,
      "与走廊和其中一个卧室相邻": 5282,
      "紧邻厨房下方": 5283,
      "该浴室再向右": 5284,
      "底部中央位置": 5285,
      "次卧相连": 5286,
      "上部区域": 5287,
      "有一卧室": 5288,
      "客厅的东侧": 5289,
      "主卧室处于": 5290,
      "客厅位于房屋西南角": 5291,
      "次卧室西侧": 5292,
      "设有卫生间": 5293,
      "中心偏左": 5294,
      "客厅上方为卧室": 5295,
      "与餐厅直接相连": 5296,
      "左上和右上区域": 5297,
      "南邻卧室": 5298,
      "向北连接": 5299,
      "辐射状": 5300,
      "形成一个紧凑的": 5301,
      "厨房位于中心偏左位置": 5302,
      "矩形区域构成": 5303,
      "厨房紧邻餐厅左侧并": 5304,
      "三个卧室分别分布于西北": 5305,
      "中央走廊连接所有房间": 5306,
      "卧室与走廊之间": 5307,
      "主卧室和次卧室之间": 5308,
      "非直接相邻但存在": 5309,
      "矩形组合结构": 5310,
      "东侧与餐厅直接连通": 5311,
      "建立联系": 5312,
      "确保了": 5313,
      "”。": 5314,
      "东接卧室": 5315,
      "但都": 5316,
      "右通": 5317,
      "各分布": 5318,
      "呈竖直": 5319,
      "和客厅相邻": 5320,
      "和另一个浴室": 5321,
      "左接卧室": 5322,
      "带独立卫生间": 5323,
      "的通道相互连通": 5324,
      "还与": 5325,
      "走廊区域": 5326,
      "走廊与浴室": 5327,
      "走廊上方是卧室": 5328,
      "厨房紧邻浴室": 5329,
      "连接另一个浴室": 5330,
      "上方客厅": 5331,
      "另一处": 5332,
      "厨房位于过道": 5333,
      "厨房位于最下方": 5334,
      "北侧的浴室": 5335,
      "东侧通向": 5336,
      "东侧的卧室相邻": 5337,
      "其中左下": 5338,
      "其中两间卧室分别位于": 5339,
      "其中上方浴室": 5340,
      "西侧与另一间卧室相邻": 5341,
      "西侧毗邻": 5342,
      "右下卧室及": 5343,
      "一个长方形": 5344,
      "浴室位于最右侧": 5345,
      "浴室位于卧室上方": 5346,
      "与客厅相邻并通过虚线连接": 5347,
      "两个浴室之间": 5348,
      "直接连通厨房": 5349,
      "客厅在西南侧": 5350,
      "卧室在右下方": 5351,
      "中央偏左位置": 5352,
      "浴室在左侧": 5353,
      "两个浴室分别位于中部": 5354,
      "与走廊和厨房": 5355,
      "部分边界": 5356,
      "通过走廊连接卧室和浴室": 5357,
      "客厅右侧是卧室": 5358,
      "横向相邻": 5359,
      "走廊为核心": 5360,
      "连接另一间卧室和浴室": 5361,
      "其西侧紧邻一间卧室": 5362,
      "两个卫生间分别位于走廊": 5363,
      "厨房的西侧": 5364,
      "绿色卧室相邻": 5365,
      "三间卧室分别位于西南": 5366,
      "与卧室和客厅相连": 5367,
      "两个卧室及客厅": 5368,
      "卧室与客厅直接相邻": 5369,
      "卧室分布在多个区域": 5370,
      "多个卧室和卫生间": 5371,
      "三个卫生间": 5372,
      "无独立出入口": 5373,
      "形成一个紧凑的空间结构": 5374,
      "第二个卫生间": 5375,
      "西端通往": 5376,
      "所有房间通过虚线表示的连通关系": 5377,
      "客厅与餐厅通过门洞连通": 5378,
      "所有房间通过走廊或彼此": 5379,
      "其正上方是客厅": 5380,
      "所有房间通过走廊实现间接或直接连通": 5381,
      "形成以走廊为枢纽的": 5382,
      "客厅位于正中央": 5383,
      "主卧室与次卧室分别位于": 5384,
      "无重叠或悬空结构": 5385,
      "三处": 5386,
      "下接浴室": 5387,
      "分叉": 5388,
      "及卧室": 5389,
      "及右下区域": 5390,
      "合理": 5391,
      "均只": 5392,
      "均通过虚线连接": 5393,
      "床房间": 5394,
      "是另一个浴室": 5395,
      "次卧室和": 5396,
      "的正上方": 5397,
      "的辐射式布局": 5398,
      "组织": 5399,
      "设浴室": 5400,
      "客厅与厨房相连": 5401,
      "客厅 与": 5402,
      "厨房上方是客厅": 5403,
      "位于东北侧": 5404,
      "右侧浴室与": 5405,
      "下方与另一间卧室相邻": 5406,
      "左侧依次": 5407,
      "厨房位于走廊的": 5408,
      "北侧连接浴室": 5409,
      "东侧紧邻走廊": 5410,
      "东侧连接走廊": 5411,
      "东侧连接卧室": 5412,
      "卫生间直接相邻": 5413,
      "卫生间南侧为": 5414,
      "客厅位于房子的": 5415,
      "与厨房不相邻": 5416,
      "其中右侧卧室": 5417,
      "其中东南卧室": 5418,
      "卧室和客厅相邻": 5419,
      "浴室位于右下方": 5420,
      "浴室位于东北侧": 5421,
      "右上角的卧室相邻": 5422,
      "厨房在左侧": 5423,
      "两个卧室分别位于东南和": 5424,
      "两个卧室分别位于上方和右侧": 5425,
      "另一个卫生间位于": 5426,
      "厨房和浴室相邻": 5427,
      "浴室在右": 5428,
      "下方是一个卧室": 5429,
      "其左侧紧邻卧室": 5430,
      "其下方依次": 5431,
      "次卧和厨房之间": 5432,
      "上部浴室": 5433,
      "其南侧紧邻": 5434,
      "走廊左侧连接浴室": 5435,
      "中下区域": 5436,
      "走廊东侧为客厅": 5437,
      "绿色卧室与": 5438,
      "右侧是另一间卧室": 5439,
      "厨房及另一间卧室": 5440,
      "与餐厅直接连通": 5441,
      "分别与对应": 5442,
      "卧室均有": 5443,
      "走廊北侧连接": 5444,
      "再往南": 5445,
      "厨房位于餐厅北侧": 5446,
      "西连卧室": 5447,
      "其中一间在": 5448,
      "还有一个卧室位于": 5449,
      "右上和左下区域": 5450,
      "通过虚线示意连通关系": 5451,
      "所有房间通过虚线表示的连接关系": 5452,
      "该空间由五个": 5453,
      "走廊作为中心枢纽": 5454,
      "所有房间通过虚线表示连通关系": 5455,
      " 过道 ": 5456,
      "三面": 5457,
      "下接客厅": 5458,
      "与过道相邻": 5459,
      "另有": 5460,
      "均直接连通": 5461,
      "并连接客厅": 5462,
      "最上方卧室": 5463,
      "走廊直接相邻": 5464,
      "客厅通过走廊与卧室相连": 5465,
      "厨房东南侧": 5466,
      "相邻一间卧室": 5467,
      "相邻和连通关系": 5468,
      "连接东侧": 5469,
      "左侧卧室与浴室相邻": 5470,
      "左侧接客厅": 5471,
      "左侧依次连接": 5472,
      "另一卧室在": 5473,
      "厨房位于卧室右侧": 5474,
      "南侧厨房": 5475,
      "南侧与走廊相邻": 5476,
      "北侧连接客厅": 5477,
      "分别相邻": 5478,
      "其中中间卧室": 5479,
      "一个矩形": 5480,
      "卧室位于左上": 5481,
      "浴室位于上方": 5482,
      "浴室位于南侧": 5483,
      "浴室位于西南侧": 5484,
      "浴室位于厨房左侧": 5485,
      "左上角的浴室": 5486,
      "厨房在走廊右侧": 5487,
      "客厅在右下": 5488,
      "两个卧室分别位于左侧": 5489,
      "两个卧室分别位于左下和右下": 5490,
      "浴室在右侧": 5491,
      "左下方卧室相邻": 5492,
      "过道位于": 5493,
      "与浴室房间相邻": 5494,
      "其左侧紧邻客厅": 5495,
      "客厅和卧室之间": 5496,
      "该浴室下方": 5497,
      "纵向贯通": 5498,
      "通过一条虚线": 5499,
      "客厅位于房屋左侧": 5500,
      "路径连通": 5501,
      "均通过走廊与其他空间相连": 5502,
      "一个卫生间直接相通": 5503,
      "卧室与浴室不相邻": 5504,
      "走廊东侧连接客厅": 5505,
      "三间卧室分别位于左上角": 5506,
      "通过一扇门相连": 5507,
      "走廊连接了浴室": 5508,
      "并列且": 5509,
      "房屋的西北": 5510,
      "表明二者": 5511,
      "最上方的": 5512,
      "南连浴室": 5513,
      "客厅与卧室之间": 5514,
      "北邻卧室": 5515,
      "客厅位于中心偏下": 5516,
      "相对位置": 5517,
      "的浴室和右侧的": 5518,
      "下连浴室": 5519,
      "连接一个卧室和一个浴室": 5520,
      "仅通过走廊与其余空间连通": 5521,
      "与东侧卧室相邻": 5522,
      "中部偏西位置": 5523,
      "浴室上方为卧室": 5524,
      "连接另一个卧室和浴室": 5525,
      "右连卧室": 5526,
      "且通过一条走廊与餐厅相连": 5527,
      "所有房间通过走廊或直接边": 5528,
      "可能存在": 5529,
      "客厅占据右中部区域": 5530,
      "一扇": 5531,
      "与另一卧室相邻": 5532,
      "仅与浴室相邻": 5533,
      "北卧": 5534,
      "围合": 5535,
      "型布局": 5536,
      "并连接厨房": 5537,
      "是次卧室": 5538,
      "是第三个卧室": 5539,
      "标为": 5540,
      "浅蓝色浴室": 5541,
      "第一个浴室": 5542,
      "而是": 5543,
      "右侧浴室相连": 5544,
      "左侧是客厅": 5545,
      "厨房位于右上": 5546,
      "厨房位于客厅东侧": 5547,
      "南侧客厅": 5548,
      "南侧卧室与": 5549,
      "南侧自西向东": 5550,
      "北侧与客厅相连": 5551,
      "区域位于": 5552,
      "客厅位于走廊下方": 5553,
      "其中右上卧室与": 5554,
      "右上卧室及": 5555,
      "两个并排的卧室": 5556,
      "房屋布局包含": 5557,
      "另一间卧室则": 5558,
      "的卧室与客厅": 5559,
      "的卧室和浴室": 5560,
      "整体布局以走廊为中心": 5561,
      "浴室位于底部": 5562,
      "形成间接连通关系": 5563,
      "厨房在左下": 5564,
      "厨房在右侧中部": 5565,
      "餐厅位于": 5566,
      "客厅在中央偏上位置": 5567,
      "同时走廊": 5568,
      "同时邻接": 5569,
      "功能或动线": 5570,
      "与卧室或": 5571,
      "浴室在左下": 5572,
      "浴室在卧室东侧": 5573,
      "书房和": 5574,
      "书房在": 5575,
      "过道与": 5576,
      "两个浴室分别位于中部偏上": 5577,
      "其左侧依次": 5578,
      "与走廊和客厅相连": 5579,
      "其北侧与走廊直接相连": 5580,
      "相互通达": 5581,
      "下方连接一间浴室": 5582,
      "其下方为卧室": 5583,
      "其南侧为浴室": 5584,
      "客厅位于房屋东南角": 5585,
      "客厅位于房屋东北侧": 5586,
      "围绕分布": 5587,
      "和下方的卧室": 5588,
      "其西侧与一间卧室相邻": 5589,
      "厨房上方为浴室": 5590,
      "客厅左侧为卧室": 5591,
      "以及下方的": 5592,
      "厨房及浴室": 5593,
      "分布着两个卧室": 5594,
      "卧室则与": 5595,
      "多个卧室及": 5596,
      "另一个卧室位于右下角": 5597,
      "连接厨房和客厅": 5598,
      "三间卧室分别分布于左下": 5599,
      "南连卧室": 5600,
      "多个功能区": 5601,
      "连接了所有房间": 5602,
      "直接连接实现连通": 5603,
      "仅通过走廊与其他空间连通": 5604,
      "右上和右中": 5605,
      "均通过虚线与走廊相连": 5606,
      "开放空间": 5607,
      " 卧室 与": 5608,
      "边缘相邻": 5609,
      "北连客厅": 5610,
      "所有房间均通过走廊实现间接或直接连通": 5611,
      "走廊同时连接": 5612,
      "整体布局呈十字形结构": 5613,
      "卧室位于北侧和东侧": 5614,
      "主卧室在客厅正对面": 5615,
      "浴室居中偏下": 5616,
      "无直接连接房间": 5617,
      "两者通过一扇宽门连通": 5618,
      "所有房间通过走廊或直接邻接": 5619,
      "偏东位置": 5620,
      "一个走廊的房子": 5621,
      "房屋以中央过道为核心": 5622,
      "七间房间": 5623,
      "下浴室": 5624,
      "但通过走廊间接连通": 5625,
      "其东南方向": 5626,
      "各与一个卧室相邻": 5627,
      "呈矩形": 5628,
      "均与客厅相连": 5629,
      "均通过走廊间接连通": 5630,
      "墙之隔": 5631,
      "并与走廊直接连通": 5632,
      "指向": 5633,
      "最右上角": 5634,
      "有走廊": 5635,
      "的动线": 5636,
      "短通道": 5637,
      "紧贴": 5638,
      "该卧室相邻": 5639,
      "走廊从": 5640,
      "走廊与卧室": 5641,
      "走廊末端": 5642,
      "浴室与走廊": 5643,
      "客厅左右两侧": 5644,
      "右侧连接着": 5645,
      "右侧依次连接": 5646,
      "下方两个卧室": 5647,
      "下方与浴室相连": 5648,
      "上方与走廊相邻": 5649,
      "左侧与客厅相连": 5650,
      "南侧毗邻": 5651,
      "直接与客厅相邻": 5652,
      "卫生间和卧室": 5653,
      "与厨房接壤": 5654,
      "其中卧室与浴室相邻": 5655,
      "其中左侧浴室": 5656,
      "一个较大": 5657,
      "右上侧": 5658,
      "左上部": 5659,
      "一间卧室及": 5660,
      "卧室位于走廊右侧": 5661,
      "卧室位于客厅西侧": 5662,
      "的卧室与走廊相邻": 5663,
      "与走廊相邻但不": 5664,
      "右下角和右上角": 5665,
      "浴室位于中部偏右": 5666,
      "浴室位于卧室的": 5667,
      "左下角卧室相邻": 5668,
      "厨房在东北侧": 5669,
      "并与次卧室": 5670,
      "间接联系": 5671,
      "客厅在中间偏下位置": 5672,
      "靠近底部": 5673,
      "通过走廊与浴室": 5674,
      "两间浴室相邻": 5675,
      "同时向右": 5676,
      "该卧室上方为": 5677,
      "两个卧室分别位于房屋": 5678,
      "边界划分": 5679,
      "走廊位于北侧": 5680,
      "与浴室直接相连": 5681,
      "左上方卧室相邻": 5682,
      "与上方的浴室": 5683,
      "与下方的客厅相邻": 5684,
      "上部卧室": 5685,
      "其东侧为走廊": 5686,
      "紧凑结构": 5687,
      "中间卧室位于": 5688,
      "连接着上方的卧室": 5689,
      "走廊呈南北走向": 5690,
      "中心偏左位置": 5691,
      "客厅上方为": 5692,
      "其西侧紧邻客厅": 5693,
      "其中左上与": 5694,
      "南北两端": 5695,
      "走廊东侧是厨房": 5696,
      "左中位置": 5697,
      "各房间通过相邻或直接连接的方式": 5698,
      "走廊下方为客厅": 5699,
      "下部浴室": 5700,
      "东连卧室": 5701,
      "潜在连通关系": 5702,
      "大面积空间": 5703,
      "客厅位于布局下方中央": 5704,
      "西连厨房": 5705,
      "依次为厨房和卫生间": 5706,
      "直接或间接连通": 5707,
      "通过走廊与厨房间接连通": 5708,
      "通过一扇推拉门": 5709,
      "北连走廊": 5710,
      "之间有一条走廊": 5711,
      "通过一条短走廊分别与两者": 5712,
      "各房间通过虚线连接显示": 5713,
      "所有房间通过虚线连接表示空间关联": 5714,
      "同一水平": 5715,
      "整体布局通过走廊实现了": 5716,
      "客厅占据上部中央区域": 5717,
      "一处位于": 5718,
      "主卧室和厨房之间": 5719,
      "以客厅为核心": 5720,
      "但均通过": 5721,
      "北东侧": 5722,
      "呈纵向延伸": 5723,
      "和第三间卧室": 5724,
      "小型": 5725,
      "接一间浴室": 5726,
      "方便": 5727,
      "明显": 5728,
      "的厨房相邻": 5729,
      "衔接厨房": 5730,
      "浴室右上方": 5731,
      "厨房仅与": 5732,
      "右侧邻接": 5733,
      "右侧与厨房相连": 5734,
      "上方与一间浴室相邻": 5735,
      "另一卧室及浴室": 5736,
      "厨房位于客厅西侧": 5737,
      "南侧分布": 5738,
      "北侧与走廊相接": 5739,
      "紧邻另一卧室": 5740,
      "东侧邻接": 5741,
      "客厅位于过道": 5742,
      "客厅位于卧室的东侧": 5743,
      "西侧为厨房": 5744,
      "浴室位于西北侧": 5745,
      "浴室位于房子": 5746,
      "浴室位于厨房和卧室之间": 5747,
      "之间设有": 5748,
      "空间邻接关系": 5749,
      "厨房在下方": 5750,
      "各房间通过走廊连接": 5751,
      "客厅占据中央偏右区域": 5752,
      "客厅在西北角": 5753,
      "靠近卫生间": 5754,
      "靠近另一个卧室": 5755,
      "靠近另一间浴室": 5756,
      "三个卧室相邻": 5757,
      "实现各功能区": 5758,
      "实现物理": 5759,
      "上下分别连接": 5760,
      "上下分层": 5761,
      "功能关联": 5762,
      "卧室在右": 5763,
      "西南侧卧室": 5764,
      "其北侧为客厅": 5765,
      "其北侧与卧室相邻": 5766,
      "其北侧为厨房": 5767,
      "另一间浴室和卧室": 5768,
      "整体布局呈围绕": 5769,
      "左上方卧室与": 5770,
      "下方连接一个卫生间": 5771,
      "西北角和西南角": 5772,
      "表示它们之间": 5773,
      "通向书房": 5774,
      "与左侧的卧室相邻": 5775,
      "走廊的两侧": 5776,
      "浴室及客厅相邻": 5777,
      "连接另一间卧室和卫生间": 5778,
      "走廊上方和右侧": 5779,
      "中心偏右": 5780,
      "中上和右下": 5781,
      "通过一扇门连通": 5782,
      "走廊位于房屋中央": 5783,
      "向南延伸": 5784,
      "平面结构": 5785,
      "走廊连接了所有房间": 5786,
      "通过走廊与客厅相接": 5787,
      "东北和东南方向": 5788,
      "右邻客厅": 5789,
      "整体布局紧凑且": 5790,
      "东南和西南角": 5791,
      "与东侧的客厅相邻": 5792,
      "一个卧室位于房子": 5793,
      "非对称但": 5794,
      "部分房间之间": 5795,
      "形成一个紧凑的居住空间": 5796,
      "该图显示了一栋": 5797,
      "与多个房间相邻": 5798,
      "且两者直接相邻": 5799,
      "所有房间围绕中央走廊分布": 5800,
      "厨房位于客厅旁边": 5801,
      "与右侧的卧室和下方": 5802,
      "接入走廊": 5803,
      "还有一个独立的卧室": 5804,
      "通过走廊与其余房间连通": 5805,
      "连贯的空间结构": 5806,
      "与另一间浴室": 5807,
      "为起居室": 5808,
      "入户": 5809,
      "南通": 5810,
      "右卧室": 5811,
      "床和浴室": 5812,
      "形式": 5813,
      "等房间": 5814,
      "而客厅则": 5815,
      "卧室间接连通": 5816,
      "卧室对面": 5817,
      "浴室夹于": 5818,
      "相邻另一间卧室": 5819,
      "连接上方": 5820,
      "下方通过走廊与": 5821,
      "左侧浴室与": 5822,
      "厨房位于起居室": 5823,
      "厨房位于卧室上方": 5824,
      "厨房位于卧室旁边": 5825,
      "直接进入": 5826,
      "与客厅接壤": 5827,
      "东侧客厅及": 5828,
      "东侧连接另一间浴室": 5829,
      "西侧连接厨房": 5830,
      "卧室位于客厅上方": 5831,
      "右下角浴室相邻": 5832,
      "浴室和走廊相连": 5833,
      "形成多": 5834,
      "所有房间通过走廊或直接墙体": 5835,
      "厨房在走廊": 5836,
      "厨房在左下方": 5837,
      "并与两者": 5838,
      "并与书房相邻": 5839,
      "餐厅之间": 5840,
      "客厅占据左侧": 5841,
      "客厅占据西南": 5842,
      "客厅占据中央偏": 5843,
      "客厅在右中部": 5844,
      "客厅在中间偏右位置": 5845,
      "靠近一个卧室": 5846,
      "同时该卧室": 5847,
      "该卧室再向右": 5848,
      "两个卧室分别位于走廊两侧": 5849,
      "上下相连": 5850,
      "厨房和一间卧室": 5851,
      "右上方卧室相邻": 5852,
      "书房北侧与卧室相邻": 5853,
      "其北侧依次": 5854,
      "其北侧紧邻卧室": 5855,
      "并与之直接相通": 5856,
      "与客厅和厨房": 5857,
      "卧室及厨房相邻": 5858,
      "起居室在": 5859,
      "有一道": 5860,
      "走廊的东侧": 5861,
      "走廊的左上方": 5862,
      "客厅的右下方": 5863,
      "两个卧室和客厅": 5864,
      "厨房下方和": 5865,
      "中间浴室与": 5866,
      "其中左上和右上": 5867,
      "与卧室和客厅": 5868,
      "主要区域": 5869,
      "与北侧的浴室相邻": 5870,
      "作为主要": 5871,
      "的居住区域": 5872,
      "均有直接连通": 5873,
      "浴室右侧为卧室": 5874,
      "夹在两间卧室之间": 5875,
      "四个卧室分布于": 5876,
      "再往东": 5877,
      "中央区域为客厅": 5878,
      "四周环绕": 5879,
      "组合结构": 5880,
      "并与其直接相连": 5881,
      "厨房位于中心偏右": 5882,
      "走廊向上延伸连接": 5883,
      "其中左上角卧室": 5884,
      "依次分布着卧室": 5885,
      "走廊连接客厅和卧室": 5886,
      "所有房间通过走廊或直接相邻方式": 5887,
      "客厅与餐厅相邻且": 5888,
      "形成了一个环形": 5889,
      "客厅位于上方中央": 5890,
      "整体布局呈十字形": 5891,
      "所有房间通过走廊实现相互连通": 5892,
      "形环绕客厅": 5893,
      "各房间通过虚线连接表示空间关联": 5894,
      "一个厨房和一个走廊": 5895,
      "形成一个完整的居住空间结构": 5896,
      "厨房在客厅右方": 5897,
      "其中两个位于": 5898,
      "可通过走廊从客厅": 5899,
      "整体结构中": 5900,
      "三个卧室及两个浴室": 5901,
      "各房间通过走廊或直接边界实现连通": 5902,
      "卫生间南侧为餐厅": 5903,
      "上卧室": 5904,
      "且与浴室": 5905,
      "且不与任何": 5906,
      "分明": 5907,
      "右浴室": 5908,
      "各配": 5909,
      "均与客厅相邻": 5910,
      "左接浴室": 5911,
      "形与": 5912,
      "或斜线": 5913,
      "网格": 5914,
      "该区域": 5915,
      "卧室直接相连": 5916,
      "连接左侧的卧室": 5917,
      "右侧走廊相邻": 5918,
      "右侧的浴室相邻": 5919,
      "上方接厨房": 5920,
      "左侧自下而上": 5921,
      "另一卧室位于": 5922,
      "厨房位于中央": 5923,
      "厨房位于走廊南侧": 5924,
      "房间与": 5925,
      "南侧浴室及": 5926,
      "分别与厨房和": 5927,
      "直接与走廊相连": 5928,
      "直接面向": 5929,
      "与客厅连接": 5930,
      "紧邻厨房和浴室": 5931,
      "东侧的浴室": 5932,
      "东侧通过走廊连接": 5933,
      "两个卧室以及": 5934,
      "房屋由": 5935,
      "卧室位于厨房正上方": 5936,
      "右下角和左下角": 5937,
      "浴室和一个卧室": 5938,
      "浴室位于底部中央": 5939,
      "形成环状": 5940,
      "厨房在东南侧": 5941,
      "中间由走廊": 5942,
      "客厅占据右下方": 5943,
      "客厅在左中部": 5944,
      "客厅在中央偏下位置": 5945,
      "底部浴室相邻": 5946,
      "该卧室右侧为": 5947,
      "上下分布两间卧室": 5948,
      "右上方的卧室相邻": 5949,
      "卧室在右下": 5950,
      "书房南侧": 5951,
      "两个浴室分别位于中间偏左": 5952,
      "两个浴室分别位于左下和": 5953,
      "其左侧自上而下依次": 5954,
      "其北侧紧邻": 5955,
      "其北侧紧邻一间浴室": 5956,
      "该浴室北侧": 5957,
      "该浴室同时与": 5958,
      "客厅右侧为卧室": 5959,
      "与下方卧室相连": 5960,
      "通向卧室": 5961,
      "彼此之间": 5962,
      "其东侧为客厅": 5963,
      "连接另一间卧室和一间浴室": 5964,
      "所有房间均通过走廊或直接": 5965,
      "厨房的北侧": 5966,
      "另有一间卧室位于": 5967,
      "中上区域": 5968,
      "两间并排": 5969,
      "西南和东北区域": 5970,
      "无直接接触": 5971,
      "下方为另一间浴室": 5972,
      "四个卧室分别分布于": 5973,
      "四个卧室分别位于左上": 5974,
      "均通过走廊或间接路径": 5975,
      "仅通过走廊与其他房间连通": 5976,
      "厨房处于右下角": 5977,
      "该卧室下方为浴室": 5978,
      "均与多个房间": 5979,
      "实线边界划分": 5980,
      "走廊向右延伸并连接": 5981,
      "非直接相邻关系": 5982,
      "各自独立但": 5983,
      "主卧室在客厅正后方并与一个卫生间直接相通": 5984,
      "与另一个卧室": 5985,
      "与其他": 5986,
      "与中间区域": 5987,
      "也与走廊相连": 5988,
      "从上至下": 5989,
      "使用": 5990,
      "及上方": 5991,
      "右卧": 5992,
      "均与客厅": 5993,
      "完全": 5994,
      "左卧": 5995,
      "并同样": 5996,
      "拥有": 5997,
      "此卫生间": 5998,
      "的两间卧室": 5999,
      "直连": 6000,
      "走廊右方": 6001,
      "走廊下方是客厅": 6002,
      "浴室右方": 6003,
      "客厅下方连接": 6004,
      "厨房与客厅相连": 6005,
      "厨房与右侧卧室相邻": 6006,
      "位于东南侧": 6007,
      "相邻连通": 6008,
      "右侧紧邻卧室": 6009,
      "右侧连接一间卧室": 6010,
      "右侧与客厅相接": 6011,
      "上方卧室在": 6012,
      "上方浴室相连": 6013,
      "上方浴室与": 6014,
      "左侧下方": 6015,
      "左侧与一间浴室相邻": 6016,
      "左侧有三个卧室": 6017,
      "南侧卧室位于": 6018,
      "南侧和东侧": 6019,
      "南侧通过走廊连接客厅": 6020,
      "北侧卧室及": 6021,
      "直接连接客厅": 6022,
      "与客厅房间": 6023,
      "与客厅房间相邻": 6024,
      "紧邻起居室": 6025,
      "东侧另有一间卧室": 6026,
      "客厅位于西南区域": 6027,
      "与厨房直接连通": 6028,
      "其中西北侧": 6029,
      "其中顶部": 6030,
      "卧室位于左侧中部": 6031,
      "的卧室与浴室": 6032,
      "右下角另有一间卧室": 6033,
      "浴室和两间卧室": 6034,
      "卧室与浴室相连": 6035,
      "两间卧室和浴室": 6036,
      "两间卧室上下排列": 6037,
      "卧室和厨房相邻": 6038,
      "浴室位于下方": 6039,
      "所有房间通过虚线": 6040,
      "各房间以矩形块状分布": 6041,
      "客厅占据右侧中部": 6042,
      "客厅在上方": 6043,
      "实现直接连通": 6044,
      "两个卧室分别位于上方": 6045,
      "另一个靠近": 6046,
      "浴室在右下": 6047,
      "浴室在右上方": 6048,
      "书房紧邻主卧室": 6049,
      "两个浴室分别位于中部偏左": 6050,
      "西北侧设有一间卧室": 6051,
      "相互可达": 6052,
      "紧邻厨房右侧": 6053,
      "走廊贯穿中部连接各区域": 6054,
      "通过走廊连接其他区域": 6055,
      "与厨房和浴室": 6056,
      "次卧及": 6057,
      "次卧和": 6058,
      "卧室和浴室分别位于": 6059,
      "彼此不相邻": 6060,
      "有一墙之隔": 6061,
      "客厅的下方": 6062,
      "其南侧为": 6063,
      "主卧室南侧": 6064,
      "中间卧室之间": 6065,
      "其中一个卧室相连": 6066,
      "连接着浴室": 6067,
      "两个卫生间分别位于西北和": 6068,
      "均与走廊相接": 6069,
      "走廊贯穿房屋": 6070,
      "中间偏右区域": 6071,
      "厨房位于右侧上方": 6072,
      "向右延伸连接": 6073,
      "卧室和厨房相连": 6074,
      "客厅位于右侧上方": 6075,
      "的居住单元": 6076,
      "并列分布两间卧室": 6077,
      "并排分布": 6078,
      "依次排列两间卧室": 6079,
      "向上连接客厅": 6080,
      "四个卧室分别位于": 6081,
      "均通过走廊或通道": 6082,
      "右侧为另一卧室": 6083,
      "形成以走廊为核心枢纽": 6084,
      "并与其共享一面墙": 6085,
      "厨房位于上方偏左": 6086,
      "中间区域为客厅": 6087,
      "下层卧室相邻": 6088,
      "纵向贯穿布局": 6089,
      "中部偏西和": 6090,
      "阶梯式": 6091,
      "所有卧室均不与厨房直接相邻": 6092,
      "厨房居中偏下": 6093,
      "与厨房相邻且通过走廊连通": 6094,
      "三个卧室分布在左上": 6095,
      "连接各个房间的": 6096,
      "仅与客厅和走廊相连": 6097,
      "客厅位于南侧中央": 6098,
      "走廊向东延伸": 6099,
      "各房间通过走廊实现相互连通": 6100,
      "正对走廊": 6101,
      "该平面图展示": 6102,
      "客厅占据左下角区域": 6103,
      "各房间通过走廊或墙体直接相连": 6104,
      "门廊相连": 6105,
      "次卧室与书房": 6106,
      "下接厨房": 6107,
      "与东侧卧室": 6108,
      "且不相邻": 6109,
      "于卧室": 6110,
      "各空间": 6111,
      "各有一个": 6112,
      "和中下部": 6113,
      "四间浴室": 6114,
      "均不相邻": 6115,
      "外侧": 6116,
      "所在": 6117,
      "是另一间浴室": 6118,
      "是第二间卧室": 6119,
      "有直接通道": 6120,
      "此浴室右侧": 6121,
      "西向": 6122,
      "位于西北角": 6123,
      "相邻的浴室": 6124,
      "连接东西两侧": 6125,
      "右侧亦": 6126,
      "下方依次": 6127,
      "下方紧邻客厅": 6128,
      "下方紧邻厨房": 6129,
      "上方与另一间卧室相邻": 6130,
      "左侧邻接": 6131,
      "左侧卫生间相邻": 6132,
      "左侧有一个": 6133,
      "南侧厨房及": 6134,
      "北侧中部": 6135,
      "分别处于": 6136,
      "东侧连接一间卧室": 6137,
      "客厅位于整体布局的": 6138,
      "其中右上": 6139,
      "西侧紧邻厨房": 6140,
      "布局结构": 6141,
      "中央的走廊": 6142,
      "卧室位于右下方": 6143,
      "卧室位于客厅下方": 6144,
      "卧室位于客厅左侧": 6145,
      "浴室位于西侧": 6146,
      "浴室位于客厅上方": 6147,
      "形成环形": 6148,
      "左下角和右中部": 6149,
      "东北卧室与": 6150,
      "客厅占据左侧中部": 6151,
      "底部卧室相邻": 6152,
      "紧邻走廊和浴室": 6153,
      "走廊位于中间": 6154,
      "走廊位于客厅右侧": 6155,
      "两个浴室分别位于厨房右侧": 6156,
      "两个浴室分别位于右上和": 6157,
      "其左侧紧邻走廊": 6158,
      "独立位于": 6159,
      "与右侧卧室之间": 6160,
      "与客厅和卧室相连": 6161,
      "与客厅和走廊相接": 6162,
      "客厅和另一间卧室": 6163,
      "表示相邻或连通关系": 6164,
      "两间浴室分别位于左侧中部": 6165,
      "厨房右侧为走廊": 6166,
      "其南侧紧邻卧室": 6167,
      "厨房与过道相邻": 6168,
      "上方卧室相连": 6169,
      "与走廊及卧室相邻": 6170,
      "左右两侧各有一间卧室": 6171,
      "中上位置": 6172,
      "各功能区通过走廊实现连通": 6173,
      "中间偏右的卧室": 6174,
      "并排布置": 6175,
      "连接厨房和走廊": 6176,
      "连接厨房和另一个卧室": 6177,
      "四个卧室分布在": 6178,
      "主卧室在客厅南侧": 6179,
      "整体布局呈不规则多": 6180,
      "左侧为卫生间": 6181,
      "并通过一扇门与主卧室": 6182,
      "下方的卧室相连": 6183,
      "均不与厨房直接相邻": 6184,
      "直接邻接厨房": 6185,
      "右连走廊": 6186,
      "厨房居中偏上": 6187,
      "隔墙相邻": 6188,
      "所有房间通过走廊实现主要": 6189,
      "三个卧室分布于左上": 6190,
      "还有一间独立卧室": 6191,
      "从上至下依次为卧室": 6192,
      "第三间卧室及第二间浴室": 6193,
      "还有一个独立的浴室": 6194,
      "书房则在": 6195,
      "形成中心枢纽": 6196,
      "形成主要通行路径": 6197,
      "该图展示了一个由": 6198,
      "厨房紧邻餐厅并在其左侧": 6199,
      "”),": 6200,
      "不与浴室直接相邻": 6201,
      "且通过虚线连通": 6202,
      "东向": 6203,
      "其下方连接走廊": 6204,
      "北卧室": 6205,
      "呈纵向排列": 6206,
      "左卧室": 6207,
      "此卧室下方": 6208,
      "而厨房": 6209,
      "设一间卧室": 6210,
      "需经": 6211,
      "非直接连通": 6212,
      "浴室也": 6213,
      "浴室右下方": 6214,
      "客厅同时与": 6215,
      "厨房同时": 6216,
      "连接两个浴室": 6217,
      "右侧自上而下依次": 6218,
      "下方卧室和": 6219,
      "下方邻接": 6220,
      "下方浴室与": 6221,
      "上方浴室和": 6222,
      "上方通过走廊连接": 6223,
      "上方无直接连通房间": 6224,
      "左侧接走廊": 6225,
      "左侧区域由": 6226,
      "南侧客厅相邻": 6227,
      "南侧的客厅": 6228,
      "卫生间夹在": 6229,
      "客厅位于东南区域": 6230,
      "客厅位于房子": 6231,
      "客厅位于中下部": 6232,
      "中部和": 6233,
      "与厨房通过门洞连通": 6234,
      "其中右下卧室": 6235,
      "其中东侧卧室": 6236,
      "西侧与客厅相连": 6237,
      "一个走廊和": 6238,
      "右上位置": 6239,
      "卧室位于下方": 6240,
      "两间卧室和两间浴室": 6241,
      "浴室位于右上方": 6242,
      "浴室位于右侧中部": 6243,
      "通过虚线与走廊": 6244,
      "通过虚线与厨房相连": 6245,
      "形成邻接关系": 6246,
      "厨房在上方": 6247,
      "中间夹": 6248,
      "并与卧室相连": 6249,
      "其上方与走廊直接相连": 6250,
      "客厅占据右上方": 6251,
      "客厅在走廊东侧": 6252,
      "与浴室相邻且连通": 6253,
      "两个卧室分别位于右上和右下": 6254,
      "厨房位于左侧下方": 6255,
      "书房处于": 6256,
      "过道 ": 6257,
      "两个浴室分别位于走廊两侧": 6258,
      "与走廊和右侧卧室相邻": 6259,
      "与走廊和一间卧室相邻": 6260,
      "并与之共享边界": 6261,
      "下方连接另一个浴室": 6262,
      "核心区域": 6263,
      "卧室和浴室分布在": 6264,
      "与左侧浴室和": 6265,
      "卧室位于房屋西北角": 6266,
      "与走廊及上方卧室相邻": 6267,
      "两个卫生间分别位于房屋": 6268,
      "两个卫生间分别位于中上部": 6269,
      "二者相邻": 6270,
      "明确标注": 6271,
      "各房间通过共享边界": 6272,
      "通过一扇门连接": 6273,
      "两间卧室及两个卫生间": 6274,
      "两间卧室及另一间浴室": 6275,
      "其右侧紧邻一间浴室": 6276,
      "走廊居中偏东": 6277,
      "上层浴室": 6278,
      "三个方向": 6279,
      "多个功能空间": 6280,
      "再往北": 6281,
      "整体布局呈不规则拼接结构": 6282,
      "右侧与一个卧室相邻": 6283,
      "另一个卧室在左下角": 6284,
      "的放射状结构": 6285,
      "形成以客厅和厨房": 6286,
      "西连浴室": 6287,
      "其中左上角的卧室": 6288,
      "整体布局呈现多房间围绕": 6289,
      "直接邻接关系": 6290,
      "其他空间间接连通": 6291,
      "厨房居中偏南": 6292,
      "所有房间通过走廊或墙体": 6293,
      "上下两层": 6294,
      "分散于": 6295,
      "走廊向右延伸并连通": 6296,
      "北靠走廊": 6297,
      "以中央走廊为枢纽": 6298,
      "各房间通过虚线表示的连接关系": 6299,
      "各房间通过虚线所示": 6300,
      "该空间由五个矩形区域组成": 6301,
      "与两间卧室": 6302,
      "且通过走廊间接连通": 6303,
      "中位置": 6304,
      "中东部": 6305,
      "主入口": 6306,
      "之相邻": 6307,
      "但实际": 6308,
      "便捷": 6309,
      "分居": 6310,
      "则连通": 6311,
      "则分布在": 6312,
      "及东南侧": 6313,
      "和右上区域": 6314,
      "在右上角": 6315,
      "均通过走廊与客厅相连": 6316,
      "大块": 6317,
      "局部": 6318,
      "并连接多个房间": 6319,
      "开门": 6320,
      "最右端": 6321,
      "有直接连通关系": 6322,
      "标题": 6323,
      "的另一间卧室": 6324,
      "的房屋布局": 6325,
      "第一个卧室相邻": 6326,
      "这两间卧室": 6327,
      "客厅以及": 6328,
      "相邻的": 6329,
      "右侧和": 6330,
      "右侧有": 6331,
      "右侧客厅及": 6332,
      "下方紧邻走廊": 6333,
      "上方的浴室和": 6334,
      "通过道": 6335,
      "通过过道": 6336,
      "左侧是厨房": 6337,
      "另一处位于": 6338,
      "南侧亦": 6339,
      "直接连接走廊": 6340,
      "通过走廊连接厨房和另一间卧室": 6341,
      "紧邻上方卧室": 6342,
      "东侧毗邻": 6343,
      "中部分": 6344,
      "西侧的浴室": 6345,
      "西侧与走廊相接": 6346,
      "西侧与厨房相连": 6347,
      "两个位于": 6348,
      "两个相邻的卧室": 6349,
      "卧室位于厨房下方": 6350,
      "卧室位于客厅正下方": 6351,
      "右下角及": 6352,
      "卧室和另一间浴室": 6353,
      "浴室位于房屋的": 6354,
      "浴室位于卧室右侧": 6355,
      "形成完整": 6356,
      "其右侧是": 6357,
      "西南与": 6358,
      "厨房在最右侧": 6359,
      "厨房在客厅右下方": 6360,
      "与厨房相邻并通过走廊连接": 6361,
      "其上方与一间卧室相邻": 6362,
      "客厅占据中上部": 6363,
      "两间浴室之间": 6364,
      "两间浴室分处": 6365,
      "该卧室左侧与": 6366,
      "卧室在西南角": 6367,
      "浴室在左下方": 6368,
      "浴室在西南角": 6369,
      "浴室在西北角": 6370,
      "两个浴室分别位于中部偏右": 6371,
      "其左侧为客厅": 6372,
      "其左侧为一个卧室": 6373,
      "其东侧为": 6374,
      "左右分区": 6375,
      "走廊右侧是客厅": 6376,
      "厨房右侧为": 6377,
      "客厅的西北侧": 6378,
      "客厅位于房屋的": 6379,
      "浴室及两个卧室": 6380,
      "浴室及两间卧室": 6381,
      "客厅下方和右侧": 6382,
      "右下卧室相连": 6383,
      "和下方各有一间卧室": 6384,
      "其中左上卧室与客厅": 6385,
      "卧室与浴室上下相邻": 6386,
      "厨房上方为卧室": 6387,
      "走廊东侧连接厨房": 6388,
      "绿色的卧室": 6389,
      "厨房及客厅": 6390,
      "左右两侧卧室": 6391,
      "与卧室和走廊": 6392,
      "南部区域": 6393,
      "与浴室和客厅相连": 6394,
      "右中部卧室": 6395,
      "卧室分布在左侧": 6396,
      "客厅与厨房不相邻": 6397,
      "并列两间卧室": 6398,
      "卧室位于左侧和上方": 6399,
      "卧室的南侧": 6400,
      "各房间之间的连通": 6401,
      "共用卫生间": 6402,
      "东连浴室": 6403,
      "并与其连通": 6404,
      "下连客厅": 6405,
      "其中一个靠近": 6406,
      "下层浴室": 6407,
      "辐射式": 6408,
      "仅通过走廊与其他房间": 6409,
      "该卫生间的": 6410,
      "均不与客厅直接相邻": 6411,
      "整体布局呈现多房间": 6412,
      "右连厨房": 6413,
      "过渡区域": 6414,
      "北连厨房": 6415,
      " 浴室 与": 6416,
      "形成围绕中心区域": 6417,
      "标记的": 6418,
      "与浴室相邻且通过走廊连通": 6419,
      "间接或直接": 6420,
      "没有直接连通": 6421,
      "两个卫生间和一个卧室": 6422,
      "均不直接与厨房相邻": 6423,
      "浴室在卧室右上方": 6424,
      "的房屋结构": 6425,
      "通过短通道": 6426,
      "所有卧室均不直接与厨房相邻": 6427,
      "南侧设有厨房": 6428,
      "以实线框": 6429,
      "从上到下依次": 6430,
      "其中左上和右上的卧室": 6431,
      "与第二间卧室": 6432,
      "仅与走廊直接相邻": 6433,
      "但无直接": 6434,
      "偏上": 6435,
      "其东南侧": 6436,
      "再连": 6437,
      "右卧室相邻": 6438,
      "各连接一个卧室": 6439,
      "呈阶梯状": 6440,
      "和厨房下方": 6441,
      "小浴室": 6442,
      "并邻近": 6443,
      "并经由": 6444,
      "横贯": 6445,
      "第三个浴室": 6446,
      "而客厅": 6447,
      "设门连通": 6448,
      "走廊中段": 6449,
      "浴室紧邻走廊": 6450,
      "客厅下方是走廊": 6451,
      "厨房与走廊相连": 6452,
      "厨房仅与客厅相邻": 6453,
      "位于西南侧": 6454,
      "连接多个卧室和浴室": 6455,
      "连接所有其他房间": 6456,
      "右侧紧邻另一间卧室": 6457,
      "右侧有两个卧室": 6458,
      "下方紧邻浴室": 6459,
      "下方与一间浴室相邻": 6460,
      "上方连接一个卧室": 6461,
      "通过另一条": 6462,
      "另一卧室及": 6463,
      "南侧通过走廊与": 6464,
      "南侧的浴室": 6465,
      "南侧另有一间卧室": 6466,
      "直接边线接触": 6467,
      "东侧卫生间": 6468,
      "卫生间和另一间卧室": 6469,
      "客厅位于最右侧": 6470,
      "与厨房房间": 6471,
      "分别位于西北": 6472,
      "西侧浴室及": 6473,
      "一个包含": 6474,
      "一个矩形区域": 6475,
      "中央通道": 6476,
      "卧室和另一个浴室": 6477,
      "浴室位于左侧中部": 6478,
      "与客厅相邻并连通": 6479,
      "形成放射状": 6480,
      "其右侧连接着": 6481,
      "右上角浴室": 6482,
      "空间上的": 6483,
      "两个浴室一个在": 6484,
      "厨房在南侧": 6485,
      "客厅在左下": 6486,
      "客厅在东北方向": 6487,
      "通过走廊与中间区域": 6488,
      "依次为客厅": 6489,
      "同时与右侧": 6490,
      "卧室在走廊右侧": 6491,
      "中央偏北": 6492,
      "浴室在东北角": 6493,
      "书房紧邻客厅": 6494,
      "书房则处于": 6495,
      "两个浴室分别位于走廊下方": 6496,
      "两个浴室分别位于左上角和右下角": 6497,
      "西南侧设有一间卧室": 6498,
      "走廊连接浴室": 6499,
      "次卧之间": 6500,
      "其东侧紧邻": 6501,
      "连接着两个卧室": 6502,
      "矩形分布": 6503,
      "北接两间卧室": 6504,
      "两间卧室分别位于房屋": 6505,
      "客厅下方为卧室": 6506,
      "次卧室旁边": 6507,
      "走廊左侧连接一间卧室和一间浴室": 6508,
      "其西侧与厨房相邻": 6509,
      "其上方是卫生间": 6510,
      "客厅东侧紧邻厨房": 6511,
      "与北侧浴室相邻": 6512,
      "与北侧的卧室相邻": 6513,
      "两个卧室及两个卫生间": 6514,
      "蓝色的浴室": 6515,
      "向下连接厨房": 6516,
      "并列两个卧室": 6517,
      "走廊居中偏南": 6518,
      "表明它们": 6519,
      "通过走廊与客厅及": 6520,
      "走廊和浴室相邻": 6521,
      "均通过走廊或相邻房间": 6522,
      "对称结构": 6523,
      "绿色区域的卧室": 6524,
      "客厅处于房屋": 6525,
      "另一个在右上角": 6526,
      "正北和": 6527,
      "门洞相连": 6528,
      "西侧与卫生间相邻": 6529,
      "厨房位于中心偏上位置": 6530,
      "东南和西南": 6531,
      "其中左上卧室与厨房相邻": 6532,
      "客厅房间位于": 6533,
      "该卧室上方为浴室": 6534,
      "实现空间上的": 6535,
      "其正下方是客厅": 6536,
      "中央偏下区域": 6537,
      "走廊向上延伸并连通": 6538,
      "通过走廊与厨房和浴室相连": 6539,
      "西靠走廊": 6540,
      "直接通往阳台": 6541,
      "形成了一个紧凑且功能分区明确的空间结构": 6542,
      "整体布局呈非对称分布": 6543,
      "开口连通": 6544,
      "通过走廊与多个房间相连": 6545,
      "水平方向上相邻": 6546,
      "厨房在餐厅东侧通过一扇门与餐厅相连": 6547,
      "四个卧室分别分布在左上": 6548,
      "房屋呈不规则组合布局": 6549,
      "且互": 6550,
      "且该": 6551,
      "且客厅与": 6552,
      "且与走廊直接连通": 6553,
      "两卫": 6554,
      "为入口": 6555,
      "亦与": 6556,
      "仅与走廊相通": 6557,
      "但无": 6558,
      "但无直接连通": 6559,
      "八个房间": 6560,
      "其南面": 6561,
      "再下方是": 6562,
      "及浴室相邻": 6563,
      "和一个": 6564,
      "和走廊下方": 6565,
      "坐落": 6566,
      "来说": 6567,
      "浴缸": 6568,
      "的房子": 6569,
      "的通行路径": 6570,
      "还连通": 6571,
      "卧室正上方": 6572,
      "走廊上方是浴室": 6573,
      "浴室以及": 6574,
      "浴室上方是卧室": 6575,
      "客厅间接相连": 6576,
      "客厅东西两侧": 6577,
      "客厅上方是浴室": 6578,
      "厨房旁": 6579,
      "连接各主要": 6580,
      "上方的浴室相邻": 6581,
      "左侧浴室和": 6582,
      "左侧的客厅": 6583,
      "左侧连接一间卧室和一间浴室": 6584,
      "厨房位于走廊正下方": 6585,
      "房间间": 6586,
      "分别与走廊": 6587,
      "通过走廊可": 6588,
      "东侧厨房": 6589,
      "卫生间和厨房": 6590,
      "客厅位于上部中央": 6591,
      "其中中部": 6592,
      "其中厨房与客厅相邻": 6593,
      "其中左下角的卧室": 6594,
      "西侧通过走廊连接": 6595,
      "两个卧室并排位于": 6596,
      "两个并排": 6597,
      "卧室位于浴室右侧": 6598,
      "两间卧室与浴室": 6599,
      "右上角的卧室与": 6600,
      "所有房间除": 6601,
      "另一个卧室则位于": 6602,
      "两个浴室均": 6603,
      "厨房在北侧": 6604,
      "厨房在客厅东侧": 6605,
      "厨房在左侧中部": 6606,
      "厨房在卧室右侧": 6607,
      "中间无隔断": 6608,
      "与厨房相邻且连通": 6609,
      "三间卧室分布在": 6610,
      "中心点": 6611,
      "靠近入口": 6612,
      "通过走廊与其他区域相连": 6613,
      "连接厨房与": 6614,
      "该卧室上方是另一个卧室": 6615,
      "两个卧室分别位于左下和": 6616,
      "功能分明": 6617,
      "厨房位于左侧上方": 6618,
      "东南侧卧室相邻": 6619,
      "浴室在右上": 6620,
      "书房紧邻厨房北侧": 6621,
      "两个浴室分别位于中间偏右": 6622,
      "两个浴室分别位于左下角和": 6623,
      "其北侧与浴室相邻": 6624,
      "走廊贯穿中部连接各房间": 6625,
      "通过走廊连接卧室": 6626,
      "两间浴室分别位于左中部": 6627,
      "厨房位于房屋的": 6628,
      "共享垂直边界": 6629,
      "客厅的两侧": 6630,
      "北接另一间卧室": 6631,
      "两间卧室分别位于左下角和右下角": 6632,
      "客厅与过道": 6633,
      "次卧室南侧": 6634,
      "次卧室处于": 6635,
      "与走廊及一个卧室相邻": 6636,
      "右下卧室之间": 6637,
      "设有一个": 6638,
      "走廊左侧连接一间卧室": 6639,
      "厨房下方为": 6640,
      "厨房下方为浴室": 6641,
      "中下和右下": 6642,
      "右上卧室之间": 6643,
      "客厅左侧与一间卧室相邻": 6644,
      "浴室与过道相邻": 6645,
      "与卧室和厨房相连": 6646,
      "与北侧浴室和": 6647,
      "三个卧室分别位于右上角": 6648,
      "其中一间卧室相邻": 6649,
      "通过虚线表示连通关系": 6650,
      "走廊贯穿整个布局": 6651,
      "动线网络": 6652,
      "向下连接另一间卧室": 6653,
      "包括左侧的卧室": 6654,
      "厨房东侧接通": 6655,
      "三间卧室分别分布于东北": 6656,
      "中部偏右区域": 6657,
      "其下方是另一个卧室": 6658,
      "正南卧室则": 6659,
      "三个浴室分布在": 6660,
      "东北和西南区域": 6661,
      "一个在右上角": 6662,
      "右侧与另一间浴室相邻": 6663,
      "仅与过道相邻": 6664,
      "并与其共享边界": 6665,
      "相对独立": 6666,
      "的厨房相连": 6667,
      "靠近走廊末端": 6668,
      "门洞或通道": 6669,
      "三个卧室分别分布在西北": 6670,
      "中部偏北位置": 6671,
      "直接邻接走廊": 6672,
      "直接邻接客厅": 6673,
      "该卧室右侧为浴室": 6674,
      "主卧位于客厅东侧": 6675,
      "实现空间连接": 6676,
      "客厅与餐厅直接相连": 6677,
      "左下和右下位置": 6678,
      "卫生间东侧为卧室": 6679,
      "再往右是": 6680,
      "通过通道连通": 6681,
      "与过道房间相邻": 6682,
      "没有直接": 6683,
      "各房间通过虚线表示连通关系": 6684,
      "均与卧室或走廊": 6685,
      "三间卧室分布于左上": 6686,
      "两个卫生间及三个卧室": 6687,
      "具体来说": 6688,
      "走廊东端是厨房": 6689,
      "左下及右下区域": 6690,
      "的住宅平面布局": 6691,
      "两间卧室分别位于左上和右上区域": 6692,
      "客厅位于房屋中央偏南": 6693,
      "另有一间独立卧室": 6694,
      " 厨房 相邻": 6695,
      "各房间通过直线连接": 6696,
      "并通过一扇门与之相通": 6697,
      "环绕分布的布局结构": 6698,
      "走廊向下延伸": 6699,
      "客厅位于入口正前方": 6700,
      "西端通往卧室": 6701,
      "或斜线连接": 6702,
      "厨房东侧接通卫生间": 6703,
      "”;“": 6704,
      "且均与走廊直接连通": 6705,
      "中的": 6706,
      "仅通过虚线": 6707,
      "偏下位置": 6708,
      "其左右两侧": 6709,
      "则分布着": 6710,
      "则是卫生间": 6711,
      "南段": 6712,
      "及客厅相邻": 6713,
      "右接卧室": 6714,
      "和走廊相连": 6715,
      "四者": 6716,
      "大型": 6717,
      "左浴室": 6718,
      "并可": 6719,
      "并通向客厅": 6720,
      "并通过走廊连接至": 6721,
      "或间接连接": 6722,
      "有连接关系": 6723,
      "正中": 6724,
      "的分布结构": 6725,
      "相应": 6726,
      "设在": 6727,
      "卧室居中偏": 6728,
      "卧室主要": 6729,
      "浴室上方为": 6730,
      "客厅居": 6731,
      "客厅旁边": 6732,
      "厨房下方是浴室": 6733,
      "相邻并连通": 6734,
      "连接西侧卧室": 6735,
      "右侧和上方": 6736,
      "下方紧邻": 6737,
      "上方邻接": 6738,
      "上方的客厅": 6739,
      "通过开口连通": 6740,
      "左侧浴室及": 6741,
      "厨房位于客厅北侧": 6742,
      "厨房位于卧室下方": 6743,
      "南侧的卧室相邻": 6744,
      "北侧连接一间卧室": 6745,
      "与客厅间接连通": 6746,
      "东侧卧室及": 6747,
      "东侧通向客厅": 6748,
      "客厅位于走廊上方": 6749,
      "客厅位于中上部": 6750,
      "客厅位于厨房正上方": 6751,
      "客厅位于平面图的": 6752,
      "与厨房或客厅": 6753,
      "西侧分布": 6754,
      "一个靠近": 6755,
      "右上卧室和": 6756,
      "两个卧室房间": 6757,
      "中央走廊相连": 6758,
      "两个绿色": 6759,
      "两个浴室和厨房": 6760,
      "卧室位于浴室下方": 6761,
      "卧室位于西边": 6762,
      "卧室位于厨房的上方": 6763,
      "东南端": 6764,
      "形成从": 6765,
      "形成对角": 6766,
      "右上角的": 6767,
      "空间相连": 6768,
      "左上角卧室相邻": 6769,
      "另一个卧室相接": 6770,
      "两个浴室房间": 6771,
      "厨房在中间偏右位置": 6772,
      "并与过道相邻": 6773,
      "其上方依次": 6774,
      "其上方为另一间卧室": 6775,
      "客厅在东南角": 6776,
      "客厅在厨房东侧": 6777,
      "厨房和书房之间": 6778,
      "浴室在右下方": 6779,
      "浴室在东南角": 6780,
      "下方是一间卧室": 6781,
      "过道与厨房": 6782,
      "两个浴室分别位于左中部": 6783,
      "两个浴室分别位于左上角和": 6784,
      "其左侧紧邻厨房": 6785,
      "整体布局中各房间通过走廊实现连通": 6786,
      "西南角设有一间卧室": 6787,
      "整体布局呈纵向分布": 6788,
      "上方是卫生间": 6789,
      "上方是另一个浴室": 6790,
      "东北角的卧室": 6791,
      "多个房间的": 6792,
      "西北角设有一间卧室": 6793,
      "起居室与": 6794,
      "与下方的浴室": 6795,
      "两间浴室分别位于西北角": 6796,
      "彼此独立": 6797,
      "走廊的右上方": 6798,
      "客厅的左下方": 6799,
      "另一卧室靠近客厅": 6800,
      "下方卧室房间": 6801,
      "连接着卧室": 6802,
      "两间卧室分别位于布局的": 6803,
      "两间卧室分别位于西南和": 6804,
      "右下卧室与走廊": 6805,
      "设有一个浴室": 6806,
      "走廊左侧连接卧室": 6807,
      "其西侧与浴室相邻": 6808,
      "其西侧为浴室": 6809,
      "其上方是厨房": 6810,
      "走廊居中连接多个房间": 6811,
      "右上卧室下方": 6812,
      "厨房上方为": 6813,
      "延伸至客厅": 6814,
      "各房间通过内部": 6815,
      "与卧室和厨房": 6816,
      "最右侧的": 6817,
      "走廊贯穿中心": 6818,
      "走廊贯穿整个": 6819,
      "动线关系": 6820,
      "动线串联": 6821,
      "大部分面积": 6822,
      "卧室分布在左上": 6823,
      "作为中心": 6824,
      "两间卧室及厨房": 6825,
      "两间卧室及两个浴室": 6826,
      "一条横向走廊": 6827,
      "相邻关系明确": 6828,
      "第二间浴室位于": 6829,
      "均有直接连通关系": 6830,
      "另一间卧室位于东南角": 6831,
      "东北和西南": 6832,
      "的卫生间相连": 6833,
      "四周分布": 6834,
      "下连卧室": 6835,
      "走廊作为核心": 6836,
      "左侧卧室与右侧卧室": 6837,
      "此卧室上方": 6838,
      "门洞实现连通": 6839,
      "东南和西南区域": 6840,
      "连接上下两个卧室": 6841,
      "和右下方各有一间卧室": 6842,
      "通过一条走廊与客厅相连": 6843,
      "另一个位于下方": 6844,
      "第四间卧室相邻": 6845,
      "均通过虚线与": 6846,
      "均通过虚线与客厅或": 6847,
      "该卧室下方另有一间卧室": 6848,
      "该卧室右侧为走廊": 6849,
      "厨房居中偏北": 6850,
      "布置有一间卧室": 6851,
      "再往右是客厅": 6852,
      "之间有一条走廊相连": 6853,
      "实线边界明确分隔": 6854,
      "走廊向上延伸并连接": 6855,
      "上下分布两个卧室": 6856,
      "集中于": 6857,
      "形成以走廊为枢纽的放射状布局": 6858,
      "两个卫生间和三个卧室": 6859,
      "其中西南卧室与": 6860,
      "其中上方卧室与下方卧室": 6861,
      "所有房间均围绕走廊分布": 6862,
      "各区域通过边线": 6863,
      "错落分布": 6864,
      "整体布局呈分散式分布": 6865,
      "其中浴室在左": 6866,
      "与餐厅通过开放式门廊相连": 6867,
      "且与餐厅通过一扇门相连": 6868,
      "上下叠置": 6869,
      "厨房位于餐厅的东侧并与之直接连通": 6870,
      "厨房紧邻餐厅左侧并设有通往": 6871,
      "一个长方形的房屋结构": 6872,
      "该平面图展示了一栋": 6873,
      "与主": 6874,
      "与上下": 6875,
      "与另一间浴室相邻": 6876,
      "与另一个卧室相连": 6877,
      "东卧": 6878,
      "两卧室均": 6879,
      "仅与走廊相接": 6880,
      "仅通过走廊间接连通": 6881,
      "其中部分": 6882,
      "四室": 6883,
      "左接客厅": 6884,
      "并分别与": 6885,
      "无相邻房间": 6886,
      "无邻接房间": 6887,
      "无明显": 6888,
      "最后": 6889,
      "最左侧为": 6890,
      "有门相通": 6891,
      "线上": 6892,
      "走廊东南方向": 6893,
      "浴室连接": 6894,
      "客厅通过走廊连接": 6895,
      "客厅下方是另一个卧室": 6896,
      "厨房间接连通": 6897,
      "位于房屋": 6898,
      "相邻一个卧室": 6899,
      "右侧相邻浴室": 6900,
      "右侧与另一间卧室相连": 6901,
      "上方与客厅相接": 6902,
      "左侧连通": 6903,
      "左侧与厨房": 6904,
      "左侧紧邻客厅": 6905,
      "左侧挨着": 6906,
      "厨房位于中上部": 6907,
      "房间之间": 6908,
      "南侧连通客厅": 6909,
      "北侧卧室位于": 6910,
      "直接与厨房相邻": 6911,
      "通过走廊和": 6912,
      "东侧走廊相邻": 6913,
      "东侧紧邻浴室": 6914,
      "东侧厨房及": 6915,
      "卫生间的": 6916,
      "客厅位于右上": 6917,
      "其中下方卧室": 6918,
      "左上卧室下方": 6919,
      "左下卧室则": 6920,
      "房屋西北": 6921,
      "房屋平面图": 6922,
      "右下角卧室相连": 6923,
      "其右侧是卧室": 6924,
      "西南浴室": 6925,
      "并与浴室": 6926,
      "其上方与走廊相邻": 6927,
      "客厅占据南侧": 6928,
      "客厅占据西侧": 6929,
      "客厅占据东南角": 6930,
      "客厅在中间偏左位置": 6931,
      "同时与走廊和": 6932,
      "同时向上": 6933,
      "该卧室右方": 6934,
      "该卧室上方是另一间卧室": 6935,
      "两个卧室分别位于中上部": 6936,
      "紧邻客厅右侧": 6937,
      "两个浴室分别位于房屋的": 6938,
      "其北侧连接": 6939,
      "两个卫生间一个在": 6940,
      "与上方卧室相连": 6941,
      "上方是一个卧室": 6942,
      "客厅右侧为": 6943,
      "彼此相连": 6944,
      "走廊右侧连接厨房": 6945,
      "厨房右侧是客厅": 6946,
      "两间卧室分别位于房屋的": 6947,
      "客厅下方另有一间卧室": 6948,
      "次卧室北侧": 6949,
      "设有独立": 6950,
      "走廊左侧为客厅": 6951,
      "中上卧室与": 6952,
      "两个卧室及一个浴室相邻": 6953,
      "向东连接客厅": 6954,
      "三个卧室分别位于右上": 6955,
      "三个卧室分别位于左下角": 6956,
      "邻近厨房": 6957,
      "向右连接客厅": 6958,
      "东西相邻": 6959,
      "客厅及另一间卧室": 6960,
      "包括上方的卧室": 6961,
      "走廊南侧连接": 6962,
      "水平并列": 6963,
      "均有接触": 6964,
      "卧室的上方": 6965,
      "右侧连接一间浴室": 6966,
      "通过走廊或直接相邻实现连通": 6967,
      "住宅平面": 6968,
      "无独立通道或": 6969,
      "潜在连通": 6970,
      "正北卧室": 6971,
      "厨房与浴室之间": 6972,
      "连接上下多个房间": 6973,
      "该卫生间又": 6974,
      "两间浴室及厨房": 6975,
      "形成以走廊为轴心": 6976,
      "连接左侧厨房": 6977,
      "无重叠区域": 6978,
      "连接北侧浴室": 6979,
      "各房间通过走廊或相邻墙体": 6980,
      "无独立封闭结构": 6981,
      "上的位置": 6982,
      "一侧边界": 6983,
      "依次是浴室和卧室": 6984,
      "均通过走廊与其他功能区相连": 6985,
      "嵌套布局": 6986,
      "可通过走廊到达": 6987,
      "两间浴室和一条走廊的": 6988,
      "连接走廊和两个卧室": 6989,
      "所有房间均通过走廊或彼此": 6990,
      "卫生间介于次卧室和厨房之间": 6991,
      "均与走廊或卧室直接连通": 6992,
      "卧室位于客厅后方": 6993,
      "下边": 6994,
      "与右下": 6995,
      "与左下": 6996,
      "与左下角": 6997,
      "与两个卧室相连": 6998,
      "且通过": 6999,
      "之外": 7000,
      "其下方连接着": 7001,
      "南卧室": 7002,
      "及两间浴室": 7003,
      "及东南角": 7004,
      "各有一个卫生间": 7005,
      "四间": 7006,
      "大客厅": 7007,
      "并各自": 7008,
      "是另一个卫生间": 7009,
      "有床": 7010,
      "有独立": 7011,
      "有直接连接": 7012,
      "由一条走廊": 7013,
      "衔接客厅": 7014,
      "这两个卧室": 7015,
      "卧室或": 7016,
      "走廊东南角": 7017,
      "走廊上方是厨房": 7018,
      "浴室共有": 7019,
      "客厅连通": 7020,
      "客厅东北方向": 7021,
      "厨房 ": 7022,
      "厨房为核心": 7023,
      "厨房 与": 7024,
      "连接第三个卧室": 7025,
      "连接各个": 7026,
      "右侧下方": 7027,
      "右侧浴室位于": 7028,
      "右侧通过走廊与": 7029,
      "右侧与浴室相连": 7030,
      "下方接走廊": 7031,
      "下方的卫生间": 7032,
      "左侧与客厅相接": 7033,
      "南侧紧邻厨房": 7034,
      "南侧与另一间卧室相邻": 7035,
      "北侧与一间卧室相邻": 7036,
      "北侧连接另一间卧室": 7037,
      "直接连接厨房": 7038,
      "紧邻第二间卧室": 7039,
      "东侧亦": 7040,
      "分别位于走廊两侧": 7041,
      "其中底部": 7042,
      "其中右上方的卧室": 7043,
      "西侧紧邻客厅": 7044,
      "西侧卧室及": 7045,
      "西侧与一间卧室相连": 7046,
      "一个标有": 7047,
      "两个卧室区域": 7048,
      "两个卧室上下排列": 7049,
      "两个上下排列的卧室": 7050,
      "房屋东侧为客厅": 7051,
      "整体形成以客厅为核心": 7052,
      "虚线连通": 7053,
      "右下角还有一个卧室": 7054,
      "浴室和三个卧室": 7055,
      "浴室位于中间偏左": 7056,
      "形成上下": 7057,
      "形成视觉关联": 7058,
      "左下角的卧室与": 7059,
      "厨房在卧室": 7060,
      "厨房在其右侧": 7061,
      "厨房在餐厅": 7062,
      "东北卧室相邻": 7063,
      "中间为": 7064,
      "间接相通": 7065,
      "靠近厨房的": 7066,
      "靠近另一个浴室": 7067,
      "同时与浴室": 7068,
      "同时与厨房和": 7069,
      "同时与下方": 7070,
      "同时向下": 7071,
      "该卧室左侧为浴室": 7072,
      "两个卧室分别位于左下和右上": 7073,
      "上下区域": 7074,
      "另一个则": 7075,
      "厨房和另一间浴室": 7076,
      "紧邻走廊右侧": 7077,
      "紧邻走廊左侧": 7078,
      "右上方的": 7079,
      "中央偏南": 7080,
      "浴室在厨房上方": 7081,
      "书房处在": 7082,
      "两个浴室分别位于左上角": 7083,
      "两个浴室分别位于左侧和右侧": 7084,
      "的浴室则": 7085,
      "其北侧连接客厅": 7086,
      "与右侧的浴室": 7087,
      "东北侧和东南侧": 7088,
      "该浴室右方": 7089,
      "其下方与走廊相邻": 7090,
      "次卧与卫生间": 7091,
      "两者之间有": 7092,
      "其东侧与走廊相连": 7093,
      "通过一条虚线连接": 7094,
      "主卧室西侧": 7095,
      "客厅位于房屋左侧中部": 7096,
      "浴室及厨房相邻": 7097,
      "连接着一个卧室": 7098,
      "走廊上方为客厅": 7099,
      "走廊上方分布着": 7100,
      "厨房下方的卧室": 7101,
      "其西侧为": 7102,
      "南北相邻": 7103,
      "以及厨房": 7104,
      "各房间通过线条连接": 7105,
      "中上及": 7106,
      "分布着卧室": 7107,
      "两个卧室及厨房": 7108,
      "向南连接厨房": 7109,
      "一条纵向": 7110,
      "厨房与客厅直接相邻": 7111,
      "且与次卧室": 7112,
      "连接厨房和卫生间": 7113,
      "第三个卧室在": 7114,
      "卧室位于左侧和右侧": 7115,
      "厨房位于中央偏下": 7116,
      "中部偏左区域": 7117,
      "东北和西南角": 7118,
      "整体布局呈不规则矩形组合": 7119,
      "绿色区域的": 7120,
      "仅与一个卧室相邻": 7121,
      "偏右区域": 7122,
      "仅通过走廊与其他区域连通": 7123,
      "连接上下左右": 7124,
      "均通过虚线相连": 7125,
      "均通过虚线与客厅相连": 7126,
      "右连客厅": 7127,
      "连接左侧两个卧室": 7128,
      "分布的格局": 7129,
      "主卧位于客厅西侧": 7130,
      "床铺区域": 7131,
      "还有一个独立卧室": 7132,
      "且不与厨房直接相邻": 7133,
      "走廊向西延伸": 7134,
      "厨房紧邻客厅右侧": 7135,
      "邻接浴室与走廊": 7136,
      "一个浴室位于房子": 7137,
      "其中两间位于": 7138,
      "浴室夹在两个卧室之间": 7139,
      "两间卧室分别处于": 7140,
      "靠近各自对应的卧室": 7141,
      "其中两间卧室位于": 7142,
      "整体布局通过走廊实现各房间的连通": 7143,
      "中间夹着一个浴室": 7144,
      " 客厅 ": 7145,
      "其中卧室在左": 7146,
      "连接所有主要功能区": 7147,
      "另两间分别位于": 7148,
      "四间卧室分别分布于左上": 7149,
      "”、“": 7150,
      "客厅占据东北大片区域": 7151,
      "六个矩形区域组成": 7152,
      "各房间通过虚线连接显示相邻关系": 7153,
      "一处": 7154,
      "三侧": 7155,
      "不直接连通": 7156,
      "与一个浴室": 7157,
      "与另一个浴室相邻": 7158,
      "与第三间卧室相邻": 7159,
      "且都": 7160,
      "于客厅": 7161,
      "及左侧": 7162,
      "及右下方": 7163,
      "及厨房相邻": 7164,
      "及东南区域": 7165,
      "右接厨房": 7166,
      "各卧室均": 7167,
      "向东南": 7168,
      "和中间偏右位置": 7169,
      "和中间偏下位置": 7170,
      "在左侧": 7171,
      "外的": 7172,
      "带床的": 7173,
      "并与厨房相连": 7174,
      "是一间浴室": 7175,
      "次卧室和厨房": 7176,
      "正西": 7177,
      "的平面结构": 7178,
      "而客厅则位于": 7179,
      "连通过道": 7180,
      "走廊与客厅相邻": 7181,
      "浴室与走廊相连": 7182,
      "客厅 ": 7183,
      "客厅内": 7184,
      "客厅正南方": 7185,
      "厨房两侧": 7186,
      "厨房同时与": 7187,
      "下方卧室与浴室": 7188,
      "连通一间浴室": 7189,
      "南侧紧邻客厅": 7190,
      "分别通过": 7191,
      "直接相接": 7192,
      "通过走廊与厨房及": 7193,
      "紧邻次卧": 7194,
      "紧邻卧室和浴室": 7195,
      "东侧和西侧": 7196,
      "客厅位于最下方": 7197,
      "客厅位于西北区域": 7198,
      "其中上方的卧室": 7199,
      "西侧连接浴室": 7200,
      "西侧与卧室相连": 7201,
      "一个厨房位于左侧": 7202,
      "卧室位于西侧": 7203,
      "卧室位于厨房的": 7204,
      "东南卧室相邻": 7205,
      "浴室位于厨房正下方": 7206,
      "浴室位于卧室旁边": 7207,
      "与客厅相邻且连通": 7208,
      "通过虚线连接客厅": 7209,
      "西南卧室相邻": 7210,
      "另一个卧室与浴室相邻": 7211,
      "中间为客厅": 7212,
      "三间卧室相邻": 7213,
      "其上方与厨房相邻": 7214,
      "其上方连接客厅": 7215,
      "餐厅北邻厨房": 7216,
      "客厅占据底部": 7217,
      "客厅在东南侧": 7218,
      "客厅在走廊左侧": 7219,
      "客厅在中间偏右": 7220,
      "底部相接": 7221,
      "通过走廊与其余空间连通": 7222,
      "实现通行": 7223,
      "同时与走廊相连": 7224,
      "另一个床": 7225,
      "卧室在下方": 7226,
      "卧室在厨房正上方": 7227,
      "卧室在客厅正": 7228,
      "浴室在走廊右侧": 7229,
      "浴室在卧室上方": 7230,
      "浴室在厨房右上方": 7231,
      "左下方的卧室": 7232,
      "走廊位于中部偏右": 7233,
      "两个浴室分别位于房屋": 7234,
      "两个浴室分别位于厨房上方": 7235,
      "两个浴室分别位于左下角和右上角": 7236,
      "整体布局中各房间": 7237,
      "紧邻厨房与走廊": 7238,
      "与上方浴室和": 7239,
      "与上方的浴室和": 7240,
      "部分卧室相邻": 7241,
      "卧室及客厅相邻": 7242,
      "客厅和两个浴室": 7243,
      "客厅和多个房间": 7244,
      "东北角卧室": 7245,
      "该浴室右侧": 7246,
      "客厅右侧为厨房": 7247,
      "其下方为厨房": 7248,
      "有一门": 7249,
      "厨房右侧与客厅相邻": 7250,
      "右侧卧室下方": 7251,
      "其南侧紧邻一间浴室": 7252,
      "浴室及另一间卧室": 7253,
      "其中一个卧室靠近浴室": 7254,
      "厨房与另一间卧室": 7255,
      "两间卧室分别位于走廊的": 7256,
      "客厅下方为另一间卧室": 7257,
      "存在视觉关联": 7258,
      "设有一个卧室": 7259,
      "走廊左侧依次分布着": 7260,
      "和下方浴室": 7261,
      "其上方是卧室和浴室": 7262,
      "两个卫生间分别位于左侧中部": 7263,
      "墙体或通道": 7264,
      "卧室与浴室不直接相邻": 7265,
      "客厅左侧连接一间卧室": 7266,
      "左中浴室相邻": 7267,
      "明确的连通关系": 7268,
      "各房间通过直接相邻或间接连通": 7269,
      "左右两侧的卧室": 7270,
      "最右侧的卧室位于": 7271,
      "各功能区通过走廊或": 7272,
      "卧室与客厅直接相连": 7273,
      "向东连接厨房": 7274,
      "走廊贯穿东西": 7275,
      "邻近走廊": 7276,
      "两间上下排列的卧室": 7277,
      "另一个卧室位于左下角": 7278,
      "右中和右下": 7279,
      "任何浴室": 7280,
      "通过门连接": 7281,
      "且均与": 7282,
      "主卧室在客厅南侧并": 7283,
      "所有房间通过共享边界": 7284,
      "虚线连接显示": 7285,
      "右侧与卫生间相邻": 7286,
      "右侧与另一卧室相邻": 7287,
      "对称布局": 7288,
      "绿色区域相邻": 7289,
      "构成整体布局": 7290,
      "并与其直接连通": 7291,
      "对应卧室相邻": 7292,
      "客厅位于布局左侧": 7293,
      "还有一间卧室位于": 7294,
      "右侧的卧室相连": 7295,
      "卧室不与浴室相邻": 7296,
      "卧室不与客厅直接相邻": 7297,
      "依次排列着厨房和卫生间": 7298,
      "浴室的右侧": 7299,
      "中部偏西区域": 7300,
      "中部偏下区域": 7301,
      "上方卧室与下方卧室": 7302,
      "边缘相接": 7303,
      "该卧室上方另有一间卧室": 7304,
      "有两个相邻的卧室": 7305,
      "仅与走廊和客厅相邻": 7306,
      "另外两个卧室": 7307,
      "另外两个卧室分别位于": 7308,
      "一个浴室和另一个卧室": 7309,
      "通过走廊与厨房间接相连": 7310,
      "形成一个紧凑的居住空间结构": 7311,
      "所有房间均通过走廊实现内部连通": 7312,
      "垂直排列于": 7313,
      "上方和下方各有一个卧室": 7314,
      "且两者相邻": 7315,
      "直线连接": 7316,
      "通过走廊间接连接其他房间": 7317,
      "客厅同时与厨房": 7318,
      "下邻厨房": 7319,
      "划分明确": 7320,
      "卫生间则处于次卧室和厨房之间": 7321,
      "通过走廊连接厨房和浴室": 7322,
      "其中西侧卧室与": 7323,
      "夹着一间浴室": 7324,
      "右下和右上区域": 7325,
      "呈横向排列": 7326,
      "呈横向长条状": 7327,
      "上连厨房": 7328,
      "共享一条边界": 7329,
      "共享一条水平边界": 7330,
      "交通枢纽": 7331,
      "潜在动线或功能关联": 7332,
      "潜在动线或视觉关联": 7333,
      "形成以走廊为核心的辐射式布局": 7334,
      "各个房间通过直接或间接的连接": 7335,
      "所有房间均通过走廊或直接相邻实现连通": 7336,
      "卧室位于房屋的西南侧": 7337,
      "通过走廊与多个房间连通": 7338,
      "存在视觉或路径关联": 7339,
      "中上和右上位置": 7340,
      "与一个卫生间": 7341,
      "与紫色区域": 7342,
      "且处于": 7343,
      "且功能分明": 7344,
      "东段": 7345,
      "中枢": 7346,
      "也相邻": 7347,
      "亦有": 7348,
      "亦由走廊": 7349,
      "偏南": 7350,
      "偏南位置": 7351,
      "再向南": 7352,
      "出口": 7353,
      "及另一间浴室": 7354,
      "各与一个浴室相邻": 7355,
      "和中间": 7356,
      "和客厅下方": 7357,
      "多卧室环绕": 7358,
      "大部": 7359,
      "并邻接": 7360,
      "或角": 7361,
      "扩展": 7362,
      "整栋": 7363,
      "有序": 7364,
      "未标注": 7365,
      "由一扇门": 7366,
      "的右方": 7367,
      "的环形": 7368,
      "的紧凑布局": 7369,
      "第四间浴室": 7370,
      "距离": 7371,
      "这是": 7372,
      "门或通道": 7373,
      "隔一条走廊": 7374,
      "浴室正": 7375,
      "浴室区域": 7376,
      "浴室居中": 7377,
      "客厅西南侧": 7378,
      "厨房与下方": 7379,
      "厨房与上方卧室相邻": 7380,
      "连接三间卧室": 7381,
      "右侧两个卧室及": 7382,
      "上方接": 7383,
      "上方紧邻客厅": 7384,
      "上方客厅相邻": 7385,
      "上方卧室与浴室相邻": 7386,
      "左侧与客厅": 7387,
      "左侧紧邻一间卧室": 7388,
      "左侧接卧室": 7389,
      "另一浴室相连": 7390,
      "连通另一间浴室": 7391,
      "厨房位于走廊右上方": 7392,
      "房间相连": 7393,
      "北侧连接卧室": 7394,
      "与客厅通过虚线连接": 7395,
      "紧邻浴室和客厅": 7396,
      "东侧客厅相邻": 7397,
      "东侧卧室相连": 7398,
      "卫生间与卧室": 7399,
      "客厅位于走廊西侧": 7400,
      "客厅位于中部偏南": 7401,
      "客厅位于中部偏东": 7402,
      "其中厨房在": 7403,
      "房屋四周": 7404,
      "另一间卧室和一间浴室": 7405,
      "卧室位于走廊下方": 7406,
      "卧室位于客厅和厨房之间": 7407,
      "整体形成以走廊为核心": 7408,
      "与走廊相邻并通过虚线连接": 7409,
      "所有功能空间": 7410,
      "右下角区域": 7411,
      "浴室位于厨房": 7412,
      "其右侧是浴室": 7413,
      "右上角卧室则": 7414,
      "所有房间以实线框": 7415,
      "左上角卧室下方": 7416,
      "其上方连接厨房": 7417,
      "客厅占据北部": 7418,
      "客厅在走廊西侧": 7419,
      "通过走廊与其他空间连通": 7420,
      "同时通过虚线连接至": 7421,
      "该卧室右侧为客厅": 7422,
      "两个卧室分别位于左上和右下区域": 7423,
      "上下各有一间卧室": 7424,
      "东南侧设有一间卧室": 7425,
      "下方是一个浴室": 7426,
      "书房与": 7427,
      "书房西侧": 7428,
      "书房和厨房之间": 7429,
      "紧邻客厅和": 7430,
      "两个浴室分别位于客厅的": 7431,
      "与走廊和卫生间相邻": 7432,
      "并与之相通": 7433,
      "走廊贯穿中部偏东": 7434,
      "起居室相连": 7435,
      "与下方浴室和": 7436,
      "与下方浴室相连": 7437,
      "与下方的浴室相连": 7438,
      "厨房位于房屋中部偏左": 7439,
      "其东侧为卧室": 7440,
      "主卧内": 7441,
      "其中一个卧室和": 7442,
      "连接着两个卧室和一个浴室": 7443,
      "两个卧室和厨房": 7444,
      "北接一间卧室": 7445,
      "所有房间均通过走廊相连": 7446,
      "与走廊及厨房": 7447,
      "设有入口": 7448,
      "和下方各有一个卧室": 7449,
      "走廊上方连接浴室": 7450,
      "其西侧为走廊": 7451,
      "客厅左侧为浴室": 7452,
      "左中卧室相邻": 7453,
      "左中卧室与": 7454,
      "左中和右下区域": 7455,
      "中上和右下区域": 7456,
      "各功能区边界清晰": 7457,
      "客厅位于中央偏北": 7458,
      "另一间床": 7459,
      "动线连接": 7460,
      "动线清晰": 7461,
      "生活阳台": 7462,
      "卧室之间通过走廊相连": 7463,
      "分别与两个卧室相邻": 7464,
      "并排且": 7465,
      "房屋的布局": 7466,
      "其下方是厨房": 7467,
      "厨房北侧连接卫生间": 7468,
      "功能分区与": 7469,
      "浴室分布在房屋的": 7470,
      "内部通行": 7471,
      "上方为另一个卧室": 7472,
      "分隔开": 7473,
      "并通过一扇门相连": 7474,
      "卧室南侧紧邻书房": 7475,
      "均与走廊或卧室直接相邻": 7476,
      "中部偏东区域": 7477,
      "蓝色区域的": 7478,
      "该卫生间又与": 7479,
      "走廊向上连接": 7480,
      "卫生间处于厨房和主卧室之间": 7481,
      "通过一条走廊连通": 7482,
      "下方的另一个卧室": 7483,
      "依次排列着书房和卧室": 7484,
      "均不与厨房相邻": 7485,
      "卧室上方为浴室": 7486,
      "相邻或连通": 7487,
      "三者呈": 7488,
      "红色区域的厨房": 7489,
      "中右位置": 7490,
      "另有一浴室": 7491,
      "浴室位于房屋东南侧": 7492,
      "厨房在客厅西侧并与餐厅": 7493,
      "直接或间接的": 7494,
      "整体布局以走廊为核心通道": 7495,
      "且不与厨房相邻": 7496,
      "并与客厅直接相通": 7497,
      "上邻客厅": 7498,
      "上邻厨房": 7499,
      "与客厅相邻且通过走廊连通": 7500,
      "客厅占据右下大部分区域": 7501,
      "上方连接一个浴室": 7502,
      "房屋布局以中央走廊为核心": 7503,
      "推拉门相连": 7504,
      "串联起来": 7505,
      "浴室居中偏右": 7506,
      "之间有一扇门直接连通": 7507,
      "该空间布局包含七个房间和一个走廊": 7508,
      "东通客厅": 7509,
      "分别邻接卧室": 7510,
      "这是一个包含厨房": 7511,
      "卧室位于房子的东北侧": 7512,
      "设有一间独立卧室": 7513,
      "次卧室位于主卧室": 7514,
      "偏西位置": 7515,
      "该住宅布局中": 7516,
      "每个卧室都": 7517,
      "两间卧室和两个卫生间": 7518,
      "上下叠放": 7519,
      "形成环绕式布局": 7520,
      "卧室相邻于客厅": 7521,
      "南侧设有厨房入口": 7522,
      "三卧室": 7523,
      "上排": 7524,
      "与第一间卧室": 7525,
      "与两个卧室分别": 7526,
      "且通过走廊与客厅相连": 7527,
      "为玄关": 7528,
      "也通过虚线连接": 7529,
      "仅与走廊直接连通": 7530,
      "任一": 7531,
      "偏北": 7532,
      "右接浴室": 7533,
      "向东北": 7534,
      "呈纵向分布": 7535,
      "和中部偏下": 7536,
      "均直接": 7537,
      "并处于": 7538,
      "并相互连通": 7539,
      "或相邻关系": 7540,
      "最东南角": 7541,
      "有门": 7542,
      "设门": 7543,
      "贴合": 7544,
      "道推拉门": 7545,
      "卧室连通": 7546,
      "走廊通向": 7547,
      "走廊均相邻": 7548,
      "浴室间接相连": 7549,
      "客厅均相邻": 7550,
      "客厅横跨": 7551,
      "客厅周围": 7552,
      "厨房与走廊及": 7553,
      "厨房上方是浴室": 7554,
      "下方厨房相邻": 7555,
      "下方的厨房": 7556,
      "通过中间": 7557,
      "左侧紧邻浴室": 7558,
      "左侧与另一间卧室相邻": 7559,
      "左侧连接一个卧室": 7560,
      "另一卧室与浴室": 7561,
      "连通第三间卧室": 7562,
      "厨房位于走廊东侧": 7563,
      "厨房位于走廊正上方": 7564,
      "南侧卫生间": 7565,
      "南侧与浴室相连": 7566,
      "北侧连通": 7567,
      "北侧区域包含": 7568,
      "直接通向客厅": 7569,
      "与客厅部分重叠": 7570,
      "紧邻其": 7571,
      "紧邻右侧卧室": 7572,
      "客厅位于走廊北侧": 7573,
      "其中客厅与走廊相邻": 7574,
      "西侧依次连接": 7575,
      "布局中部": 7576,
      "布局呈不规则": 7577,
      "中央纵向": 7578,
      "两个浴室和客厅": 7579,
      "右下角的卫生间": 7580,
      "浴室位于房子的": 7581,
      "浴室位于中间偏左位置": 7582,
      "形成网络": 7583,
      "之间隔着": 7584,
      "贯穿南北": 7585,
      "厨房在东北方向": 7586,
      "厨房在其正下方": 7587,
      "占据较大空间": 7588,
      "中心走廊分布": 7589,
      "直接连通书房": 7590,
      "其上方与": 7591,
      "客厅占据下方": 7592,
      "客厅占据左上": 7593,
      "客厅占据左中部": 7594,
      "实现互通": 7595,
      "同时与卧室": 7596,
      "上下相接": 7597,
      "上下两个卧室及": 7598,
      "边界相接": 7599,
      "厨房和两个浴室": 7600,
      "紧邻走廊和": 7601,
      "紧邻走廊和一间卧室": 7602,
      "紧邻走廊和客厅": 7603,
      "通过走廊或间接路径": 7604,
      "通过走廊或开放空间": 7605,
      "卧室在右上": 7606,
      "卧室在左下方": 7607,
      "与卧室直接相连": 7608,
      "浴室在上方": 7609,
      "浴室在走廊上方": 7610,
      "浴室在厨房左侧": 7611,
      "浴室在厨房正上方": 7612,
      "下方是另一间浴室": 7613,
      "书房与主卧室": 7614,
      "走廊位于中间偏左位置": 7615,
      "两个浴室分别位于右上角和右下角": 7616,
      "两个浴室分别位于左侧和": 7617,
      "的浴室与厨房相邻": 7618,
      "其左侧与走廊相连": 7619,
      "与右侧厨房": 7620,
      "与上方浴室及": 7621,
      "走廊连接两个卧室": 7622,
      "部分对齐": 7623,
      "走廊贯穿中部并连接": 7624,
      "与客厅和浴室": 7625,
      "通过走廊连接各房间": 7626,
      "卧室及走廊相连": 7627,
      "与厨房和走廊相接": 7628,
      "下方连接两个卧室": 7629,
      "该浴室东侧": 7630,
      "两间浴室分别位于中部偏左": 7631,
      "共享一侧边界": 7632,
      "通向卫生间": 7633,
      "厨房右侧紧邻客厅": 7634,
      "厨房右侧是浴室": 7635,
      "客厅的右方": 7636,
      "主卧室相连": 7637,
      "另一卧室靠近厨房": 7638,
      "卧室位于房屋的南侧": 7639,
      "包含一个客厅": 7640,
      "客厅下方为厨房": 7641,
      "左侧卧室与客厅相邻": 7642,
      "右下卧室与客厅": 7643,
      "设有一个卫生间": 7644,
      "走廊左侧连接客厅": 7645,
      "客厅上方为另一间卧室": 7646,
      "形成一个整体布局": 7647,
      "厨房的下方": 7648,
      "厨房的左上方": 7649,
      "明确划分": 7650,
      "三间卧室分别位于左下角": 7651,
      "中上浴室": 7652,
      "中上和右侧": 7653,
      "走廊位于房屋中心": 7654,
      "向东延伸": 7655,
      "向东连接另一间卧室": 7656,
      "另一个卧室位于右上角": 7657,
      "另一个卧室位于走廊右侧": 7658,
      "北部卧室": 7659,
      "右中浴室": 7660,
      "右中区域": 7661,
      "右中和右下区域": 7662,
      "客厅及多个卧室": 7663,
      "且与两者": 7664,
      "其右侧紧邻一个卫生间": 7665,
      "连接厨房和两个卧室": 7666,
      "生活区相邻": 7667,
      "卧室的下方": 7668,
      "浴室右侧为客厅": 7669,
      "下方为另一个浴室": 7670,
      "最下方的卧室位于": 7671,
      "右侧连接另一个浴室": 7672,
      "走廊和厨房相邻": 7673,
      "阳台位于": 7674,
      "阳台的门": 7675,
      "右侧为另一个浴室": 7676,
      "通过一条短走廊连接": 7677,
      "仅通过走廊与其余空间相连": 7678,
      "东侧与卫生间相邻": 7679,
      "卧室不与厨房直接相邻": 7680,
      "蓝色区域的浴室": 7681,
      "走廊向上延伸至": 7682,
      "其中两个卧室位于左侧": 7683,
      "右上和左下": 7684,
      "右上和底部中央": 7685,
      "斜向连通": 7686,
      "通过虚线示意连通": 7687,
      "其中一个卧室位于走廊上方": 7688,
      "自上而下依次为浴室": 7689,
      "公共卫生间": 7690,
      "实现空间邻接": 7691,
      "与次卧相邻": 7692,
      "中左和": 7693,
      "左中和左下区域": 7694,
      "上邻浴室": 7695,
      "两间卧室及一间浴室相邻": 7696,
      "客厅占据右下较大区域": 7697,
      "次卧室在主卧室东侧": 7698,
      "之间由一扇门": 7699,
      "与上方的卧室和下方": 7700,
      "且与厨房有一门相通": 7701,
      "房屋西侧自北向南": 7702,
      "所有房间通过虚线表示潜在连通或视线关系": 7703,
      "各房间通过虚线表示连接关系": 7704,
      "两个浴室分别处于": 7705,
      "北靠厨房": 7706,
      "对角线": 7707,
      "走廊贯穿中部偏右位置": 7708,
      "其中东北卧室与": 7709,
      "另一间浴室及卧室": 7710,
      "另一间浴室及两间卧室": 7711,
      "均通过走廊与其他房间间接连通": 7712,
      "表明它们之间存在": 7713,
      "所有房间均围绕中央走廊分布": 7714,
      "整体构成一个": 7715,
      "独立设置于": 7716,
      "与两个卧室和一个浴室相邻": 7717,
      "整体呈围绕走廊的": 7718,
      " 客厅 相邻": 7719,
      "的卧室与中间的浴室相邻": 7720,
      "通过一个开放式": 7721,
      "非直接墙体": 7722,
      "厨房位于房子的东北侧": 7723,
      "各房间通过走廊和直接连接的方式": 7724,
      "呈十字形": 7725,
      "形成核心动线": 7726,
      "第三间在": 7727,
      "未与任何浴室直接相邻": 7728,
      "餐厅位于厨房左侧": 7729,
      "所有房间均通过走廊或直接邻接": 7730,
      "客厅占据右上方区域": 7731,
      "形成以客厅和厨房为核心": 7732,
      "大块区域": 7733,
      "一层": 7734,
      "下至": 7735,
      "且存在": 7736,
      "且靠近厨房": 7737,
      "于浴室": 7738,
      "于厨房": 7739,
      "六个房间和一个走廊": 7740,
      "分支": 7741,
      "北至": 7742,
      "及两个浴室": 7743,
      "右接客厅": 7744,
      "和两间卧室": 7745,
      "和左下部": 7746,
      "唯一": 7747,
      "均相连": 7748,
      "并通过一条": 7749,
      "并共用": 7750,
      "序列": 7751,
      "有直接连通": 7752,
      "有卧室和浴室": 7753,
      "有两个卧室和一个浴室": 7754,
      "浅绿": 7755,
      "由一扇": 7756,
      "的厨房和": 7757,
      "设计": 7758,
      "设一间浴室": 7759,
      "靠下": 7760,
      "卧室下方是浴室": 7761,
      "走廊还": 7762,
      "走廊直接相连": 7763,
      "走廊另一侧": 7764,
      "浴室旁边是卧室": 7765,
      "客厅左上角": 7766,
      "相邻空间": 7767,
      "右侧相连": 7768,
      "右侧另有一间卧室": 7769,
      "上方厨房": 7770,
      "上方连通": 7771,
      "左侧与浴室": 7772,
      "左侧连接走廊": 7773,
      "左侧紧邻卧室": 7774,
      "左侧接浴室": 7775,
      "左侧与上方卧室相邻": 7776,
      "左侧和上方": 7777,
      "另一浴室及": 7778,
      "厨房位于最东侧": 7779,
      "与走廊接壤": 7780,
      "房间位于": 7781,
      "南侧卧室相连": 7782,
      "分别与走廊相邻": 7783,
      "紧邻北侧": 7784,
      "紧邻其上方": 7785,
      "紧邻下方卧室": 7786,
      "卫生间分布在": 7787,
      "卫生间紧邻厨房": 7788,
      "客厅位于走廊正下方": 7789,
      "与厨房上下相邻": 7790,
      "其中厨房位于左侧": 7791,
      "其中东南侧": 7792,
      "其中东北侧": 7793,
      "其中中上部": 7794,
      "其中右下角的卧室": 7795,
      "西侧连通": 7796,
      "西侧边界": 7797,
      "西侧为另一间卧室": 7798,
      "两个绿色卧室": 7799,
      "房屋北部": 7800,
      "整体形成以走廊为中心": 7801,
      "其右侧与": 7802,
      "其右侧依次": 7803,
      "其右侧和上方": 7804,
      "所有房间以走廊为核心枢纽": 7805,
      "厨房在走廊东侧": 7806,
      "厨房在卧室下方": 7807,
      "东北浴室": 7808,
      "中间下方": 7809,
      "三间卧室和一间浴室": 7810,
      "西北浴室": 7811,
      "客厅占据西北": 7812,
      "客厅在走廊下方": 7813,
      "客厅在厨房左侧": 7814,
      "靠近厨房和走廊": 7815,
      "通过走廊与各房间": 7816,
      "通过走廊与中央区域": 7817,
      "通过走廊与其余空间": 7818,
      "实现内部连通": 7819,
      "该卧室同时与": 7820,
      "该卧室上方是浴室": 7821,
      "紧邻走廊东侧": 7822,
      "紧邻走廊西侧": 7823,
      "卧室在东南角": 7824,
      "卧室在厨房右侧": 7825,
      "与卧室相邻且": 7826,
      "延伸段": 7827,
      "浴室在其右侧": 7828,
      "左下方和右下方": 7829,
      "走廊位于客厅与卧室之间": 7830,
      "其左侧连接": 7831,
      "其左侧依次相邻": 7832,
      "独立区域": 7833,
      "西南角的卧室": 7834,
      "与上方的卧室相连": 7835,
      "与客厅和卫生间相邻": 7836,
      "通过走廊连接多个房间": 7837,
      "东北侧设有一间卧室": 7838,
      "该浴室南侧": 7839,
      "该浴室再向东": 7840,
      "与下方客厅": 7841,
      "与下方卫生间相邻": 7842,
      "两间浴室分别位于西南角": 7843,
      "两间浴室分别位于中下部": 7844,
      "厨房位于房屋中部偏北": 7845,
      "次卧处于": 7846,
      "次卧和卫生间": 7847,
      "横向连接": 7848,
      "第三间卧室和": 7849,
      "与左侧的浴室": 7850,
      "厨房右侧的卧室": 7851,
      "其南侧为客厅": 7852,
      "其南侧连接走廊": 7853,
      "客厅位于房屋西北角": 7854,
      "浴室及另一卧室": 7855,
      "主卧南侧": 7856,
      "走廊呈南北向": 7857,
      "其西侧紧邻卧室": 7858,
      "形成一个开放": 7859,
      "厨房的右下方": 7860,
      "客厅左侧为": 7861,
      "走廊东侧依次为厨房和卫生间": 7862,
      "绿色矩形": 7863,
      "左中和右上": 7864,
      "各功能区以": 7865,
      "整体呈现": 7866,
      "卧室分布在房间的": 7867,
      "客厅南侧直接连通主卧室": 7868,
      "向南连接另一间卧室": 7869,
      "两间卧室及另一浴室": 7870,
      "卧室与厨房及": 7871,
      "卧室与厨房直接相邻": 7872,
      "向下则": 7873,
      "第二间卧室的": 7874,
      "走廊北侧连接浴室": 7875,
      "客厅及厨房": 7876,
      "且与主卧室": 7877,
      "包括左侧": 7878,
      "房屋的西北角": 7879,
      "厨房东侧为客厅": 7880,
      "中部偏右位置": 7881,
      "均有直接通道": 7882,
      "最上方的卧室与": 7883,
      "正南卧室": 7884,
      "另一间卧室位于右上角": 7885,
      "均通过走廊或邻近房间": 7886,
      "通过虚线连接至走廊": 7887,
      "通过虚线连接至厨房": 7888,
      "浴室分布在走廊两侧": 7889,
      "右侧的另一个卧室": 7890,
      "中央区域由": 7891,
      "与客厅及走廊相邻": 7892,
      "潜在或": 7893,
      "潜在连接": 7894,
      "无直接连通路径": 7895,
      "下层浴室相邻": 7896,
      "通过虚线表示的通道": 7897,
      "门洞连通": 7898,
      "走廊连接着厨房": 7899,
      "浴室下方为卧室": 7900,
      "黄色矩形": 7901,
      "其中左上卧室与客厅相邻": 7902,
      "其中一间靠近厨房": 7903,
      "紧邻一个卧室和浴室": 7904,
      "另有一间浴室位于": 7905,
      "中间偏左的卧室": 7906,
      "右侧则通向": 7907,
      "直接邻接或": 7908,
      "均与过道相邻": 7909,
      "主卧位于东北角": 7910,
      "并与走廊相邻连通": 7911,
      "其上方为一个卧室": 7912,
      "客厅与餐厅相连": 7913,
      "客厅与餐厅相连通": 7914,
      "左中和左下": 7915,
      "通过门洞相连": 7916,
      "表明存在通路": 7917,
      "次卧室在主卧室右侧": 7918,
      "分别靠近不同卧室": 7919,
      "通过一条短走廊与客厅相连": 7920,
      "通过走廊或通道与": 7921,
      "浴室均不直接相邻": 7922,
      "串联起厨房": 7923,
      "与书房相邻且": 7924,
      "呈横向长条状贯穿中部": 7925,
      "形成以客厅为核心的放射状布局": 7926,
      "且通过一扇门与客厅相通": 7927,
      "与左侧的卧室和下方": 7928,
      "设有一间独立浴室": 7929,
      "顶层卧室": 7930,
      "彼此不直接相通": 7931,
      "与另一间卧室及卫生间相连": 7932,
      "各房间通过虚线表示的通道相互连通": 7933,
      "书房紧邻卧室东侧": 7934,
      "各房间通过直线或斜线连接": 7935,
      "南侧通向次卧": 7936,
      "客厅占据中下部较大区域": 7937,
      "餐厅紧邻厨房南侧且与客厅": 7938,
      "整体布局呈不规则拼接形态": 7939,
      "各房间之间有明确的连通关系": 7940,
      "各分布一间卧室": 7941,
      "呈竖直长条状": 7942,
      "所有房间通过走廊或直接边邻": 7943,
      "入户门": 7944,
      "同时该卧室也": 7945,
      "书房紧邻主卧室北侧": 7946,
      "连接上下左右多个房间": 7947,
      "下至上": 7948,
      "北至南": 7949,
      "下排": 7950,
      "与中部": 7951,
      "与卧室和浴室": 7952,
      "与浴室和卧室": 7953,
      "与另一浴室": 7954,
      "与另一浴室相邻": 7955,
      "且厨房与": 7956,
      "为主": 7957,
      "之连接": 7958,
      "仅与厨房和走廊相邻": 7959,
      "从走廊": 7960,
      "分置": 7961,
      "则连接着": 7962,
      "北浴": 7963,
      "北西侧": 7964,
      "呈纵向": 7965,
      "和中间偏右": 7966,
      "在底部": 7967,
      "带独立浴室": 7968,
      "并位于": 7969,
      "并通过虚线连通": 7970,
      "指示": 7971,
      "是床": 7972,
      "是第二间浴室": 7973,
      "特定": 7974,
      "特点": 7975,
      "的非": 7976,
      "的一间卧室": 7977,
      "的多房间": 7978,
      "西两侧": 7979,
      "还邻近": 7980,
      "连卧室": 7981,
      "邻走廊与": 7982,
      "顶端": 7983,
      "卧室共": 7984,
      "走廊连通客厅": 7985,
      "走廊正南方": 7986,
      "客厅连接": 7987,
      "客厅通过虚线": 7988,
      "客厅连接走廊": 7989,
      "客厅则处于": 7990,
      "厨房与浴室相连": 7991,
      "厨房仅与客厅和": 7992,
      "位于走廊右侧": 7993,
      "相邻走廊": 7994,
      "连接点": 7995,
      "右侧自下而上": 7996,
      "下方与卧室": 7997,
      "下方卧室与浴室相邻": 7998,
      "下方依次连接": 7999,
      "上方浴室位于": 8000,
      "上方接客厅": 8001,
      "上方相邻卧室": 8002,
      "左侧紧邻": 8003,
      "左侧自上而下": 8004,
      "左侧从上至下依次": 8005,
      "连通的空间结构": 8006,
      "连通所有主要房间": 8007,
      "厨房位于平面": 8008,
      "厨房位于浴室右侧": 8009,
      "厨房位于中下部": 8010,
      "厨房位于东北区域": 8011,
      "厨房位于客厅右下方": 8012,
      "厨房位于走廊右下方": 8013,
      "北侧接": 8014,
      "北侧紧邻客厅": 8015,
      "东侧连接一间浴室": 8016,
      "卫生间与厨房相邻": 8017,
      "客厅位于右下": 8018,
      "客厅位于右下区域": 8019,
      "分别位于左下": 8020,
      "西侧连接卧室": 8021,
      "一间卧室在": 8022,
      "两个区域": 8023,
      "卧室位于起居室": 8024,
      "卧室位于走廊北侧": 8025,
      "一个卧室房间": 8026,
      "浴室位于过道": 8027,
      "浴室位于右中部": 8028,
      "浴室位于最南端": 8029,
      "与客厅相邻但不直接连通": 8030,
      "形成了": 8031,
      "形成南北向": 8032,
      "直接相邻的方式": 8033,
      "厨房在右中部": 8034,
      "东北与": 8035,
      "并与右侧卧室相邻": 8036,
      "客厅在西北侧": 8037,
      "客厅在东北侧": 8038,
      "客厅在厨房北侧": 8039,
      "靠近一个浴室": 8040,
      "通过走廊与其他区域": 8041,
      "与浴室相邻但不直接连通": 8042,
      "同时通过虚线": 8043,
      "同时与厨房相邻": 8044,
      "两个卧室分别位于右上方和右下方": 8045,
      "上下各": 8046,
      "上下两个卫生间": 8047,
      "浴室在最下方": 8048,
      "浴室在卧室左侧": 8049,
      "两侧卧室": 8050,
      "左下方卧室与": 8051,
      "两个浴室分别位于西南和": 8052,
      "两个浴室分别位于中间偏上": 8053,
      "通道连通": 8054,
      "与浴室部分重叠": 8055,
      "其左侧依次连接": 8056,
      "其左侧与上方卧室相邻": 8057,
      "其左侧紧邻一间浴室": 8058,
      "西北侧卧室": 8059,
      "其北侧与": 8060,
      "另一间浴室相接": 8061,
      "与右侧的客厅和": 8062,
      "与厨房和卫生间相邻": 8063,
      "该浴室亦": 8064,
      "客厅右侧紧邻厨房": 8065,
      "其下方紧邻一个卧室": 8066,
      "两间浴室分别位于左上和": 8067,
      "两间浴室分别位于中部偏东": 8068,
      "两间浴室分别位于左下和": 8069,
      "两间浴室分别位于中上和": 8070,
      "共享一堵墙": 8071,
      "其东侧为厨房": 8072,
      "左右并列": 8073,
      "走廊右侧连接": 8074,
      "走廊右侧中部": 8075,
      "浴室及走廊相邻": 8076,
      "主卧相连": 8077,
      "客厅位于左侧中央": 8078,
      "两间卧室分别位于左上和右下": 8079,
      "走廊呈十字": 8080,
      "与走廊及下方卧室相邻": 8081,
      "和下方的浴室": 8082,
      "走廊上方连接": 8083,
      "顶部区域": 8084,
      "两个卫生间分别位于中部偏左": 8085,
      "走廊居中连接卧室": 8086,
      "中下浴室": 8087,
      "二者共享边界": 8088,
      "走廊东侧为": 8089,
      "各自的门": 8090,
      "浴室与床相邻": 8091,
      "分布着一间卧室": 8092,
      "三个卧室分别位于左上角": 8093,
      "其中一间卧室与厨房相邻": 8094,
      "走廊贯穿中心区域": 8095,
      "厨房左侧为浴室": 8096,
      "多个卧室相连": 8097,
      "邻近客厅": 8098,
      "作为中心区域": 8099,
      "蓝色的": 8100,
      "另一个卧室位于下方": 8101,
      "另一个卧室位于客厅下方": 8102,
      "东西两端": 8103,
      "右中和": 8104,
      "走廊北侧连接厨房": 8105,
      "走廊南侧为书房": 8106,
      "厨房东侧为浴室": 8107,
      "向上连接厨房": 8108,
      "浴室右侧为厨房": 8109,
      "最上方卧室与": 8110,
      "毗邻一间卧室": 8111,
      "主卧室在右上角": 8112,
      "所有房间通过墙体或门洞": 8113,
      "下部中央": 8114,
      "向北延伸至": 8115,
      "走廊横向贯穿中部并连接": 8116,
      "并通过一扇门相通": 8117,
      "从左至右依次为浴室": 8118,
      "其中一个浴室相邻": 8119,
      "辐射连接": 8120,
      "右上角的卧室则": 8121,
      "此卧室再": 8122,
      "三个卧室分别分布在左下": 8123,
      "与其他房间间接连通": 8124,
      "连接上下两个卧室及": 8125,
      "卫生间处于厨房和次卧室之间": 8126,
      "两间浴室及另一间卧室": 8127,
      "右上和右中位置": 8128,
      "直接或间接相连": 8129,
      "走廊右上方和右下方": 8130,
      "右连浴室": 8131,
      "向西连接": 8132,
      "走廊向右延伸至": 8133,
      "厨房居中偏左": 8134,
      "各房间通过走廊或直接相连": 8135,
      "浴室位于房屋东侧": 8136,
      "所有房间通过走廊或墙体边界": 8137,
      "其中一卧室与浴室相邻": 8138,
      "且不与客厅相邻": 8139,
      "且不与客厅直接相连": 8140,
      "客厅位于北侧中央": 8141,
      "底层卧室": 8142,
      "以虚线示意": 8143,
      "再往右是另一个卧室": 8144,
      "与客厅相邻且通过虚线连接": 8145,
      "或功能上的关联": 8146,
      "客厅占据右上大部分区域": 8147,
      "两个卧室分别处于": 8148,
      "一个浴室位于房子的": 8149,
      "客厅则占据": 8150,
      "客厅位于房屋南侧中央": 8151,
      "厨房与走廊之间": 8152,
      "通过走廊与其他房间连接": 8153,
      "两间浴室和两间卧室": 8154,
      "均不直接与客厅相邻": 8155,
      "客厅在厨房右方": 8156,
      "三个卧室及两个卫生间": 8157,
      "其中上方卧室与浴室相邻": 8158,
      "厨房在客厅西侧并通过一条走廊与客厅相连": 8159,
      "各房间通过走廊或直接边界相连": 8160,
      "作为核心通道连接所有房间": 8161,
      "均通过走廊或墙体与其他功能区": 8162,
      "两个卫生间分别嵌入": 8163,
      "整体呈十字形布局": 8164,
      "另有一个独立卧室": 8165,
      "但不与任何浴室直接相连": 8166,
      "整体布局呈不规则拼接状": 8167,
      "均与卧室或走廊相邻": 8168,
      "整体布局呈横向展开": 8169,
      "各邻一间卧室": 8170,
      "厨房位于厨房位于厨房位于厨房位于": 8171,
      "该平面图显示了一个": 8172,
      "形成以走廊为枢纽的放射式布局": 8173,
      "同一水平线上": 8174,
      "等房间通过走廊相连": 8175,
      "这是一": 8176,
      "下中": 8177,
      "与右上": 8178,
      "与右下方": 8179,
      "与左下卧室": 8180,
      "与两间卧室及": 8181,
      "与中间卧室相邻": 8182,
      "与中间偏下": 8183,
      "且相互连通": 8184,
      "且共享边界": 8185,
      "且有一扇门": 8186,
      "两卧室分别位于": 8187,
      "也通过走廊与其他房间连通": 8188,
      "交界": 8189,
      "仅与走廊连通": 8190,
      "但厨房": 8191,
      "作用": 8192,
      "在布局的": 8193,
      "均直接或间接": 8194,
      "墙壁": 8195,
      "左卧室与": 8196,
      "并向上延伸至": 8197,
      "并通过一条短走廊与": 8198,
      "并由一条": 8199,
      "并分叉": 8200,
      "或路径": 8201,
      "旁设有一间浴室": 8202,
      "次卫生间": 8203,
      "画面": 8204,
      "的起居室": 8205,
      "至走廊": 8206,
      "还通过走廊与": 8207,
      "靠走廊": 8208,
      "走廊垂直": 8209,
      "走廊西端": 8210,
      "浴室又与": 8211,
      "客厅与左侧卧室": 8212,
      "客厅下方是卧室": 8213,
      "客厅通过走廊与厨房相连": 8214,
      "厨房连接": 8215,
      "厨房与左侧": 8216,
      "厨房上方是卧室": 8217,
      "厨房上方是另一个卧室": 8218,
      "位于其右侧": 8219,
      "相邻另一卧室": 8220,
      "右侧紧邻一间卧室": 8221,
      "右侧大部分区域": 8222,
      "右侧从上至下依次": 8223,
      "下方接": 8224,
      "下方与卧室相连": 8225,
      "上方与厨房": 8226,
      "上方走廊相邻": 8227,
      "上方紧邻厨房": 8228,
      "上方紧邻浴室": 8229,
      "上方则与": 8230,
      "上方与卧室相连": 8231,
      "左侧紧邻厨房": 8232,
      "另一绿色": 8233,
      "南侧浴室与": 8234,
      "南侧卧室则": 8235,
      "南侧与厨房相连": 8236,
      "北侧紧邻浴室": 8237,
      "北侧与卧室相连": 8238,
      "区域相接": 8239,
      "分别与浴室": 8240,
      "直接到达": 8241,
      "与客厅不相邻": 8242,
      "东侧由": 8243,
      "东侧分布": 8244,
      "东侧与一间浴室相邻": 8245,
      "东侧依次连通": 8246,
      "东侧卧室及南侧": 8247,
      "客厅位于厨房": 8248,
      "客厅位于走廊的": 8249,
      "客厅位于平面": 8250,
      "客厅位于中部偏下位置": 8251,
      "中部为": 8252,
      "中部卧室相邻": 8253,
      "分别位于左右两侧": 8254,
      "西侧连接走廊": 8255,
      "西侧另有一间卧室": 8256,
      "右下浴室与": 8257,
      "左上卧室右侧": 8258,
      "中央走廊的": 8259,
      "两个上下排列": 8260,
      "分布有两间卧室": 8261,
      "卧室位于布局": 8262,
      "卧室位于走廊东侧": 8263,
      "与走廊相邻但不直接连通": 8264,
      "所有卧室和浴室": 8265,
      "浴室位于左下方": 8266,
      "浴室位于走廊正下方": 8267,
      "形成内部": 8268,
      "左下角有一间卧室": 8269,
      "所有房间相邻": 8270,
      "两个浴室均位于": 8271,
      "与厨房相邻并连通": 8272,
      "三间卧室和": 8273,
      "西北卧室相邻": 8274,
      "其上方紧邻一间浴室": 8275,
      "餐厅南侧": 8276,
      "客厅在走廊北侧": 8277,
      "客厅在上方中央": 8278,
      "靠近对应卧室": 8279,
      "同时连接客厅": 8280,
      "该卧室上方是客厅": 8281,
      "两个卧室分别位于左侧中部": 8282,
      "两个卧室分别位于左侧和右侧": 8283,
      "两个卧室分别位于左侧和下方": 8284,
      "另一个浴室和卧室": 8285,
      "厨房和次卧之间": 8286,
      "卧室在客厅右侧": 8287,
      "卧室在厨房正下方": 8288,
      "一个浴室在": 8289,
      "延伸部分": 8290,
      "东南侧的卧室": 8291,
      "浴室在下方": 8292,
      "下方是第三个卧室": 8293,
      "书房东侧与卧室相邻": 8294,
      "走廊位于中央偏右": 8295,
      "其左侧相邻": 8296,
      "西南侧和东南侧": 8297,
      "整体布局中厨房": 8298,
      "与上方的客厅和": 8299,
      "起居室直接相邻": 8300,
      "客厅右侧连接": 8301,
      "客厅右侧连接浴室": 8302,
      "共享部分边界": 8303,
      "次卧分别位于": 8304,
      "彼此间接连通": 8305,
      "和右下卧室": 8306,
      "通过一条通道相连": 8307,
      "其南侧与厨房相邻": 8308,
      "客厅位于房屋中央偏下": 8309,
      "客厅位于房屋中央偏左": 8310,
      "主卧及": 8311,
      "厨房与过道": 8312,
      "两个卧室和两个浴室相邻": 8313,
      "两间卧室分别位于左上角和右下角": 8314,
      "卧室位于房屋东北角": 8315,
      "走廊呈竖向": 8316,
      "次卧室相连": 8317,
      "连接卧室与厨房": 8318,
      "走廊上方为浴室": 8319,
      "厨房下方为卧室": 8320,
      "顶部浴室相邻": 8321,
      "一个卫生间相连": 8322,
      "中下及": 8323,
      "中下和右下区域": 8324,
      "二者均": 8325,
      "二者共同构成": 8326,
      "与餐厅相邻": 8327,
      "左右两侧房间": 8328,
      "相邻且均": 8329,
      "走廊横贯中部连接各区域": 8330,
      "卧室分布在四周": 8331,
      "多个卧室分布在": 8332,
      "卫生间位于房屋": 8333,
      "包括上方的": 8334,
      "无直接邻接关系": 8335,
      "厨房南侧是卫生间": 8336,
      "卧室右侧为浴室": 8337,
      "阳台西侧与厨房相邻": 8338,
      "多个矩形房间": 8339,
      "所有房间通过内部": 8340,
      "右侧与另一个卧室相邻": 8341,
      "上方为卫生间": 8342,
      "上方为一间卧室": 8343,
      "左侧为一个卧室": 8344,
      "并通过一扇门与餐厅相连": 8345,
      "大面积起居空间": 8346,
      "辐射分布": 8347,
      "下方的卧室以及": 8348,
      "右下角的卧室相连": 8349,
      "形成以客厅和": 8350,
      "左侧与一个卧室相邻": 8351,
      "厨房处于东南角": 8352,
      "东南和东北区域": 8353,
      "最大空间": 8354,
      "均通过虚线与客厅": 8355,
      "向西连接客厅": 8356,
      "有两个并排的卧室": 8357,
      "各房间通过走廊或门洞相互连通": 8358,
      "浴室位于房屋南侧": 8359,
      "起居区相邻": 8360,
      "直接或间接的方式": 8361,
      "其中一处": 8362,
      "厨房与卧室之间": 8363,
      "走廊在中间偏右位置": 8364,
      "形环绕结构": 8365,
      "再往右是卧室": 8366,
      "通过走廊间接或": 8367,
      "或走廊结构": 8368,
      "客厅与浴室之间": 8369,
      "房屋布局呈不规则": 8370,
      "且通过一条走廊连通": 8371,
      "左连厨房": 8372,
      "相邻并设门连通": 8373,
      "右下及右上区域": 8374,
      "卧室位于房子的南侧": 8375,
      "五个房间组成": 8376,
      "物理连通但存在": 8377,
      "第五个卧室": 8378,
      "书房紧邻卧室东侧并": 8379,
      " 厨房 ": 8380,
      "走廊呈横向贯穿中部区域": 8381,
      "客厅占据中下部区域": 8382,
      "和右侧卧室下方": 8383,
      "中央偏上区域": 8384,
      "其上方和下方各有一个卧室": 8385,
      "一个房屋平面图": 8386,
      "与生活区相邻": 8387,
      "均通过走廊可达": 8388,
      "作为主要通道连接所有房间": 8389,
      "均通过走廊与其他区域连接": 8390,
      "布局紧凑且功能分区明确": 8391,
      "非直接相邻但存在空间关联": 8392,
      "走廊呈南北走向贯穿中部": 8393,
      "之间有一条走廊相隔": 8394,
      "整体布局通过走廊实现了各房间的连通": 8395,
      "需经走廊或": 8396,
      "餐厅位于厨房左侧并与其直接相连": 8397,
      "这是一套": 8398,
      "两卧": 8399,
      "中卧": 8400,
      "中和": 8401,
      "为浴室和卧室": 8402,
      "为枢纽": 8403,
      "九个房间": 8404,
      "但无直接通道": 8405,
      "偏上位置": 8406,
      "及右上角": 8407,
      "向外": 8408,
      "在空间上": 8409,
      "均与厨房或": 8410,
      "定边界": 8411,
      "对外": 8412,
      "并直接": 8413,
      "并紧邻走廊": 8414,
      "并与客厅和": 8415,
      "并向下": 8416,
      "并有一门相通": 8417,
      "并向下延伸至": 8418,
      "并通过一条走廊与之相连": 8419,
      "或通道相互连通": 8420,
      "是卧室和浴室": 8421,
      "有另一间卧室": 8422,
      "此卧室与": 8423,
      "的右下方": 8424,
      "的绿色区域": 8425,
      "的内部": 8426,
      "直通": 8427,
      "穿插": 8428,
      "第六": 8429,
      "起到": 8430,
      "邻厨房与走廊": 8431,
      "卧室右上方": 8432,
      "走廊接壤": 8433,
      "走廊分布的": 8434,
      "走廊左端": 8435,
      "走廊分布的结构": 8436,
      "浴室分别": 8437,
      "浴室形成": 8438,
      "浴室旁边": 8439,
      "浴室再向右": 8440,
      "客厅仅与走廊相邻": 8441,
      "客厅与右侧卧室相邻": 8442,
      "客厅上方是另一个卧室": 8443,
      "厨房与上方卧室": 8444,
      "厨房独立于": 8445,
      "厨房上方是走廊": 8446,
      "位于右上角": 8447,
      "右侧相邻卧室": 8448,
      "右侧依次分布着": 8449,
      "右侧及下方": 8450,
      "下方两个卧室及": 8451,
      "下方客厅及": 8452,
      "上方两个卧室": 8453,
      "上方卧室与浴室": 8454,
      "上方无直接相邻房间": 8455,
      "上方挨着": 8456,
      "左侧与浴室相连": 8457,
      "左侧是走廊": 8458,
      "左侧无直接相邻房间": 8459,
      "左侧无其他房间": 8460,
      "另一绿色卧室": 8461,
      "厨房位于走廊左侧": 8462,
      "厨房位于客厅南侧": 8463,
      "南侧有": 8464,
      "南侧与客厅相接": 8465,
      "南侧区域包含": 8466,
      "南侧和西侧": 8467,
      "北侧紧邻厨房": 8468,
      "北侧浴室与": 8469,
      "北侧接客厅": 8470,
      "区域分别位于": 8471,
      "分别与客厅和": 8472,
      "紧邻其右侧": 8473,
      "紧邻另一个浴室": 8474,
      "东侧邻": 8475,
      "东侧的浴室相邻": 8476,
      "卫生间与厨房": 8477,
      "客厅位于整个布局的": 8478,
      "客厅位于走廊的右侧": 8479,
      "中部为客厅": 8480,
      "其中右上方": 8481,
      "其中左下角卧室与": 8482,
      "西侧卧室和": 8483,
      "西侧邻接": 8484,
      "西侧的卧室相邻": 8485,
      "一个浴室和厨房": 8486,
      "右上部分": 8487,
      "左上卧室和": 8488,
      "左上部分": 8489,
      "卧室位于厨房正下方": 8490,
      "一个卧室及": 8491,
      "右下角的浴室相邻": 8492,
      "浴室和床": 8493,
      "卧室和另一个卧室": 8494,
      "浴室位于最": 8495,
      "浴室位于客厅正下方": 8496,
      "浴室位于厨房正上方": 8497,
      "浴室位于厨房和客厅之间": 8498,
      "左下角区域": 8499,
      "左下角有一个卧室": 8500,
      "右上角卧室位于": 8501,
      "空间邻接": 8502,
      "左上角另有一间卧室": 8503,
      "两个浴室分处": 8504,
      "厨房在中间偏下位置": 8505,
      "厨房在走廊右下方": 8506,
      "各房间边界清晰": 8507,
      "各房间以矩形块": 8508,
      "中间为浴室": 8509,
      "其上方依次是": 8510,
      "客厅在南侧": 8511,
      "客厅在厨房西侧": 8512,
      "客厅在中央偏右": 8513,
      "底部卧室则": 8514,
      "靠近床": 8515,
      "与浴室相邻并连通": 8516,
      "依次通往": 8517,
      "该卧室正下方": 8518,
      "两个卧室分别位于西南和东南区域": 8519,
      "两个卧室分别位于左下角和": 8520,
      "紧邻走廊南侧": 8521,
      "卧室在客厅左侧": 8522,
      "浴室在卧室西侧": 8523,
      "浴室在中间偏上位置": 8524,
      "过道连接": 8525,
      "紧邻客厅下方": 8526,
      "两个浴室分别位于中下部": 8527,
      "两个浴室分别位于左下角和右下角": 8528,
      "两个浴室分别位于左上和右下": 8529,
      "其左侧依次分布着": 8530,
      "与走廊和一个卧室相邻": 8531,
      "与走廊和另一间卧室相邻": 8532,
      "西北侧卧室与": 8533,
      "居中偏北": 8534,
      "其北侧连接走廊": 8535,
      "两个卫生间均位于": 8536,
      "整体布局呈矩形": 8537,
      "整体布局呈多房间围绕": 8538,
      "与上方的浴室相连": 8539,
      "西北角卧室": 8540,
      "西北角的卧室": 8541,
      "起居室南侧": 8542,
      "客厅右侧和下方": 8543,
      "其下方与走廊相连": 8544,
      "两间浴室分别位于厨房": 8545,
      "两间浴室分别位于东北和": 8546,
      "共享上边界": 8547,
      "通向浴室": 8548,
      "两者不相邻": 8549,
      "两者垂直相邻": 8550,
      "上部和下部": 8551,
      "其东侧与一间卧室相邻": 8552,
      "左右两": 8553,
      "走廊右侧分布着": 8554,
      "走廊的右下方": 8555,
      "和右侧浴室": 8556,
      "和右侧的浴室": 8557,
      "其中一个卧室与厨房相邻": 8558,
      "客厅下方为走廊": 8559,
      "存在直接连通关系": 8560,
      "存在间接连通关系": 8561,
      "与走廊及客厅": 8562,
      "与走廊及右侧浴室相邻": 8563,
      "与走廊及下方浴室相邻": 8564,
      "左侧卧室与厨房相邻": 8565,
      "垂直分布": 8566,
      "右方连接走廊": 8567,
      "其西侧与卧室相邻": 8568,
      "形成一个连贯的空间结构": 8569,
      "绿色的": 8570,
      "厨房及第三间卧室": 8571,
      "各房间通过直接相邻或": 8572,
      "中上卧室相邻": 8573,
      "主要功能区": 8574,
      "与北侧的客厅相邻": 8575,
      "南部浴室": 8576,
      "入口左侧": 8577,
      "旁边有一个浴室": 8578,
      "卫生间位于卧室右侧": 8579,
      "两间并排的卧室": 8580,
      "向南连接客厅": 8581,
      "另一个卧室位于其下方": 8582,
      "分别与两间卧室": 8583,
      "分别与两间卧室相邻": 8584,
      "中央走廊布局": 8585,
      "左邻一间卧室": 8586,
      "并排相邻": 8587,
      "西南和东南方向": 8588,
      "依次排列浴室": 8589,
      "依次排列两个卧室": 8590,
      "下方浴室房间": 8591,
      "无直接邻接房间": 8592,
      "与任何浴室相邻": 8593,
      "下方为第三个卧室": 8594,
      "上层浴室相邻": 8595,
      "夹在走廊与": 8596,
      "厨房位于中央偏北": 8597,
      "西北和东南区域": 8598,
      "南连另一间卧室": 8599,
      "毗邻厨房": 8600,
      "另一间卧室位于西南角": 8601,
      "所有房间通过直接边线接触": 8602,
      "客厅居中分布": 8603,
      "对称或": 8604,
      "床位于右侧": 8605,
      "客厅位于中心偏右位置": 8606,
      "向北延伸": 8607,
      "并通过一扇门连接": 8608,
      "并通过一扇门直接相通": 8609,
      "和东侧中部": 8610,
      "红色矩形": 8611,
      "客厅位于布局右侧": 8612,
      "下方与一个卧室相邻": 8613,
      "右侧的卧室和浴室": 8614,
      "走廊连接着客厅": 8615,
      "其中一间靠近浴室": 8616,
      "分别连接两间卧室": 8617,
      "两个浴室及厨房": 8618,
      "实线或虚线表示": 8619,
      "一个卧室位于左侧": 8620,
      "走廊向北连接厨房": 8621,
      "所有房间通过走廊或直接边界实现空间衔接": 8622,
      "走廊连接客厅和厨房": 8623,
      "该卧室的右方": 8624,
      "并与走廊直接相通": 8625,
      "床铺相邻": 8626,
      "个房间和一个走廊的房子": 8627,
      "浴室与卧室之间": 8628,
      "两个卧室分别位于左上和左下区域": 8629,
      "三个卧室分布在左侧": 8630,
      "其正下方为浴室": 8631,
      "上下两部分": 8632,
      "左下角的卧室则": 8633,
      "并通过走廊与之连接": 8634,
      "上邻卧室": 8635,
      "各功能房间围绕分布": 8636,
      "四个区域": 8637,
      "四个方向": 8638,
      "房屋北侧设有一间浴室": 8639,
      "邻接厨房与走廊": 8640,
      "与浴室相邻且通过虚线连接": 8641,
      "客厅占据右上大部分空间": 8642,
      "之间有一条短": 8643,
      "下方卧室与下方浴室相邻": 8644,
      "被走廊隔开": 8645,
      "且通过一条走廊与客厅相连": 8646,
      "所有房间通过虚线表示潜在连通路径": 8647,
      "还有一间独立的卧室": 8648,
      "右侧上方为厨房": 8649,
      "通过走廊与厨房和卧室相连": 8650,
      "其中东北卧室与浴室相邻": 8651,
      "卧室分布于四周": 8652,
      "共享一条边": 8653,
      "与中央的客厅相邻": 8654,
      "其中右上角的浴室": 8655,
      "整体呈不规则拼接布局": 8656,
      "客厅在餐厅南侧且通过一条走廊与餐厅相连": 8657,
      "的住宅平面": 8658,
      "各房间通过边界直接相邻": 8659,
      "右下角的浴室则": 8660,
      "客厅位于房屋中央偏北": 8661,
      "整体呈非对称分布": 8662,
      "并通过一扇门与之相连": 8663,
      "正东方向": 8664,
      "与客厅和走廊均相邻": 8665,
      "连接所有主要功能空间": 8666,
      "中部偏北和中部偏南": 8667,
      "狭长状": 8668,
      "通过斜向虚线连接": 8669,
      "的连通路径相互关联": 8670,
      "同时客厅也": 8671,
      "各房间通过直接或间接的连接形成一个连通的整体": 8672,
      "所有房间以矩形块状排列": 8673,
      "客厅占据南部中央区域": 8674,
      "间房和": 8675,
      "主卧室与次卧室分别位于客厅两侧": 8676,
      "一个矩形房屋": 8677,
      "功能或动线关联": 8678,
      "厨房紧邻餐厅左侧并设有通往后院": 8679,
      "整栋建筑": 8680,
      "走廊贯穿中部偏东区域": 8681,
      "与底部": 8682,
      "与纵向": 8683,
      "与左上卧室": 8684,
      "与浴室和卧室相连": 8685,
      "且部分": 8686,
      "且与餐厅通过一条走廊相连": 8687,
      "也与走廊相邻": 8688,
      "仅与右侧": 8689,
      "再向西": 8690,
      "北段": 8691,
      "可以": 8692,
      "右浴室相邻": 8693,
      "右通客厅": 8694,
      "各有一卧室": 8695,
      "和一间卫生间": 8696,
      "在右侧": 8697,
      "在厨房正下方": 8698,
      "均通过走廊与客厅": 8699,
      "大空间": 8700,
      "并通过走廊": 8701,
      "并通过门": 8702,
      "并通过一扇推拉门": 8703,
      "或厨房相邻": 8704,
      "无任何": 8705,
      "的浴室和卧室": 8706,
      "的功能分区": 8707,
      "的通行": 8708,
      "该右侧卧室": 8709,
      "连着": 8710,
      "卧室一": 8711,
      "卧室又": 8712,
      "卧室紧邻厨房": 8713,
      "走廊下方连接": 8714,
      "浴室与右侧卧室相邻": 8715,
      "浴室下方是客厅": 8716,
      "浴室紧挨着": 8717,
      "客厅亦": 8718,
      "厨房又": 8719,
      "厨房与左侧卧室相邻": 8720,
      "厨房下方是走廊": 8721,
      "相邻边界": 8722,
      "相邻一个浴室": 8723,
      "相邻另一间浴室": 8724,
      "连接到": 8725,
      "右侧与卧室": 8726,
      "右侧连通客厅": 8727,
      "右侧延伸出": 8728,
      "右侧区域由": 8729,
      "下方通过走廊连接客厅": 8730,
      "上方有": 8731,
      "上方接走廊": 8732,
      "上方浴室右侧": 8733,
      "通过内": 8734,
      "左侧相接": 8735,
      "左侧的卧室位于": 8736,
      "另一端": 8737,
      "厨房位于右中部": 8738,
      "厨房位于中部偏南": 8739,
      "厨房位于中部偏下": 8740,
      "南侧的厨房": 8741,
      "南侧和东南侧": 8742,
      "北侧通向": 8743,
      "北侧设有一间卧室": 8744,
      "紧邻两个卧室": 8745,
      "东侧卧室则": 8746,
      "客厅位于厨房左侧": 8747,
      "客厅位于走廊南侧": 8748,
      "客厅位于厨房正下方": 8749,
      "客厅位于中部偏北": 8750,
      "客厅位于卧室和厨房之间": 8751,
      "与厨房隔墙相望": 8752,
      "分别位于左上和右上": 8753,
      "其中东南": 8754,
      "西侧和": 8755,
      "西侧紧邻一间卧室": 8756,
      "西侧区域包含": 8757,
      "左上浴室相邻": 8758,
      "两个卧室均位于": 8759,
      "中央的客厅": 8760,
      "房屋中心": 8761,
      "房屋南侧为客厅": 8762,
      "分布三个卧室": 8763,
      "卧室位于浴室上方": 8764,
      "卧室位于走廊正下方": 8765,
      "位置关系": 8766,
      "虚线关联": 8767,
      "东南方": 8768,
      "浴室和床相邻": 8769,
      "卧室和走廊相连": 8770,
      "浴室位于中上部": 8771,
      "浴室位于中下部": 8772,
      "通过虚线标注": 8773,
      "形成整体": 8774,
      "形成放射状布局": 8775,
      "其右侧是客厅": 8776,
      "所有房间通过走廊连接": 8777,
      "左上角区域": 8778,
      "左上角卧室右侧": 8779,
      "两个浴室以及": 8780,
      "厨房在其": 8781,
      "厨房在走廊南侧": 8782,
      "厨房在走廊正下方": 8783,
      "厨房在客厅的北侧": 8784,
      "各房间围绕其分布并": 8785,
      "三间卧室与两间浴室": 8786,
      "其上方与浴室相邻": 8787,
      "靠近另一间卧室": 8788,
      "该卧室上方是": 8789,
      "该卧室下方是客厅": 8790,
      "两个卧室分别位于右侧和下方": 8791,
      "上下连通": 8792,
      "上下对齐": 8793,
      "厨房和另一卧室": 8794,
      "厨房和另一个浴室": 8795,
      "通过走廊或通道相连": 8796,
      "与卧室连接": 8797,
      "右下方的": 8798,
      "浴室在左上方": 8799,
      "浴室在走廊下方": 8800,
      "书房与次卧室": 8801,
      "过道 与": 8802,
      "走廊位于西南侧": 8803,
      "走廊位于客厅下方": 8804,
      "走廊位于住宅": 8805,
      "两个浴室分别位于厨房下方": 8806,
      "两个浴室分别位于厨房的": 8807,
      "两个浴室分别位于中部偏东": 8808,
      "其左侧为厨房": 8809,
      "与走廊和浴室": 8810,
      "整体布局呈多房间环绕": 8811,
      "左上方浴室": 8812,
      "走廊贯穿中部连接各功能区": 8813,
      "与厨房和浴室均": 8814,
      "上方是一间卧室": 8815,
      "西北角卧室与": 8816,
      "客厅右侧连接厨房": 8817,
      "客厅右侧是厨房": 8818,
      "与下方的卧室相连": 8819,
      "其下方左侧为客厅": 8820,
      "和右下侧": 8821,
      "走廊右侧连接浴室": 8822,
      "与左侧卧室相连": 8823,
      "与左侧的客厅相邻": 8824,
      "厨房右侧是卧室": 8825,
      "连接走廊与": 8826,
      "客厅位于房屋中部偏左": 8827,
      "连接着左侧的卧室": 8828,
      "两个卧室和另一个浴室": 8829,
      "走廊呈东西向": 8830,
      "存在连接关系": 8831,
      "与走廊及另一间卧室相邻": 8832,
      "左侧卧室与客厅": 8833,
      "围绕中央走廊分布": 8834,
      "走廊左侧连接厨房": 8835,
      "和下方的": 8836,
      "走廊上方连接客厅": 8837,
      "厨房下方为另一间卧室": 8838,
      "两个卫生间分别位于左上和": 8839,
      "其中左上卧室下方": 8840,
      "走廊东侧连接": 8841,
      "走廊东侧连接卧室": 8842,
      "各自与走廊及": 8843,
      "较大的卧室": 8844,
      "与北侧浴室": 8845,
      "中心区域分布": 8846,
      "卧室与客厅及走廊相邻": 8847,
      "旁边都": 8848,
      "多个卧室分布于": 8849,
      "卫生间位于走廊尽头": 8850,
      "中间偏右的": 8851,
      "卧室之间也": 8852,
      "走廊西侧连接": 8853,
      "走廊西侧连接客厅": 8854,
      "客厅与厨房不直接相邻": 8855,
      "分区结构": 8856,
      "包括客厅": 8857,
      "并排且均": 8858,
      "其右侧紧邻另一间卧室": 8859,
      "生活区相连": 8860,
      "水平方向": 8861,
      "向上连接另一间卧室": 8862,
      "且均不": 8863,
      "且均通过走廊连通": 8864,
      "走廊及一间卧室相邻": 8865,
      "厨房北侧为浴室": 8866,
      "另一间卧室位于右下角": 8867,
      "另一间卧室位于东北角": 8868,
      "阳台西侧与卧室相邻": 8869,
      "右侧为一个卧室": 8870,
      "左侧浴室房间": 8871,
      "一个在右下角": 8872,
      "右侧中部和右下角": 8873,
      "左侧为卧室和浴室": 8874,
      "客厅处于中心区域": 8875,
      "另一个在左下角": 8876,
      "无独立隔离": 8877,
      "并与其相通": 8878,
      "厨房和客厅为核心": 8879,
      "向北连接厨房": 8880,
      "两个浴室和一个厨房": 8881,
      "走廊作为连接各个房间的": 8882,
      "从左至右依次为厨房": 8883,
      "仅通过走廊与其余空间": 8884,
      "形成以中央": 8885,
      "客厅位于布局中央偏左": 8886,
      "黄色的": 8887,
      "东南和正南方向": 8888,
      "依次为书房和卧室": 8889,
      "卫生间处于厨房和卧室之间": 8890,
      "主卧室位于客厅右侧": 8891,
      "与东侧的卧室相邻": 8892,
      "北端连接": 8893,
      "另一个位于右侧": 8894,
      "均通过虚线与走廊或": 8895,
      "右侧则连通": 8896,
      "北侧与卫生间相邻": 8897,
      "物理相邻": 8898,
      "连接左侧的浴室": 8899,
      "下方中央位置": 8900,
      "另外两个卧室位于": 8901,
      "所有卧室均通过走廊或": 8902,
      "厨房居中偏东": 8903,
      "彼此相邻且均与走廊相连": 8904,
      "共同位于": 8905,
      "右上及右下位置": 8906,
      "厨房位于布局上部中央": 8907,
      "第二个卧室相邻": 8908,
      "其正下方是卧室": 8909,
      "中间偏下的卧室": 8910,
      "东接另一卧室": 8911,
      "所有房间通过走廊实现间接连通": 8912,
      "所有房间通过走廊实现内部连通": 8913,
      "书房位于客厅西侧": 8914,
      "东侧则通向": 8915,
      "通过一条短走廊分别与": 8916,
      "客厅占据房屋东北区域": 8917,
      "通过走廊或通道间接连通": 8918,
      "与上方的卧室和右侧": 8919,
      "走廊呈竖直长条状": 8920,
      "卫生间则处于厨房和卧室之间": 8921,
      "最南侧的卧室": 8922,
      "厨房均不直接相邻": 8923,
      "通过走廊与其他房间间接连接": 8924,
      "各房间之间通过直接连接实现连通": 8925,
      "并通过一个开放式": 8926,
      "通路关系": 8927,
      "连接左右两侧空间": 8928,
      "次卧室位于厨房和主卧室之间": 8929,
      "再往下是另一个卧室": 8930,
      "两间卧室分别位于左上和右上": 8931,
      "的房屋平面图": 8932,
      "通过浴室间接相连": 8933,
      "两个卧室分别位于西南和东南角": 8934,
      "另有一间独立浴室": 8935,
      "在垂直方向上相邻": 8936,
      "共享边或": 8937,
      "北侧区域自西向东": 8938,
      "所有房间均通过走廊或直接边界实现空间连通": 8939,
      "通过走廊连接厨房和另一个卧室": 8940,
      "各房间通过直接连接或间接连接": 8941,
      "所有房间均通过中央走廊实现连通": 8942,
      "活动区域": 8943,
      "书房与卧室之间有一扇门相通": 8944,
      "各与一个卧室及走廊相邻": 8945,
      "客厅位于入口正对面": 8946,
      "所有房间以矩形块状拼接": 8947,
      "各房间通过走廊或直接连接": 8948,
      "所有房间以矩形块表示": 8949,
      "各房间之间有明确的": 8950,
      "表示它们之间的连通关系": 8951,
      "形式排列": 8952,
      "客厅占据左侧大部分区域": 8953,
      "网格状": 8954,
      "客厅占据右下方区域": 8955,
      "两个卧室分别位于上方左右两侧": 8956,
      "潜在连通或功能关联": 8957,
      "各个房间通过直接或间接的连接形成一个连通的整体": 8958,
      "**": 8959,
      "下接卧室": 8960,
      "与一个": 8961,
      "且与客厅相连": 8962,
      "且均通过走廊与": 8963,
      "且通过走廊连接至": 8964,
      "两卧室及": 8965,
      "为两间卧室": 8966,
      "为第二间卧室": 8967,
      "五个卧室": 8968,
      "五个房间和一个走廊": 8969,
      "任意": 8970,
      "八个房间和一个走廊": 8971,
      "其下方连接": 8972,
      "其东北方向": 8973,
      "其下侧": 8974,
      "其东面": 8975,
      "内侧": 8976,
      "动静": 8977,
      "及下方的": 8978,
      "另两个": 8979,
      "呈放射状": 8980,
      "均与厨房": 8981,
      "均与浴室相连": 8982,
      "均与客厅及": 8983,
      "多区域": 8984,
      "左向右": 8985,
      "并与走廊和": 8986,
      "床区域": 8987,
      "式连通结构": 8988,
      "形分布于": 8989,
      "或视觉": 8990,
      "无直接相连": 8991,
      "有独立卫生间": 8992,
      "此卧室南侧": 8993,
      "界定": 8994,
      "的分布": 8995,
      "的黄色": 8996,
      "的户型": 8997,
      "而成": 8998,
      "邻客厅与走廊": 8999,
      "重合": 9000,
      "门对": 9001,
      "走廊通道": 9002,
      "走廊正北": 9003,
      "浴室上方是另一个卧室": 9004,
      "浴室或客厅": 9005,
      "浴室右侧是卧室": 9006,
      "客厅还": 9007,
      "客厅与上方": 9008,
      "客厅下方是浴室": 9009,
      "客厅或厨房": 9010,
      "客厅向右延伸": 9011,
      "厨房靠近": 9012,
      "位于北侧": 9013,
      "位于其下方": 9014,
      "连接右侧": 9015,
      "连接区域": 9016,
      "右侧上方为客厅": 9017,
      "右侧通过走廊连接客厅": 9018,
      "右侧和底部": 9019,
      "右侧与厨房相接": 9020,
      "右侧依次连通": 9021,
      "右侧自上而下依次为卧室": 9022,
      "下方与厨房": 9023,
      "下方左右两侧": 9024,
      "下方紧邻另一间卧室": 9025,
      "上方有一个浴室": 9026,
      "上方连接另一间浴室": 9027,
      "通过共享边界": 9028,
      "通过通道相连": 9029,
      "通过边线": 9030,
      "通过客厅间接连通": 9031,
      "左侧与走廊": 9032,
      "左侧浴室相连": 9033,
      "左侧自上而下依次": 9034,
      "厨房位于西北": 9035,
      "厨房位于东南区域": 9036,
      "厨房位于走廊西侧": 9037,
      "厨房位于中部偏东": 9038,
      "厨房位于中部偏北": 9039,
      "南侧中部": 9040,
      "南侧布置": 9041,
      "北侧卫生间": 9042,
      "北侧两间卧室": 9043,
      "区域间接连通": 9044,
      "分别连接厨房": 9045,
      "分别与卧室和厨房相邻": 9046,
      "与客厅间接相连": 9047,
      "与客厅不直接相邻": 9048,
      "紧邻左侧卧室": 9049,
      "紧邻另一个卫生间": 9050,
      "紧邻卧室和走廊": 9051,
      "紧邻对应卧室": 9052,
      "东侧卧室下方": 9053,
      "东侧与卧室相连": 9054,
      "东侧通向厨房": 9055,
      "卫生间紧邻厨房南侧": 9056,
      "中部浴室相邻": 9057,
      "与厨房相通": 9058,
      "其中卧室位于": 9059,
      "其中西南角": 9060,
      "其中厨房与客厅": 9061,
      "其中下方浴室": 9062,
      "其中右侧浴室": 9063,
      "其中主卧与次卧": 9064,
      "西侧邻": 9065,
      "西侧卫生间": 9066,
      "西侧依次": 9067,
      "西侧的浴室相邻": 9068,
      "西侧与浴室相连": 9069,
      "中央为厨房": 9070,
      "的卧室与厨房": 9071,
      "虚线标示": 9072,
      "东南方位": 9073,
      "浴室和右侧卧室": 9074,
      "浴室和下方卧室": 9075,
      "两间卧室均位于": 9076,
      "浴室位于客厅左侧": 9077,
      "浴室位于最上方": 9078,
      "浴室位于中部偏左": 9079,
      "右上角浴室相邻": 9080,
      "右上角的浴室相邻": 9081,
      "所有房间之间": 9082,
      "直接相邻实现连通": 9083,
      "两个浴室均与走廊相邻": 9084,
      "中间走廊相邻": 9085,
      "并与上方卧室": 9086,
      "客厅占据较大面积": 9087,
      "客厅在走廊上方": 9088,
      "底部的": 9089,
      "底部两个卧室": 9090,
      "底部卧室与": 9091,
      "靠近厨房和卧室": 9092,
      "通过走廊与其他功能区": 9093,
      "通过走廊与另一间卧室相连": 9094,
      "与浴室相邻并通过虚线连接": 9095,
      "上下各有一个卧室": 9096,
      "连接客厅和厨房": 9097,
      "右上方卧室与": 9098,
      "卧室在东北侧": 9099,
      "卧室在东北角": 9100,
      "卧室在客厅南侧": 9101,
      "中央偏东": 9102,
      "浴室在左侧中部": 9103,
      "走廊位于中部偏左": 9104,
      "与浴室连通": 9105,
      "西南侧的卧室": 9106,
      "两个卫生间之间": 9107,
      "整体布局呈上下分层": 9108,
      "与右侧的客厅": 9109,
      "与上方的客厅相邻": 9110,
      "上方是一个浴室": 9111,
      "客厅和多个卧室及浴室": 9112,
      "东北角和西南角": 9113,
      "该浴室与": 9114,
      "该浴室右侧为走廊": 9115,
      "起居室及": 9116,
      "其下方与客厅相邻": 9117,
      "两间浴室分别位于左上角和右下角": 9118,
      "两间浴室分别位于左上角和": 9119,
      "横向贯通": 9120,
      "其东侧紧邻一间浴室": 9121,
      "厨房右侧连接走廊": 9122,
      "右侧卧室与客厅相邻": 9123,
      "走廊的北侧": 9124,
      "主卧室东侧": 9125,
      "客厅位于房屋东北角": 9126,
      "另一卧室相接": 9127,
      "其中一个卧室与客厅相邻": 9128,
      "连接着另一间卧室": 9129,
      "厨房与两间卧室": 9130,
      "客厅位于左侧最大区域": 9131,
      "两个卧室和卫生间": 9132,
      "上方卧室房间": 9133,
      "上方卧室与厨房": 9134,
      "上方卧室与厨房相邻": 9135,
      "客厅与两间卧室": 9136,
      "客厅与两个卧室相邻": 9137,
      "客厅下方为浴室": 9138,
      "存在直接相邻关系": 9139,
      "设有门": 9140,
      "走廊左侧为卧室": 9141,
      "走廊上方连接一间卧室和一间浴室": 9142,
      "厨房下方为走廊": 9143,
      "有一个卧室和一个浴室": 9144,
      "客厅上方为走廊": 9145,
      "其西侧自北向南": 9146,
      "其上方是浴室和卧室": 9147,
      "客厅东侧为卧室": 9148,
      "客厅东侧为走廊": 9149,
      "厨房的南侧": 9150,
      "厨房及两个卧室": 9151,
      "左中浴室与": 9152,
      "客厅西侧并": 9153,
      "左右两侧分别": 9154,
      "分布着两间卧室和一间浴室": 9155,
      "两个卧室及卫生间": 9156,
      "卧室则位于": 9157,
      "向东连通": 9158,
      "另一间则": 9159,
      "其中一间卧室与客厅相邻": 9160,
      "其中一间卧室紧邻客厅": 9161,
      "其中一间卧室紧邻厨房": 9162,
      "右中部浴室": 9163,
      "通过虚线表示连通": 9164,
      "西邻一间卧室": 9165,
      "整体呈多房间围绕": 9166,
      "东西并列": 9167,
      "的居住结构": 9168,
      "走廊西侧是厨房": 9169,
      "向下则通向": 9170,
      "走廊连接了所有主要房间": 9171,
      "客厅及两个卧室": 9172,
      "中央走廊连接客厅": 9173,
      "且与书房": 9174,
      "并排于": 9175,
      "厨房东侧为走廊": 9176,
      "水平相邻且": 9177,
      "第三个卧室相邻": 9178,
      "第三个卧室在右下角": 9179,
      "无直接门对": 9180,
      "均有门相通": 9181,
      "均有虚线相连": 9182,
      "卧室的左侧": 9183,
      "卧室的西侧": 9184,
      "浴室右侧为走廊": 9185,
      "四间卧室分别分布在": 9186,
      "下方为第三间卧室": 9187,
      "右侧连接一个卧室": 9188,
      "厨房北侧与": 9189,
      "厨房北侧连接餐厅": 9190,
      "主卧室在东北角": 9191,
      "一个在左下角": 9192,
      "各房间之间通过走廊相互连通": 9193,
      "上方为卧室和浴室": 9194,
      "和南侧各有一间卧室": 9195,
      "客厅位于中心偏上位置": 9196,
      "厨房西侧为浴室": 9197,
      "另一个在右侧": 9198,
      "构成一个": 9199,
      "并与其直接相邻": 9200,
      "组成的": 9201,
      "并通过一扇门连通": 9202,
      "功能分区明确的": 9203,
      "大片空间": 9204,
      "其中一个与厨房相邻": 9205,
      "均与走廊或浴室相邻": 9206,
      "同样与走廊相连": 9207,
      "中部偏南区域": 9208,
      "卫生间处于次卧和厨房之间": 9209,
      "下方则连通": 9210,
      "两个浴室及客厅": 9211,
      "其中左上角的浴室": 9212,
      "另一个位于走廊下方": 9213,
      "独立于主": 9214,
      "该卧室下方为客厅": 9215,
      "另一间卧室及厨房": 9216,
      "右连另一间卧室": 9217,
      "斜向相邻": 9218,
      "紫色的": 9219,
      "浴室则夹在": 9220,
      "走廊向北连接": 9221,
      "所有房间通过走廊或直接边界相连": 9222,
      "相邻房间连通": 9223,
      "相邻房间直接连通": 9224,
      "该卧室的东南方向": 9225,
      "连接北侧的浴室": 9226,
      "其中一间卧室位于西北角": 9227,
      "所有卧室均不与客厅直接相邻": 9228,
      "并与走廊连通": 9229,
      "其中左上卧室与浴室相连": 9230,
      "彼此不直接相连但均": 9231,
      "其上方为浴室和卧室": 9232,
      "浴室位于房屋西侧": 9233,
      "厨房在客厅西侧通过一条走廊相连": 9234,
      "所有房间通过走廊或相邻墙体": 9235,
      "右侧相邻客厅": 9236,
      "且不与客厅直接相邻": 9237,
      "最东侧的卧室": 9238,
      "北侧为阳台": 9239,
      "卫生间东侧连接厨房": 9240,
      "书房位于客厅东侧": 9241,
      "形环绕在": 9242,
      "各房间通过虚线标示的通道相互连通": 9243,
      "三间卧室分别分布在西北": 9244,
      "各功能房间围绕其分布并": 9245,
      "与客厅或厨房": 9246,
      "其右侧为一个卧室": 9247,
      "该空间由六个矩形区域组成": 9248,
      "客厅占据右上部分": 9249,
      "空间布局中": 9250,
      "下邻卧室": 9251,
      "与一个卧室相连": 9252,
      "依次分布卧室": 9253,
      "占据了大部分面积": 9254,
      "浴室居中偏左": 9255,
      "其中左侧卧室与浴室相邻": 9256,
      "左连走廊": 9257,
      "南侧则通向": 9258,
      "左侧卧室在厨房正下方": 9259,
      "所有房间通过虚线连接表示连通关系": 9260,
      "走廊与厨房之间": 9261,
      "且通过一扇门相通": 9262,
      "和右方各有一间卧室": 9263,
      "该房屋由": 9264,
      "该房屋平面图": 9265,
      "客厅占据底部中央位置": 9266,
      "正对客厅": 9267,
      "整体呈不规则拼接结构": 9268,
      "左侧上下位置": 9269,
      "厨房位于房子北侧": 9270,
      "厨房在客厅西侧并通过一条短走廊相连": 9271,
      "与厨房和客厅均相邻": 9272,
      "形成以走廊为核心的放射式布局": 9273,
      "服务于周边": 9274,
      "每个卧室旁边都": 9275,
      "或虚线路径": 9276,
      "该图显示了一个有七": 9277,
      "厨房上方是一个卧室": 9278,
      "彼此通过边界": 9279,
      "客厅位于正中间": 9280,
      "且这两间卧室": 9281,
      "卧室位于房子北侧": 9282,
      "整体布局呈分散式结构": 9283,
      "形成多向连通结构": 9284,
      "整体呈十字交叉": 9285,
      "作为核心区域": 9286,
      "左下与右下": 9287,
      "两个浴室分别位于左中和右中位置": 9288,
      "无直接跨区通道": 9289,
      "所有房间通过直接边界或": 9290,
      "整体布局呈紧凑矩形组合": 9291,
      "所有房间均通过走廊直接或间接连通": 9292,
      "相对位置和": 9293,
      "一个走廊和一个客厅": 9294,
      "所有房间通过走廊或墙体直接相连": 9295,
      "卧室主要分布在": 9296,
      "卧室位于客厅后方并通过走廊与之连接": 9297,
      "与左上角": 9298,
      "与中间浴室": 9299,
      "与两个浴室相连": 9300,
      "且面积较大": 9301,
      "且均与走廊连通": 9302,
      "为卧室和浴室": 9303,
      "仅与下方": 9304,
[...]
